{
  "version": "1.0",
  "truncation": null,
  "padding": null,
  "added_tokens": [
    {
      "id": 256,
      "content": "<|endoftext|>",
      "single_word": false,
      "lstrip": false,
      "rstrip": false,
      "normalized": false,
      "special": true
    }
  ],
  "normalizer": null,
  "pre_tokenizer": {
    "type": "ByteLevel",
    "add_prefix_space": false,
    "trim_offsets": true,
    "use_regex": true
  },
  "post_processor": null,
  "decoder": {
    "type": "ByteLevel",
    "add_prefix_space": true,
    "trim_offsets": true,
    "use_regex": true
  },
  "model": {
    "type": "BPE",
    "dropout": null,
    "unk_token": null,
    "continuing_subword_prefix": null,
    "end_of_word_suffix": null,
    "fuse_unk": false,
    "byte_fallback": false,
    "ignore_merges": false,
    "vocab": {
      "Ā": 0,
      "ā": 1,
      "Ă": 2,
      "ă": 3,
      "Ą": 4,
      "ą": 5,
      "Ć": 6,
      "ć": 7,
      "Ĉ": 8,
      "ĉ": 9,
      "Ċ": 10,
      "ċ": 11,
      "Č": 12,
      "č": 13,
      "Ď": 14,
      "ď": 15,
      "Đ": 16,
      "đ": 17,
      "Ē": 18,
      "ē": 19,
      "Ĕ": 20,
      "ĕ": 21,
      "Ė": 22,
      "ė": 23,
      "Ę": 24,
      "ę": 25,
      "Ě": 26,
      "ě": 27,
      "Ĝ": 28,
      "ĝ": 29,
      "Ğ": 30,
      "ğ": 31,
      "Ġ": 32,
      "!": 33,
      "\"": 34,
      "#": 35,
      "$": 36,
      "%": 37,
      "&": 38,
      "'": 39,
      "(": 40,
      ")": 41,
      "*": 42,
      "+": 43,
      ",": 44,
      "-": 45,
      ".": 46,
      "/": 47,
      "0": 48,
      "1": 49,
      "2": 50,
      "3": 51,
      "4": 52,
      "5": 53,
      "6": 54,
      "7": 55,
      "8": 56,
      "9": 57,
      ":": 58,
      ";": 59,
      "<": 60,
      "=": 61,
      ">": 62,
      "?": 63,
      "@": 64,
      "A": 65,
      "B": 66,
      "C": 67,
      "D": 68,
      "E": 69,
      "F": 70,
      "G": 71,
      "H": 72,
      "I": 73,
      "J": 74,
      "K": 75,
      "L": 76,
      "M": 77,
      "N": 78,
      "O": 79,
      "P": 80,
      "Q": 81,
      "R": 82,
      "S": 83,
      "T": 84,
      "U": 85,
      "V": 86,
      "W": 87,
      "X": 88,
      "Y": 89,
      "Z": 90,
      "[": 91,
      "\\": 92,
      "]": 93,
      "^": 94,
      "_": 95,
      "`": 96,
      "a": 97,
      "b": 98,
      "c": 99,
      "d": 100,
      "e": 101,
      "f": 102,
      "g": 103,
      "h": 104,
      "i": 105,
      "j": 106,
      "k": 107,
      "l": 108,
      "m": 109,
      "n": 110,
      "o": 111,
      "p": 112,
      "q": 113,
      "r": 114,
      "s": 115,
      "t": 116,
      "u": 117,
      "v": 118,
      "w": 119,
      "x": 120,
      "y": 121,
      "z": 122,
      "{": 123,
      "|": 124,
      "}": 125,
      "~": 126,
      "ġ": 127,
      "Ģ": 128,
      "ģ": 129,
      "Ĥ": 130,
      "ĥ": 131,
      "Ħ": 132,
      "ħ": 133,
      "Ĩ": 134,
      "ĩ": 135,
      "Ī": 136,
      "ī": 137,
      "Ĭ": 138,
      "ĭ": 139,
      "Į": 140,
      "į": 141,
      "İ": 142,
      "ı": 143,
      "Ĳ": 144,
      "ĳ": 145,
      "Ĵ": 146,
      "ĵ": 147,
      "Ķ": 148,
      "ķ": 149,
      "ĸ": 150,
      "Ĺ": 151,
      "ĺ": 152,
      "Ļ": 153,
      "ļ": 154,
      "Ľ": 155,
      "ľ": 156,
      "Ŀ": 157,
      "ŀ": 158,
      "Ł": 159,
      "ł": 160,
      "¡": 161,
      "¢": 162,
      "£": 163,
      "¤": 164,
      "¥": 165,
      "¦": 166,
      "§": 167,
      "¨": 168,
      "©": 169,
      "ª": 170,
      "«": 171,
      "¬": 172,
      "Ń": 173,
      "®": 174,
      "¯": 175,
      "°": 176,
      "±": 177,
      "²": 178,
      "³": 179,
      "´": 180,
      "µ": 181,
      "¶": 182,
      "·": 183,
      "¸": 184,
      "¹": 185,
      "º": 186,
      "»": 187,
      "¼": 188,
      "½": 189,
      "¾": 190,
      "¿": 191,
      "À": 192,
      "Á": 193,
      "Â": 194,
      "Ã": 195,
      "Ä": 196,
      "Å": 197,
      "Æ": 198,
      "Ç": 199,
      "È": 200,
      "É": 201,
      "Ê": 202,
      "Ë": 203,
      "Ì": 204,
      "Í": 205,
      "Î": 206,
      "Ï": 207,
      "Ð": 208,
      "Ñ": 209,
      "Ò": 210,
      "Ó": 211,
      "Ô": 212,
      "Õ": 213,
      "Ö": 214,
      "×": 215,
      "Ø": 216,
      "Ù": 217,
      "Ú": 218,
      "Û": 219,
      "Ü": 220,
      "Ý": 221,
      "Þ": 222,
      "ß": 223,
      "à": 224,
      "á": 225,
      "â": 226,
      "ã": 227,
      "ä": 228,
      "å": 229,
      "æ": 230,
      "ç": 231,
      "è": 232,
      "é": 233,
      "ê": 234,
      "ë": 235,
      "ì": 236,
      "í": 237,
      "î": 238,
      "ï": 239,
      "ð": 240,
      "ñ": 241,
      "ò": 242,
      "ó": 243,
      "ô": 244,
      "õ": 245,
      "ö": 246,
      "÷": 247,
      "ø": 248,
      "ù": 249,
      "ú": 250,
      "û": 251,
      "ü": 252,
      "ý": 253,
      "þ": 254,
      "ÿ": 255,
      "<|endoftext|>": 256,
      "Ġt": 257,
      "Ġa": 258,
      "he": 259,
      "in": 260,
      "Ġthe": 261,
      "re": 262,
      "Ġo": 263,
      "Ġs": 264,
      "Ġw": 265,
      "er": 266,
      "on": 267,
      "at": 268,
      "Ġc": 269,
      "en": 270,
      "it": 271,
      "Ġb": 272,
      "is": 273,
      "nd": 274,
      "Ġf": 275,
      "or": 276,
      "Ġp": 277,
      "ed": 278,
      "es": 279,
      "Ġto": 280,
      "ing": 281,
      "ou": 282,
      "Ġof": 283,
      "Ġin": 284,
      "an": 285,
      "Ġm": 286,
      "al": 287,
      "ar": 288,
      "Ġh": 289,
      "Ġand": 290,
      "Ġd": 291,
      "âĢ": 292,
      "Ġth": 293,
      "as": 294,
      "ic": 295,
      "le": 296,
      "om": 297,
      "ion": 298,
      "Ġn": 299,
      "ent": 300,
      "Ġl": 301,
      "ll": 302,
      "Ġre": 303,
      "ve": 304,
      "Ġbe": 305,
      "Ġe": 306,
      "st": 307,
      "ly": 308,
      "Ġg": 309,
      "id": 310,
      "ot": 311,
      "ut": 312,
      "Ġthat": 313,
      "Ġon": 314,
      "ct": 315,
      "ro": 316,
      "Ġis": 317,
      "ĠI": 318,
      "ĠT": 319,
      "ay": 320,
      "Ġfor": 321,
      "âĢĻ": 322,
      "ow": 323,
      "se": 324,
      "im": 325,
      "ad": 326,
      "ig": 327,
      "ver": 328,
      "am": 329,
      "et": 330,
      "ld": 331,
      "ce": 332,
      "Ġy": 333,
      "Ġu": 334,
      "Ġst": 335,
      "Ġit": 336,
      "Ġhe": 337,
      "ur": 338,
      "ĠS": 339,
      "ĠA": 340,
      "ith": 341,
      "Ġwh": 342,
      "Ġwe": 343,
      "ir": 344,
      "Ġwith": 345,
      "ch": 346,
      "ation": 347,
      "ĠC": 348,
      "Ġas": 349,
      "Ġan": 350,
      "ter": 351,
      "ill": 352,
      "Ġwas": 353,
      "Ġyou": 354,
      "ol": 355,
      "il": 356,
      "ĠâĢ": 357,
      "Ġha": 358,
      "ra": 359,
      "ke": 360,
      "ĠM": 361,
      "Ġcon": 362,
      "Ġat": 363,
      "Ġde": 364,
      "ers": 365,
      "her": 366,
      "Ġse": 367,
      "ate": 368,
      "Ġare": 369,
      "if": 370,
      "Ġmo": 371,
      "ĠB": 372,
      "ge": 373,
      "ĠThe": 374,
      "Ġcom": 375,
      "Ġfr": 376,
      "ment": 377,
      "Ġ1": 378,
      "ck": 379,
      "Ġ2": 380,
      "Ġ(": 381,
      "pp": 382,
      "ĠW": 383,
      "Ġpro": 384,
      "Ġne": 385,
      "est": 386,
      "ĠP": 387,
      "igh": 388,
      "Ġr": 389,
      "ul": 390,
      "Ġnot": 391,
      "op": 392,
      "âĢĿ": 393,
      "ort": 394,
      "Ġhave": 395,
      "Ġex": 396,
      "ould": 397,
      "Ġor": 398,
      "Ġsu": 399,
      "Ġby": 400,
      "ist": 401,
      "ĠH": 402,
      "Ġfrom": 403,
      "res": 404,
      "Ġv": 405,
      "ri": 406,
      "'s": 407,
      "us": 408,
      "Ġal": 409,
      "ain": 410,
      "ity": 411,
      "Ġthis": 412,
      "th": 413,
      "oo": 414,
      "ess": 415,
      "ĠD": 416,
      "ive": 417,
      "Ġsh": 418,
      "nt": 419,
      "em": 420,
      "ĠF": 421,
      "art": 422,
      "ĠR": 423,
      "Ġsa": 424,
      "ant": 425,
      "Ġle": 426,
      "ĠN": 427,
      "The": 428,
      "ight": 429,
      "um": 430,
      "ust": 431,
      "Ġab": 432,
      "and": 433,
      "ĠâĢľ": 434,
      "pe": 435,
      "out": 436,
      "un": 437,
      "Ġch": 438,
      "Ġhas": 439,
      "os": 440,
      "qu": 441,
      "red": 442,
      "Ġhis": 443,
      "end": 444,
      "Ġpl": 445,
      "ab": 446,
      "ome": 447,
      "ies": 448,
      "Ġdo": 449,
      "ally": 450,
      "00": 451,
      "all": 452,
      "ear": 453,
      "gh": 454,
      "ie": 455,
      "Ġthey": 456,
      "ĠG": 457,
      "Ġj": 458,
      "Ġbut": 459,
      "Ġwor": 460,
      "Ġwill": 461,
      "ĠJ": 462,
      "Ġsaid": 463,
      "rou": 464,
      "Ġcan": 465,
      "Ġwhe": 466,
      "iv": 467,
      "ast": 468,
      "ĠL": 469,
      "ard": 470,
      "Ġall": 471,
      "el": 472,
      "Ġwho": 473,
      "ack": 474,
      "Ġ\"": 475,
      "ĠE": 476,
      "ud": 477,
      "Ġso": 478,
      "ich": 479,
      "our": 480,
      "Ġk": 481,
      "Ġgo": 482,
      "ĠO": 483,
      "Ġint": 484,
      "Ġtheir": 485,
      "Ġout": 486,
      "ak": 487,
      "ide": 488,
      "ame": 489,
      "ĠU": 490,
      "ther": 491,
      "pt": 492,
      "Ġmore": 493,
      "ci": 494,
      "ice": 495,
      "Ġup": 496,
      "ike": 497,
      "Ġme": 498,
      "ong": 499,
      "ect": 500,
      "Ġabout": 501,
      "ure": 502,
      "one": 503,
      "Ġad": 504,
      "Ġone": 505,
      "ore": 506,
      "Ġwere": 507,
      "so": 508,
      "ag": 509,
      "Ġus": 510,
      "ans": 511,
      "ions": 512,
      "Ġhad": 513,
      "Ġcomp": 514,
      "ff": 515,
      "age": 516,
      "Ġwould": 517,
      "ime": 518,
      "cc": 519,
      "Ġwhich": 520,
      "Ġ20": 521,
      "very": 522,
      "ine": 523,
      "Ġcont": 524,
      "Ġag": 525,
      "ry": 526,
      "ake": 527,
      "Ġoff": 528,
      "ous": 529,
      "Ġbeen": 530,
      "Ġcl": 531,
      "Ġte": 532,
      "Ġim": 533,
      "ated": 534,
      "per": 535,
      "ue": 536,
      "Ġyear": 537,
      "ber": 538,
      "pl": 539,
      "Ġlike": 540,
      "Ġen": 541,
      "ind": 542,
      "ep": 543,
      "act": 544,
      "ĠTh": 545,
      "od": 546,
      "ost": 547,
      "are": 548,
      "ign": 549,
      "Ġev": 550,
      "Ġman": 551,
      "Ġpe": 552,
      "ub": 553,
      "Ġinc": 554,
      "ays": 555,
      "Ġother": 556,
      "ary": 557,
      "au": 558,
      "ew": 559,
      "Ġpr": 560,
      "Ġsome": 561,
      "Ġres": 562,
      "ook": 563,
      "ere": 564,
      "Ġper": 565,
      "ople": 566,
      "ia": 567,
      "Ġ201": 568,
      "ac": 569,
      "Ġthere": 570,
      "ite": 571,
      "Ġalso": 572,
      "Ġthan": 573,
      "Ġbec": 574,
      "ĠSt": 575,
      "Ġsp": 576,
      "Ġnew": 577,
      "Ġthem": 578,
      "ose": 579,
      "mer": 580,
      "Ġun": 581,
      "ence": 582,
      "ile": 583,
      "Ġyour": 584,
      "Ġwhen": 585,
      "Ġwhat": 586,
      "Ġwork": 587,
      "ap": 588,
      "Ġpart": 589,
      "Ġpeople": 590,
      "ace": 591,
      "Ġapp": 592,
      "Ġover": 593,
      "ood": 594,
      "fter": 595,
      "ount": 596,
      "ord": 597,
      "ire": 598,
      "Ġtr": 599,
      "Ġar": 600,
      "ĠIn": 601,
      "oc": 602,
      "Ġany": 603,
      "Ġjust": 604,
      "ree": 605,
      "Ġits": 606,
      "port": 607,
      "own": 608,
      "ress": 609,
      "Ġtime": 610,
      "ough": 611,
      "ations": 612,
      "ult": 613,
      "ĠIt": 614,
      "ass": 615,
      "ance": 616,
      "Ġkn": 617,
      "ical": 618,
      "ase": 619,
      "Ġdis": 620,
      "int": 621,
      "Ġqu": 622,
      "Ġher": 623,
      "Ġif": 624,
      "Ġget": 625,
      "able": 626,
      "Ġmy": 627,
      "Ġinto": 628,
      ".âĢĿ": 629,
      "lic": 630,
      "ond": 631,
      "Ġtw": 632,
      "iz": 633,
      "irst": 634,
      "ip": 635,
      "reat": 636,
      "orm": 637,
      "ial": 638,
      "Ġno": 639,
      "ble": 640,
      "ction": 641,
      "Ġ3": 642,
      "og": 643,
      "Ġour": 644,
      "du": 645,
      "ru": 646,
      "vel": 647,
      "ail": 648,
      "ach": 649,
      "Ġ-": 650,
      "ound": 651,
      "Ġrec": 652,
      "ĠCh": 653,
      "ident": 654,
      "Ġplay": 655,
      "ink": 656,
      "ĠY": 657,
      "ause": 658,
      "ory": 659,
      "ition": 660,
      "av": 661,
      "ark": 662,
      "Ġshe": 663,
      "Ġco": 664,
      "Ġafter": 665,
      ",âĢĿ": 666,
      "Ġpol": 667,
      "Ġcould": 668,
      "Ġfirst": 669,
      "ens": 670,
      "Ġ19": 671,
      "ings": 672,
      "Ġhow": 673,
      "Ġpre": 674,
      "wn": 675,
      "ĠK": 676,
      "Ġhim": 677,
      "'t": 678,
      "hing": 679,
      "Ġonly": 680,
      "ade": 681,
      "Ġacc": 682,
      "ick": 683,
      "Ġpo": 684,
      "Ġatt": 685,
      "Ġtwo": 686,
      "Ġfe": 687,
      "Ġro": 688,
      "Ġsc": 689,
      "amp": 690,
      "ĠHe": 691,
      "vers": 692,
      "itt": 693,
      "ild": 694,
      "Ġact": 695,
      "âĢľ": 696,
      "ors": 697,
      "Ġser": 698,
      "ates": 699,
      "Ġbet": 700,
      "Ġspe": 701,
      "Ġcomm": 702,
      "ian": 703,
      "nder": 704,
      ".\"": 705,
      "Ġmost": 706,
      "ict": 707,
      "Ġback": 708,
      "form": 709,
      "ĠâĢĵ": 710,
      "Ġdid": 711,
      "urn": 712,
      "Ġagain": 713,
      "rough": 714,
      "ang": 715,
      "ces": 716,
      "ious": 717,
      "Ġwant": 718,
      "round": 719,
      "day": 720,
      "hed": 721,
      "ft": 722,
      "ĠâĢĶ": 723,
      "Ġbl": 724,
      "uch": 725,
      "Ġbecause": 726,
      "Ġnow": 727,
      "Ġdec": 728,
      "Ġyears": 729,
      "Ġam": 730,
      "Ġneed": 731,
      "Ġdes": 732,
      "Ġeven": 733,
      "Ġra": 734,
      "ason": 735,
      "ved": 736,
      "Ġ$": 737,
      "Ġknow": 738,
      "fere": 739,
      "lud": 740,
      "Ġcons": 741,
      "ublic": 742,
      "Ġsee": 743,
      "sel": 744,
      "Ġunder": 745,
      "we": 746,
      "Ġadd": 747,
      "Ġinv": 748,
      ",\"": 749,
      "Ġ4": 750,
      "Ġevery": 751,
      "ater": 752,
      "fore": 753,
      "Ġsec": 754,
      "ish": 755,
      "ne": 756,
      "Ġla": 757,
      "cial": 758,
      "Ġmake": 759,
      "ents": 760,
      "ĠV": 761,
      "Ġthese": 762,
      "Ġsupp": 763,
      "tern": 764,
      "ob": 765,
      "ning": 766,
      "ual": 767,
      "Ġwhere": 768,
      "ced": 769,
      "rit": 770,
      "Ġind": 771,
      "ĠWe": 772,
      "Ġbu": 773,
      "ise": 774,
      "other": 775,
      "Ġthink": 776,
      "Ġtra": 777,
      "ments": 778,
      "Ġlook": 779,
      "oy": 780,
      "Ġway": 781,
      "Ġdon": 782,
      "vern": 783,
      "pect": 784,
      "Ġbeing": 785,
      "Ġ5": 786,
      "Ġmay": 787,
      "Ġthen": 788,
      "Ġem": 789,
      "Ġmany": 790,
      "Ġright": 791,
      "ĠAnd": 792,
      "Ġpos": 793,
      "ject": 794,
      "Ġdif": 795,
      "Ġinclud": 796,
      "Th": 797,
      "Ġcall": 798,
      "ĠUn": 799,
      "Ġ[": 800,
      "iss": 801,
      "Ġthrough": 802,
      "ĠBut": 803,
      "ational": 804,
      "ove": 805,
      "Ġrem": 806,
      "meric": 807,
      "ased": 808,
      "Ġshould": 809,
      "ull": 810,
      "Ġsay": 811,
      ").": 812,
      "Ġthose": 813,
      "Ġvery": 814,
      "Ġlast": 815,
      "Ġrel": 816,
      "ks": 817,
      "Ġtoo": 818,
      "Ġfo": 819,
      "Ġmuch": 820,
      "ily": 821,
      "Ġdef": 822,
      "ĠThis": 823,
      "aking": 824,
      "Ġshow": 825,
      "Ġstate": 826,
      "Ġreg": 827,
      "Ġpres": 828,
      "iew": 829,
      "uring": 830,
      "xt": 831,
      "In": 832,
      "Ġwell": 833,
      "ump": 834,
      "ited": 835,
      "ons": 836,
      "Ġcount": 837,
      "Ġdoes": 838,
      "Ġ200": 839,
      "Ġown": 840,
      "Ġuse": 841,
      "Ġimp": 842,
      "ving": 843,
      "Ġbel": 844,
      "arly": 845,
      "old": 846,
      "Ġdown": 847,
      "ec": 848,
      "ĠAmeric": 849,
      "..": 850,
      "Ġbefore": 851,
      "Ġlong": 852,
      "Ġgovern": 853,
      "Ġend": 854,
      "ince": 855,
      "lect": 856,
      "ower": 857,
      "Ġreport": 858,
      "Ġsy": 859,
      "ange": 860,
      "Ġstart": 861,
      "row": 862,
      "ied": 863,
      "ities": 864,
      "ven": 865,
      "ĠWh": 866,
      "llow": 867,
      "Ġmade": 868,
      "Ġteam": 869,
      "oth": 870,
      "omet": 871,
      "Ġke": 872,
      "ren": 873,
      "Ġph": 874,
      "Ġsuch": 875,
      "Ġmon": 876,
      "ific": 877,
      "Ġfin": 878,
      "Ġfl": 879,
      "ward": 880,
      "ĠNew": 881,
      "Ġgoing": 882,
      "Ġworld": 883,
      "ative": 884,
      "),": 885,
      "ife": 886,
      "ues": 887,
      "Ġstud": 888,
      "Ġgood": 889,
      "hen": 890,
      "get": 891,
      "ĠTr": 892,
      "It": 893,
      "Ġhel": 894,
      "ty": 895,
      "erm": 896,
      "Ġwee": 897,
      "ually": 898,
      "Ġagainst": 899,
      "Ġgame": 900,
      "Ġeff": 901,
      "ock": 902,
      "Ġpoint": 903,
      "rib": 904,
      "ib": 905,
      "Ġset": 906,
      "any": 907,
      "les": 908,
      "ible": 909,
      "Ġwhile": 910,
      "Ġstill": 911,
      "Ġgen": 912,
      "und": 913,
      "Ġsur": 914,
      "Ġhelp": 915,
      "Ġgu": 916,
      "Ġsm": 917,
      "Ġlead": 918,
      "ating": 919,
      "oun": 920,
      "erson": 921,
      "ween": 922,
      "Ġsays": 923,
      "stem": 924,
      "illion": 925,
      "Ġac": 926,
      "Ġprodu": 927,
      "ting": 928,
      "als": 929,
      "Ġent": 930,
      "roup": 931,
      "ath": 932,
      "000": 933,
      "Ġtake": 934,
      "self": 935,
      "Ġsame": 936,
      "imes": 937,
      "Ġbetween": 938,
      "ĠAs": 939,
      "Ġthough": 940,
      "Ġsim": 941,
      "Ġoffic": 942,
      "ics": 943,
      "Ġdiffere": 944,
      "Ġmin": 945,
      "Ġinst": 946,
      "Ġ6": 947,
      "We": 948,
      "ts": 949,
      "Ġhigh": 950,
      "ves": 951,
      "Ġchar": 952,
      "âĢĶ": 953,
      "ful": 954,
      "Ġgovernment": 955,
      "cy": 956,
      "Ġlaw": 957,
      "tain": 958,
      "Ġnum": 959,
      "gr": 960,
      "Ġsign": 961,
      "Ġcol": 962,
      "ility": 963,
      "ote": 964,
      "ever": 965,
      "Ġprov": 966,
      "Ġsomet": 967,
      "Ġed": 968,
      "cess": 969,
      "Ġop": 970,
      "gan": 971,
      "ork": 972,
      "Ġob": 973,
      "Ġcar": 974,
      "Ġwr": 975,
      "Ġfound": 976,
      "Ġthree": 977,
      "Ġaround": 978,
      "Ġbr": 979,
      "ph": 980,
      "li": 981,
      "ont": 982,
      "eral": 983,
      "Ġhere": 984,
      "Ġused": 985,
      "der": 986,
      "alk": 987,
      "its": 988,
      "velop": 989,
      "Ġrun": 990,
      "way": 991,
      "arch": 992,
      "com": 993,
      "Ġsub": 994,
      "up": 995,
      "Ġreally": 996,
      "Ġsystem": 997,
      "Ġmem": 998,
      "ames": 999,
      "ures": 1000,
      "Ġsupport": 1001,
      "Ġreal": 1002,
      "Ġgroup": 1003,
      "ution": 1004,
      "read": 1005,
      "uss": 1006,
      "let": 1007,
      "cent": 1008,
      "Ġstr": 1009,
      "Ġins": 1010,
      "Ġ10": 1011,
      "Ġinter": 1012,
      "ix": 1013,
      "Ġdisc": 1014,
      "Ġmed": 1015,
      "Ġgreat": 1016,
      "Ġpublic": 1017,
      "ract": 1018,
      "ters": 1019,
      "ather": 1020,
      "ys": 1021,
      ".[": 1022,
      "Ġfam": 1023,
      "ĠThey": 1024,
      "Ġhapp": 1025,
      "Ġass": 1026,
      "ists": 1027,
      "Ġexp": 1028,
      "Ġcour": 1029,
      "Ġboth": 1030,
      "Ġwom": 1031,
      "Ġfact": 1032,
      "Ġexper": 1033,
      "Ġfind": 1034,
      "Ġday": 1035,
      "ĠTrump": 1036,
      "Ġhand": 1037,
      "ank": 1038,
      "atch": 1039,
      "ĠYou": 1040,
      "Ġtrans": 1041,
      "Ġread": 1042,
      "Ġduring": 1043,
      "ives": 1044,
      "ax": 1045,
      "olog": 1046,
      "ool": 1047,
      "ense": 1048,
      "irect": 1049,
      "alth": 1050,
      "gg": 1051,
      "ng": 1052,
      "land": 1053,
      "Ġmonth": 1054,
      "cept": 1055,
      "Ġwar": 1056,
      "Ġdevelop": 1057,
      "Ġext": 1058,
      "hip": 1059,
      "Ġfollow": 1060,
      "ĠIs": 1061,
      "Ġtold": 1062,
      "Ġcur": 1063,
      "ell": 1064,
      "Ġiss": 1065,
      "Ġbig": 1066,
      "ouse": 1067,
      "Ġsince": 1068,
      "air": 1069,
      "ave": 1070,
      "Ġweek": 1071,
      "Ġperson": 1072,
      "Ġfew": 1073,
      "Ġret": 1074,
      "ered": 1075,
      "Ġ0": 1076,
      "Ġ7": 1077,
      "ices": 1078,
      "Ġdet": 1079,
      "ording": 1080,
      "Ġlar": 1081,
      "Ġconf": 1082,
      "Ġcre": 1083,
      "ĠFr": 1084,
      "Ġpolit": 1085,
      "Ġbelie": 1086,
      "Ġlot": 1087,
      "Ġcr": 1088,
      "ead": 1089,
      "Ġexpl": 1090,
      "ros": 1091,
      "ĠSo": 1092,
      "ision": 1093,
      "Ġrequ": 1094,
      "Ġcent": 1095,
      "Ġleg": 1096,
      "Ġcontin": 1097,
      "Ġaut": 1098,
      "ms": 1099,
      "akes": 1100,
      "ivers": 1101,
      "ee": 1102,
      "Ġrep": 1103,
      "Ġanother": 1104,
      "ared": 1105,
      "ĠIf": 1106,
      "con": 1107,
      "ner": 1108,
      "Ġsomething": 1109,
      "Ġopp": 1110,
      "Ġresp": 1111,
      "ef": 1112,
      "Ġput": 1113,
      "io": 1114,
      "ular": 1115,
      "Ġdifferent": 1116,
      "Ġfil": 1117,
      "led": 1118,
      "the": 1119,
      "Ġmark": 1120,
      "Ġprot": 1121,
      "Ġ8": 1122,
      "Ġinvest": 1123,
      "hes": 1124,
      "Ġsl": 1125,
      "ines": 1126,
      "bers": 1127,
      "Ġthings": 1128,
      "Ġcle": 1129,
      "Ġpower": 1130,
      "Wh": 1131,
      "Ġlife": 1132,
      "Ġrele": 1133,
      "chool": 1134,
      "cer": 1135,
      "Ġposs": 1136,
      "Ġplan": 1137,
      "pr": 1138,
      "Ġcommun": 1139,
      "thing": 1140,
      "This": 1141,
      "Ġask": 1142,
      "Ġeach": 1143,
      "Ġfar": 1144,
      "Ġpass": 1145,
      "Ġmight": 1146,
      "ention": 1147,
      "Ġnever": 1148,
      "Ġchild": 1149,
      "Ġ.": 1150,
      "Ġhome": 1151,
      "Ġcamp": 1152,
      "rent": 1153,
      "ĠCom": 1154,
      "Ġnext": 1155,
      "Ġopen": 1156,
      "Ġtry": 1157,
      "Ġ'": 1158,
      "Ġseason": 1159,
      "Ġloc": 1160,
      "Ġart": 1161,
      "ale": 1162,
      "orth": 1163,
      "erest": 1164,
      "Ġcome": 1165,
      "Ġsecond": 1166,
      "ins": 1167,
      "ages": 1168,
      "Ġquest": 1169,
      "Ġgot": 1170,
      "Ġturn": 1171,
      "ined": 1172,
      "ĠâĢĺ": 1173,
      "med": 1174,
      "Ġadv": 1175,
      "Ġ9": 1176,
      "Ġallow": 1177,
      "Ġbus": 1178,
      "Ġhead": 1179,
      "ĠThat": 1180,
      "Ġseem": 1181,
      "Ġbest": 1182,
      "Ġfeel": 1183,
      "Ġref": 1184,
      "ody": 1185,
      "ata": 1186,
      "Ġpercent": 1187,
      "ĠAn": 1188,
      "ittle": 1189,
      "Ġcor": 1190,
      "ĠFor": 1191,
      "view": 1192,
      "Ġdep": 1193,
      "Ġdirect": 1194,
      "Ġcontro": 1195,
      "Ġincre": 1196,
      "oh": 1197,
      "man": 1198,
      "ute": 1199,
      "Ġche": 1200,
      "ned": 1201,
      "ĠCl": 1202,
      "ross": 1203,
      "ged": 1204,
      "Ġresult": 1205,
      "20": 1206,
      "ars": 1207,
      "Ġmillion": 1208,
      "Ġwithout": 1209,
      "nce": 1210,
      "ism": 1211,
      "Ġincluding": 1212,
      "Ġplace": 1213,
      "Ġimport": 1214,
      "Ġmet": 1215,
      "Ġinform": 1216,
      "Ġpri": 1217,
      "Ġcare": 1218,
      "ĠAl": 1219,
      "Ġproble": 1220,
      "Ġbuild": 1221,
      "ĠUS": 1222,
      "gram": 1223,
      "iness": 1224,
      "Ġnumber": 1225,
      "conom": 1226,
      "ĠRep": 1227,
      "Ġcountry": 1228,
      "Ġdem": 1229,
      "Ġhard": 1230,
      "Ġinf": 1231,
      "Ġide": 1232,
      "Ġpost": 1233,
      "Ġtop": 1234,
      "Ġca": 1235,
      "Ġdist": 1236,
      "ret": 1237,
      "Ġfour": 1238,
      "Ġbetter": 1239,
      "Ġrecent": 1240,
      "ired": 1241,
      "ically": 1242,
      "Ġav": 1243,
      "Ġinterest": 1244,
      "Ġbo": 1245,
      "ital": 1246,
      "Ġstand": 1247,
      "Ġlet": 1248,
      "ton": 1249,
      "Ġlittle": 1250,
      "aj": 1251,
      "ten": 1252,
      "Ġless": 1253,
      "But": 1254,
      "ex": 1255,
      "Ġpartic": 1256,
      "Ġcalled": 1257,
      "ately": 1258,
      "Ġhum": 1259,
      "ple": 1260,
      "ants": 1261,
      "Ġbeh": 1262,
      "Ġcase": 1263,
      "ric": 1264,
      "Ġappro": 1265,
      "ways": 1266,
      "Ġattack": 1267,
      "Ġmove": 1268,
      "oney": 1269,
      "osed": 1270,
      "ĠThere": 1271,
      "Ġleft": 1272,
      "chn": 1273,
      "Ġdidn": 1274,
      "Ġfull": 1275,
      "Ġmod": 1276,
      "Ġpop": 1277,
      "Ġel": 1278,
      "Ġkeep": 1279,
      "Ġmil": 1280,
      "Ġusing": 1281,
      "Ġeffect": 1282,
      "aim": 1283,
      "ajor": 1284,
      "Ġrest": 1285,
      "ished": 1286,
      "Ġprogram": 1287,
      "Ġserv": 1288,
      "Ġtri": 1289,
      "Ġprev": 1290,
      "Ġpolice": 1291,
      "Ġmain": 1292,
      "ield": 1293,
      "Ġann": 1294,
      "gy": 1295,
      "Ġeconom": 1296,
      "line": 1297,
      "ĠRe": 1298,
      "Ġdata": 1299,
      "ration": 1300,
      "Ġfun": 1301,
      "Ġtest": 1302,
      "ok": 1303,
      "Ġlevel": 1304,
      "ets": 1305,
      "Ġpay": 1306,
      "ĠAmerican": 1307,
      "ĠInd": 1308,
      "ama": 1309,
      "ption": 1310,
      "rat": 1311,
      "ready": 1312,
      "Ġsmall": 1313,
      "Ġear": 1314,
      "ger": 1315,
      "Ġnews": 1316,
      "Ġlist": 1317,
      "ral": 1318,
      "'re": 1319,
      "erv": 1320,
      "Ġgiv": 1321,
      "Ġval": 1322,
      "ety": 1323,
      "Ġprocess": 1324,
      "Ġwin": 1325,
      "inal": 1326,
      "Ġwomen": 1327,
      "Ġschool": 1328,
      "Ġform": 1329,
      "ature": 1330,
      "Ġeas": 1331,
      "Ġchange": 1332,
      "Ġcurrent": 1333,
      "Ġrece": 1334,
      "Ġcompany": 1335,
      "att": 1336,
      "Ġpresident": 1337,
      "ably": 1338,
      "ize": 1339,
      "Ġreason": 1340,
      "ĠSe": 1341,
      "Ġalready": 1342,
      "ency": 1343,
      "Ġhist": 1344,
      "ĠUnited": 1345,
      "uc": 1346,
      "Ġ=": 1347,
      "Ġwhy": 1348,
      "Ġprom": 1349,
      "az": 1350,
      "Ġdri": 1351,
      "son": 1352,
      "Ġalways": 1353,
      "Ġgl": 1354,
      "Ġmoney": 1355,
      "Ġofficial": 1356,
      "Ġlater": 1357,
      "Ġexpect": 1358,
      "Ġbusiness": 1359,
      "Ġ--": 1360,
      "Ġrese": 1361,
      "Ġcap": 1362,
      "ized": 1363,
      "ash": 1364,
      "Ġthing": 1365,
      "less": 1366,
      "ience": 1367,
      "ided": 1368,
      "Ġinformation": 1369,
      "Ġspec": 1370,
      "Ġproject": 1371,
      "Ġclaim": 1372,
      "ider": 1373,
      "iversity": 1374,
      "Ġtechn": 1375,
      "ĠHow": 1376,
      "Ġjob": 1377,
      "ploy": 1378,
      "ness": 1379,
      "err": 1380,
      "ĠLe": 1381,
      "He": 1382,
      "Ġtalk": 1383,
      "ntil": 1384,
      "Ġable": 1385,
      "Ġmajor": 1386,
      "Ġdesign": 1387,
      "Ġchang": 1388,
      "ohn": 1389,
      "Ġgr": 1390,
      "ĠAr": 1391,
      "aign": 1392,
      "Ġhealth": 1393,
      "tt": 1394,
      "Ġstory": 1395,
      "used": 1396,
      "Ġorgan": 1397,
      "Ġaway": 1398,
      "ode": 1399,
      "Ġty": 1400,
      "Ġclass": 1401,
      "Ġbre": 1402,
      "Ġfree": 1403,
      "Ġele": 1404,
      "ends": 1405,
      "pped": 1406,
      "ĠChr": 1407,
      "ertain": 1408,
      "Ġcity": 1409,
      "orn": 1410,
      "Ġmust": 1411,
      "Ġoper": 1412,
      "Ġmat": 1413,
      "Ġimportant": 1414,
      "Ġbook": 1415,
      "Ġhappen": 1416,
      "ug": 1417,
      "Ġkill": 1418,
      "10": 1419,
      "Ġdoesn": 1420,
      "Ġold": 1421,
      "Ġleast": 1422,
      "ample": 1423,
      "Ġvis": 1424,
      "Ġreturn": 1425,
      "Ġsol": 1426,
      "Ġpast": 1427,
      "Ġremain": 1428,
      "urity": 1429,
      "oss": 1430,
      "Ġdays": 1431,
      "uro": 1432,
      "ird": 1433,
      "Ġcampaign": 1434,
      "wit": 1435,
      "Ġedit": 1436,
      "stand": 1437,
      "Ġprof": 1438,
      "hor": 1439,
      "Ġcame": 1440,
      "Ġgrow": 1441,
      "Ġenough": 1442,
      "Ġcost": 1443,
      "Ġadm": 1444,
      "ised": 1445,
      "Ġhop": 1446,
      "Ġtell": 1447,
      "Ġmaking": 1448,
      "Ġvar": 1449,
      "ases": 1450,
      "Ġest": 1451,
      "Ġlarge": 1452,
      "ĠOb": 1453,
      "Ġfamily": 1454,
      "Ġkind": 1455,
      "rem": 1456,
      "Ġview": 1457,
      "Ġrecord": 1458,
      "resident": 1459,
      "ah": 1460,
      "Ġmar": 1461,
      "uck": 1462,
      "Ġfri": 1463,
      "Ġmen": 1464,
      "Ġpolic": 1465,
      "...": 1466,
      "ĠShe": 1467,
      "Ġuntil": 1468,
      "ccess": 1469,
      "Ġpolitical": 1470,
      "ina": 1471,
      "Ġdeal": 1472,
      "Ġsit": 1473,
      "Ġworking": 1474,
      "Ġtax": 1475,
      "ior": 1476,
      "ĠDe": 1477,
      "ĠCan": 1478,
      "outh": 1479,
      "Ġpat": 1480,
      "Ġ12": 1481,
      "Ġtook": 1482,
      "Ġdra": 1483,
      "ĠRepublic": 1484,
      "reen": 1485,
      "If": 1486,
      "here": 1487,
      "ission": 1488,
      "ology": 1489,
      "ware": 1490,
      "Ġconst": 1491,
      "Ġbecome": 1492,
      "Ġactually": 1493,
      "Ġline": 1494,
      "ruct": 1495,
      "Ġgener": 1496,
      "ott": 1497,
      "Ġvide": 1498,
      "ived": 1499,
      "Ġaff": 1500,
      "ending": 1501,
      "Ġdr": 1502,
      "side": 1503,
      "ĠJohn": 1504,
      "Ġformer": 1505,
      "Ġpur": 1506,
      "Ġoften": 1507,
      "Ġmean": 1508,
      "Ġfund": 1509,
      "ĠBl": 1510,
      "ural": 1511,
      "Ġaccording": 1512,
      "Ġgive": 1513,
      "gin": 1514,
      "Ġ15": 1515,
      "Ġwon": 1516,
      "Ġelect": 1517,
      "Ġever": 1518,
      "Ġgames": 1519,
      "arent": 1520,
      "Ġcomplet": 1521,
      "Ġvot": 1522,
      "year": 1523,
      "Ġintern": 1524,
      "Ġterm": 1525,
      "Ġorder": 1526,
      "Ġname": 1527,
      "ember": 1528,
      "Ġword": 1529,
      "Ġhuman": 1530,
      "As": 1531,
      "ĠNo": 1532,
      "Ġtimes": 1533,
      "ĠRuss": 1534,
      "Ġdeb": 1535,
      "ards": 1536,
      "ured": 1537,
      "alf": 1538,
      "most": 1539,
      "ury": 1540,
      "Ġ199": 1541,
      "to": 1542,
      "ued": 1543,
      "uture": 1544,
      "Ġsever": 1545,
      "ĠComm": 1546,
      "Ġperform": 1547,
      "There": 1548,
      "ĠEuro": 1549,
      "Ġdoing": 1550,
      "Ġappear": 1551,
      "be": 1552,
      "Ġplayers": 1553,
      "Ġmarket": 1554,
      "Ġlo": 1555,
      "ier": 1556,
      "ocrat": 1557,
      "Ġve": 1558,
      "ĠSh": 1559,
      "Ġtoday": 1560,
      "Ġearly": 1561,
      "Ġlear": 1562,
      "Ġseen": 1563,
      "cl": 1564,
      "Ġhaving": 1565,
      "Ġbro": 1566,
      "Ġchildren": 1567,
      "Ġbas": 1568,
      "ĠPro": 1569,
      "Ġair": 1570,
      "Ġcharact": 1571,
      "Ġmedia": 1572,
      "Ġsci": 1573,
      "crib": 1574,
      "Ġwhether": 1575,
      "Ġvi": 1576,
      "Ġseveral": 1577,
      "ĠPresident": 1578,
      "Ġsk": 1579,
      "ĠPh": 1580,
      "Ġ,": 1581,
      "Ġcontrol": 1582,
      "Ġsing": 1583,
      "ither": 1584,
      "Ġbit": 1585,
      "Ġevent": 1586,
      "ney": 1587,
      "ides": 1588,
      "Ġnight": 1589,
      "Ġwent": 1590,
      "mber": 1591,
      "ality": 1592,
      "ional": 1593,
      "Ġyoung": 1594,
      "Ġfive": 1595,
      "icle": 1596,
      "Ġmeet": 1597,
      "Ġsure": 1598,
      "Ġlikely": 1599,
      "Ġpress": 1600,
      "Ġcertain": 1601,
      "Ġmembers": 1602,
      "Ġquestion": 1603,
      "Ġexample": 1604,
      "Ġes": 1605,
      "Ġcrit": 1606,
      "artment": 1607,
      "Ġsocial": 1608,
      "idence": 1609,
      "ĠYork": 1610,
      "ister": 1611,
      "Ġgra": 1612,
      "ries": 1613,
      "Ġdone": 1614,
      "âĢ¦": 1615,
      "ient": 1616,
      "Ġalong": 1617,
      "ĠEurope": 1618,
      "ining": 1619,
      "ĠMay": 1620,
      "wh": 1621,
      "Ġinvol": 1622,
      "aken": 1623,
      "ĠMr": 1624,
      "Ġpot": 1625,
      "vert": 1626,
      "Ġmonths": 1627,
      "augh": 1628,
      "Ġsuccess": 1629,
      "ĠStates": 1630,
      "Ġvers": 1631,
      "ĠDem": 1632,
      "Ġfore": 1633,
      "Ġhour": 1634,
      "ians": 1635,
      "cing": 1636,
      "Ġocc": 1637,
      "Ġmilit": 1638,
      "Ġwithin": 1639,
      "Ġarg": 1640,
      "Ġ11": 1641,
      "Ġside": 1642,
      "aring": 1643,
      "Ġamong": 1644,
      "Ġeng": 1645,
      "Ġfight": 1646,
      "Ġli": 1647,
      "Ġcourse": 1648,
      "ories": 1649,
      "Ġonce": 1650,
      "Ġfac": 1651,
      "Ġfuture": 1652,
      "cu": 1653,
      "ges": 1654,
      "Ġpossible": 1655,
      "co": 1656,
      "ĠObama": 1657,
      "Ġactiv": 1658,
      "Ġinvestig": 1659,
      "work": 1660,
      "bs": 1661,
      "Ġris": 1662,
      "Ġsex": 1663,
      "Ġwater": 1664,
      "Ġdev": 1665,
      "Ġunderstand": 1666,
      "Ġconcer": 1667,
      "Ġmeans": 1668,
      "ĠAt": 1669,
      "ortun": 1670,
      "aw": 1671,
      "inist": 1672,
      "Ġproblem": 1673,
      "Ġshort": 1674,
      "Ġknown": 1675,
      "Ġavail": 1676,
      "ony": 1677,
      "ified": 1678,
      "//": 1679,
      "Ġproduct": 1680,
      "Ġacross": 1681,
      "Ġyet": 1682,
      "Ġviol": 1683,
      "Ġben": 1684,
      "ĠAll": 1685,
      "ĠWhen": 1686,
      "Ġcommunity": 1687,
      "Ġ]": 1688,
      "Ġfail": 1689,
      "Ġthought": 1690,
      "And": 1691,
      "Ġbra": 1692,
      "Ġauthor": 1693,
      "Ġwrit": 1694,
      "ggest": 1695,
      "Ġsuggest": 1696,
      "Ġmakes": 1697,
      "Ġprop": 1698,
      "Ġhold": 1699,
      "Ġequ": 1700,
      "Ġprotect": 1701,
      "Ġ2016": 1702,
      "ĠState": 1703,
      "Ġ&": 1704,
      "ison": 1705,
      "Ġasked": 1706,
      "verage": 1707,
      "Ġreported": 1708,
      "Ġgiven": 1709,
      "Ġpriv": 1710,
      "ential": 1711,
      "ying": 1712,
      "ague": 1713,
      "Ġorig": 1714,
      "Ġothers": 1715,
      "Ġlocal": 1716,
      "Ġbelieve": 1717,
      "Ġland": 1718,
      "aps": 1719,
      "Ġvideo": 1720,
      "ling": 1721,
      "ream": 1722,
      "ended": 1723,
      "Ġ18": 1724,
      "Ġstrong": 1725,
      "Ġgetting": 1726,
      "ubl": 1727,
      "ĠOn": 1728,
      "imate": 1729,
      "oint": 1730,
      "Ġannoun": 1731,
      "lf": 1732,
      "ĠUniversity": 1733,
      "ederal": 1734,
      "empt": 1735,
      "Ġmus": 1736,
      "ots": 1737,
      "ivid": 1738,
      "Ġclose": 1739,
      "soci": 1740,
      "Ġpa": 1741,
      "ĠAd": 1742,
      "ĠHouse": 1743,
      "ĠBe": 1744,
      "Ġprob": 1745,
      "ering": 1746,
      "ĠSy": 1747,
      "Ġident": 1748,
      "You": 1749,
      "Ġsent": 1750,
      "'ve": 1751,
      "Ġsour": 1752,
      "ensive": 1753,
      "Ġcreat": 1754,
      "iving": 1755,
      "Ġstarted": 1756,
      "iously": 1757,
      "Ġavailable": 1758,
      "50": 1759,
      ".,": 1760,
      "âĢĵ": 1761,
      "ober": 1762,
      "Ġbased": 1763,
      "Ġissue": 1764,
      "Ġhig": 1765,
      "urther": 1766,
      "Ġlim": 1767,
      "allen": 1768,
      "ĠDemocrat": 1769,
      "Ġlight": 1770,
      "Ġfollowing": 1771,
      "for": 1772,
      "Ġdeath": 1773,
      "Ġ2015": 1774,
      "ush": 1775,
      "ĠWhat": 1776,
      "Ġhistory": 1777,
      "Ġago": 1778,
      "Ġemploy": 1779,
      "ulation": 1780,
      "Ġnational": 1781,
      "nect": 1782,
      "Ġsaf": 1783,
      "Ġlove": 1784,
      "Ġ30": 1785,
      "Ġaccount": 1786,
      "selves": 1787,
      "Ġparty": 1788,
      "ĠChrist": 1789,
      "itive": 1790,
      "idd": 1791,
      "gress": 1792,
      "Ġseries": 1793,
      "Ġcomes": 1794,
      "Ġtrying": 1795,
      "Ġcut": 1796,
      "Ġalmost": 1797,
      "oot": 1798,
      "ones": 1799,
      "cially": 1800,
      "Ġlow": 1801,
      "gether": 1802,
      "Ġtogether": 1803,
      "by": 1804,
      "ĠAmerica": 1805,
      "Ġidea": 1806,
      "Ġindust": 1807,
      "ĠPl": 1808,
      "Ġmom": 1809,
      "une": 1810,
      "Ġnet": 1811,
      "uly": 1812,
      "Ġaccess": 1813,
      "Ġisn": 1814,
      "els": 1815,
      "ĠMar": 1816,
      "Ġfoc": 1817,
      "11": 1818,
      "Ġclear": 1819,
      "Ġcolle": 1820,
      "Ġadded": 1821,
      "Ġexperience": 1822,
      "ially": 1823,
      "Ġrepres": 1824,
      "orld": 1825,
      "though": 1826,
      "Ġcond": 1827,
      "Ġfilm": 1828,
      "iron": 1829,
      "Ġ#": 1830,
      "Ġhalf": 1831,
      "Ġant": 1832,
      "Ġ2014": 1833,
      "Ġlooking": 1834,
      "witter": 1835,
      "Ġnon": 1836,
      "Ġdi": 1837,
      "ĠOne": 1838,
      "Ġanything": 1839,
      "Ġrul": 1840,
      "Ġtrad": 1841,
      "Ġarea": 1842,
      "iting": 1843,
      "Ġcomplete": 1844,
      "ĠSen": 1845,
      "rew": 1846,
      "ination": 1847,
      "Ġlive": 1848,
      "gest": 1849,
      "For": 1850,
      "ĠSp": 1851,
      "Ġpract": 1852,
      "ĠCol": 1853,
      "Ġaddition": 1854,
      "Ġimpro": 1855,
      "ĠCent": 1856,
      "por": 1857,
      "book": 1858,
      "itions": 1859,
      "urs": 1860,
      "Ġsaying": 1861,
      "ilar": 1862,
      "ball": 1863,
      "nes": 1864,
      "ashing": 1865,
      "Ġindivid": 1866,
      "Ġi": 1867,
      "ĠCanad": 1868,
      "Ġtaken": 1869,
      "Ġeffort": 1870,
      "Ġanal": 1871,
      "Ġpresent": 1872,
      "Ġentire": 1873,
      "ief": 1874,
      "Ġmiss": 1875,
      "Ġsix": 1876,
      "rael": 1877,
      "acy": 1878,
      "ances": 1879,
      "'m": 1880,
      "Ġbehind": 1881,
      "Ġfav": 1882,
      "utes": 1883,
      "Ġmilitary": 1884,
      "Ġnear": 1885,
      "lex": 1886,
      "Ġsecurity": 1887,
      "What": 1888,
      "Ġcourt": 1889,
      "ĠOr": 1890,
      "Ġbill": 1891,
      "ched": 1892,
      "Ġproper": 1893,
      "Ġdiscuss": 1894,
      "Ġface": 1895,
      "Ġthreat": 1896,
      "Ġstudy": 1897,
      "Ġrather": 1898,
      "Ġbad": 1899,
      "ĠPr": 1900,
      "not": 1901,
      "Ġcompet": 1902,
      "ference": 1903,
      "Ġvict": 1904,
      "inton": 1905,
      "Ġstat": 1906,
      "my": 1907,
      "ising": 1908,
      "rict": 1909,
      "Ġsingle": 1910,
      "arget": 1911,
      "ustom": 1912,
      "reed": 1913,
      "error": 1914,
      "Ġpubl": 1915,
      "ĠCo": 1916,
      "Ġwanted": 1917,
      "Ġquick": 1918,
      "Ġindividual": 1919,
      "Ġconsider": 1920,
      "Ġsomeone": 1921,
      "reet": 1922,
      "Ġcou": 1923,
      "Ġpolicy": 1924,
      "rest": 1925,
      "Ġexplain": 1926,
      "Ġmind": 1927,
      "Ġpar": 1928,
      "Ġdiff": 1929,
      "12": 1930,
      "Ġbring": 1931,
      "ster": 1932,
      "Ġplayer": 1933,
      "Ġfood": 1934,
      "ttp": 1935,
      "uge": 1936,
      "Ġattempt": 1937,
      "Ġtot": 1938,
      "Ġpick": 1939,
      "Ġcompan": 1940,
      "rug": 1941,
      "Ġtaking": 1942,
      "Ġmess": 1943,
      "oice": 1944,
      "ament": 1945,
      "When": 1946,
      "wards": 1947,
      "Ġ13": 1948,
      "Ġ16": 1949,
      "gle": 1950,
      "Ġcult": 1951,
      "ĠQ": 1952,
      "Ġelse": 1953,
      "Ġphot": 1954,
      "leg": 1955,
      "use": 1956,
      "Ġredu": 1957,
      "://": 1958,
      "Ġprobably": 1959,
      "Ġ/": 1960,
      "Ġspecial": 1961,
      "Ġ|": 1962,
      "ply": 1963,
      "Ġresearch": 1964,
      "ĠAf": 1965,
      "ĠNational": 1966,
      "Ġnothing": 1967,
      "ĠSec": 1968,
      "Ġspace": 1969,
      "Ġcoming": 1970,
      "19": 1971,
      "ĠNorth": 1972,
      "ĠMan": 1973,
      "Ġpoints": 1974,
      "Ġhowever": 1975,
      "ashington": 1976,
      "Ġcomb": 1977,
      "So": 1978,
      "ĠEng": 1979,
      "Ġdescrib": 1980,
      "Ġpret": 1981,
      "Ġ14": 1982,
      "Ġsimilar": 1983,
      "ĠClinton": 1984,
      "Ġconnect": 1985,
      "Ġmor": 1986,
      "Ġdetail": 1987,
      "Ġkey": 1988,
      "ron": 1989,
      "ĠCity": 1990,
      "ĠBrit": 1991,
      "Ġsignific": 1992,
      "Ġfeat": 1993,
      "ĠIsrael": 1994,
      "iqu": 1995,
      "Ġeither": 1996,
      "ator": 1997,
      "Ġdecision": 1998,
      "ĠWorld": 1999,
      "ĠÂ": 2000,
      ".)": 2001,
      "rown": 2002,
      "Ġtarget": 2003,
      "On": 2004,
      "That": 2005,
      "Ġjo": 2006,
      "Ġ2013": 2007,
      "ium": 2008,
      "Ġbody": 2009,
      "Ġrights": 2010,
      "Ġbenef": 2011,
      "viron": 2012,
      "Ġwrote": 2013,
      "Ġexist": 2014,
      "Ġsus": 2015,
      "Ġblack": 2016,
      "Ġfoot": 2017,
      "ĠJan": 2018,
      "Ġchallen": 2019,
      "Ġthird": 2020,
      "icult": 2021,
      "St": 2022,
      "Ġ:": 2023,
      "Ġservice": 2024,
      "app": 2025,
      "ĠTe": 2026,
      "rodu": 2027,
      "lier": 2028,
      "ands": 2029,
      "Ġmass": 2030,
      "unch": 2031,
      "Ġissues": 2032,
      "Ġcreate": 2033,
      "ization": 2034,
      "ĠSc": 2035,
      "rop": 2036,
      "Ġbegin": 2037,
      "Ġfield": 2038,
      "Ġrelations": 2039,
      "Ġmanag": 2040,
      "Ġseems": 2041,
      "ĠWar": 2042,
      "ĠAust": 2043,
      "ox": 2044,
      "Ġwhole": 2045,
      "Ġstop": 2046,
      "Ġcompanies": 2047,
      "Ġban": 2048,
      "reme": 2049,
      "Ġeverything": 2050,
      "Ġfurther": 2051,
      "Ġmeas": 2052,
      "Ġdue": 2053,
      "ĠDep": 2054,
      "pecially": 2055,
      "Ġhit": 2056,
      "ĠWith": 2057,
      "ĠDon": 2058,
      "ift": 2059,
      "ĠHowever": 2060,
      "Ġleaders": 2061,
      "hers": 2062,
      "pite": 2063,
      "ww": 2064,
      "ald": 2065,
      "ĠWashington": 2066,
      "Ġroom": 2067,
      "back": 2068,
      "Ġofficials": 2069,
      "ĠCar": 2070,
      "Ġfederal": 2071,
      "Ġ2012": 2072,
      "Ġfront": 2073,
      "Ġreleased": 2074,
      "Ġposition": 2075,
      "Ġrepl": 2076,
      "Ġbegan": 2077,
      "Ġfig": 2078,
      "Ġexec": 2079,
      "Ġrole": 2080,
      "Ġblock": 2081,
      "Ġdam": 2082,
      "Ġsum": 2083,
      "Ġstep": 2084,
      "ĠPol": 2085,
      "ĠTo": 2086,
      "Ġhouse": 2087,
      "ĠGerm": 2088,
      "ffic": 2089,
      "Ġstudents": 2090,
      "Ġstates": 2091,
      "Ġmatter": 2092,
      "Ġoutside": 2093,
      "ergy": 2094,
      "Ġconv": 2095,
      "Ġhimself": 2096,
      "Ġstatement": 2097,
      "15": 2098,
      "Ġcustom": 2099,
      "ĠCon": 2100,
      "Ġ2017": 2101,
      "lo": 2102,
      "Ġdevelopment": 2103,
      "Ġamount": 2104,
      "Ġscen": 2105,
      "Ġprovide": 2106,
      "Ġdocu": 2107,
      "Ġabove": 2108,
      "Ġself": 2109,
      "Ġtreat": 2110,
      "ourn": 2111,
      "Ġwatch": 2112,
      "Ġcand": 2113,
      "Ġhours": 2114,
      "Ġitself": 2115,
      "Ġwa": 2116,
      "Ġthemselves": 2117,
      "alif": 2118,
      "Ġimm": 2119,
      "iday": 2120,
      "Ġbecame": 2121,
      "Ġ)": 2122,
      "Ġoffice": 2123,
      "Ġ198": 2124,
      "Ġcontinue": 2125,
      "Ġcountries": 2126,
      "Ġrepresent": 2127,
      "Ġfinal": 2128,
      "Ġsound": 2129,
      "iver": 2130,
      "Ġaddress": 2131,
      "go": 2132,
      "Ġstri": 2133,
      "Ġtrue": 2134,
      "Ġspecific": 2135,
      "Ġaction": 2136,
      "aff": 2137,
      "olution": 2138,
      "Ġsignificant": 2139,
      "Ġsimply": 2140,
      "aster": 2141,
      "Ġsal": 2142,
      "lement": 2143,
      "Ġcharacter": 2144,
      "ences": 2145,
      "'ll": 2146,
      "Ġwasn": 2147,
      "ĠSouth": 2148,
      "Ġmult": 2149,
      "Ġcheck": 2150,
      "Ġdifficult": 2151,
      "Ġinterview": 2152,
      "acebook": 2153,
      "Ġrunning": 2154,
      "Ġevidence": 2155,
      "ivil": 2156,
      "Ġ100": 2157,
      "ĠIntern": 2158,
      "Ġfall": 2159,
      "Ġfire": 2160,
      "vironment": 2161,
      "ĠDav": 2162,
      "Ġlab": 2163,
      "Ġey": 2164,
      "Ġadminist": 2165,
      "Ġsitu": 2166,
      "ming": 2167,
      "Ġbuilding": 2168,
      "Ġversion": 2169,
      "Ġbreak": 2170,
      "elt": 2171,
      "lling": 2172,
      "Ġemail": 2173,
      "Ġneeds": 2174,
      "ĠChina": 2175,
      "Ġdou": 2176,
      "Ġinit": 2177,
      "Ġopt": 2178,
      "Ġgeneral": 2179,
      "Ġgroups": 2180,
      "Ġshows": 2181,
      "itted": 2182,
      "Ġdrug": 2183,
      "Ġeveryone": 2184,
      "Ġground": 2185,
      "irl": 2186,
      "Ġagree": 2187,
      "ored": 2188,
      "Ġneeded": 2189,
      "Ġrespons": 2190,
      "30": 2191,
      "eb": 2192,
      "Ġbelow": 2193,
      "attle": 2194,
      "play": 2195,
      "Ġappe": 2196,
      "Ġinfl": 2197,
      "ane": 2198,
      "Ġans": 2199,
      "Ġtre": 2200,
      "Ġrelease": 2201,
      "oogle": 2202,
      "Ġmusic": 2203,
      "Ġpretty": 2204,
      "Ġwoman": 2205,
      "Ġenc": 2206,
      "ĠJust": 2207,
      "osp": 2208,
      "like": 2209,
      "Ġinclude": 2210,
      "ability": 2211,
      "unt": 2212,
      "asing": 2213,
      "Ġgun": 2214,
      "obal": 2215,
      "Ġneg": 2216,
      "Ġcommon": 2217,
      "Ġplayed": 2218,
      "Ġquite": 2219,
      "enn": 2220,
      "ĠMin": 2221,
      "Ġinj": 2222,
      "Ġindustry": 2223,
      "cle": 2224,
      "Ġenergy": 2225,
      "iod": 2226,
      "An": 2227,
      "amed": 2228,
      "Ġplaying": 2229,
      "Ġprofess": 2230,
      "Ġsaw": 2231,
      "Ġsense": 2232,
      "Ġfriends": 2233,
      "ilt": 2234,
      "ault": 2235,
      "Ġ17": 2236,
      "ĠInst": 2237,
      "Ġcoun": 2238,
      "Ġ25": 2239,
      "Ġcontain": 2240,
      "lish": 2241,
      "Ġinstead": 2242,
      "Ġlate": 2243,
      "ibility": 2244,
      "Ġlost": 2245,
      "Ġtyp": 2246,
      "Ġespecially": 2247,
      "ccording": 2248,
      "ĠGo": 2249,
      "Ġcandid": 2250,
      "Ġwhite": 2251,
      "ids": 2252,
      "Ġbillion": 2253,
      "ĠHis": 2254,
      "Ġvalue": 2255,
      "ĠPart": 2256,
      "Ġfinan": 2257,
      "Ġlat": 2258,
      "Ġcop": 2259,
      "How": 2260,
      "dd": 2261,
      "Ġweeks": 2262,
      "Ġlegal": 2263,
      "ches": 2264,
      "angu": 2265,
      "ert": 2266,
      "body": 2267,
      "ley": 2268,
      "no": 2269,
      "Ġrecently": 2270,
      "Ġelection": 2271,
      "ournal": 2272,
      "ats": 2273,
      "lim": 2274,
      "Ġphys": 2275,
      "Ġdom": 2276,
      "Ġdest": 2277,
      "Ġvote": 2278,
      "ĠAfter": 2279,
      "Ġforward": 2280,
      "Ġhost": 2281,
      "ĠTwitter": 2282,
      "Ġchanges": 2283,
      "Ġlonger": 2284,
      "ators": 2285,
      "Ġsite": 2286,
      "Ġsoon": 2287,
      "ĠBr": 2288,
      "ging": 2289,
      "Ġ50": 2290,
      "Ġball": 2291,
      "ĠZ": 2292,
      "Ġeconomic": 2293,
      "Ġperiod": 2294,
      "Ġplac": 2295,
      "arter": 2296,
      "Ġtrack": 2297,
      "Ġopportun": 2298,
      "Ġtem": 2299,
      "Ġaccept": 2300,
      "ĠIr": 2301,
      "ently": 2302,
      "Ġbar": 2303,
      "iddle": 2304,
      "where": 2305,
      "ried": 2306,
      "par": 2307,
      "indow": 2308,
      "Ġanim": 2309,
      "Ġhope": 2310,
      "Ġpain": 2311,
      "ĠFl": 2312,
      "Ġhigher": 2313,
      "Ġobject": 2314,
      "ĠDepartment": 2315,
      "Ġonline": 2316,
      "Ġlink": 2317,
      "Ġfocus": 2318,
      "Ġmoment": 2319,
      "ĠSept": 2320,
      "Ġheld": 2321,
      "Ġpotential": 2322,
      "Ġjud": 2323,
      "ĠWhite": 2324,
      "ĠOct": 2325,
      "ape": 2326,
      "Ġpie": 2327,
      "Ġeduc": 2328,
      "Ġstay": 2329,
      "ĠHar": 2330,
      "ĠThese": 2331,
      "ĠMarch": 2332,
      "uff": 2333,
      "Ġabs": 2334,
      "Ġshare": 2335,
      "ively": 2336,
      "Ġrelig": 2337,
      "Ġstru": 2338,
      "Ġdecl": 2339,
      "Ġwords": 2340,
      "ĠRepublican": 2341,
      "Ġple": 2342,
      "Ġreview": 2343,
      "Ġresults": 2344,
      "Ġservices": 2345,
      "yle": 2346,
      "of": 2347,
      "Ġlaws": 2348,
      "They": 2349,
      "16": 2350,
      "Ġworks": 2351,
      "Ġconsum": 2352,
      "Ġled": 2353,
      "Ġparent": 2354,
      "Ġwebs": 2355,
      "Ġrisk": 2356,
      "epend": 2357,
      "Ġarticle": 2358,
      "iam": 2359,
      "right": 2360,
      "wer": 2361,
      "Ġage": 2362,
      "Ġreve": 2363,
      "Ġcode": 2364,
      "amer": 2365,
      "Ġminutes": 2366,
      "ribut": 2367,
      "Ġwrong": 2368,
      "iding": 2369,
      "ĠSyri": 2370,
      "ĠApp": 2371,
      "14": 2372,
      "Ġshoot": 2373,
      "atur": 2374,
      "Ġanyone": 2375,
      "Ġgoal": 2376,
      "Ġvari": 2377,
      "ender": 2378,
      "Ġcra": 2379,
      "medi": 2380,
      "Ġapplic": 2381,
      "ogra": 2382,
      "Ġtotal": 2383,
      "Ġ{": 2384,
      "ĠNews": 2385,
      "ĠX": 2386,
      "Ġsold": 2387,
      "Ġfunction": 2388,
      "ĠAm": 2389,
      "ĠJune": 2390,
      "Ġmov": 2391,
      "Ġz": 2392,
      "Ġearlier": 2393,
      "aul": 2394,
      "Ġfavor": 2395,
      "ogn": 2396,
      "ann": 2397,
      "ularly": 2398,
      "Ġport": 2399,
      "ĠNot": 2400,
      "Ġtit": 2401,
      "ify": 2402,
      "pping": 2403,
      "ully": 2404,
      "Ġtechnology": 2405,
      "ĠCong": 2406,
      "sec": 2407,
      "ĠAug": 2408,
      "ached": 2409,
      "Ġcred": 2410,
      "haps": 2411,
      "pril": 2412,
      "ĠEd": 2413,
      "onse": 2414,
      "Ġ2011": 2415,
      "Ġpersonal": 2416,
      "Ġcontract": 2417,
      "Ġreceived": 2418,
      "Ġrate": 2419,
      "Ġupd": 2420,
      "Ġexpected": 2421,
      "ĠMus": 2422,
      "Ġpopular": 2423,
      "Ġcreated": 2424,
      "Ġexpress": 2425,
      "Ġsurpr": 2426,
      "Ġrespect": 2427,
      "ĠJuly": 2428,
      "ĠWill": 2429,
      "Ġproblems": 2430,
      "Ġrad": 2431,
      "now": 2432,
      "Ġincrease": 2433,
      "ĠWest": 2434,
      "Ġannounced": 2435,
      "Ġenvironment": 2436,
      "BC": 2437,
      "Ġcannot": 2438,
      "Ġways": 2439,
      "Ġwalk": 2440,
      "Ġquestions": 2441,
      "Ġprivate": 2442,
      "Ġscient": 2443,
      "ĠMich": 2444,
      "apan": 2445,
      "Ġnecess": 2446,
      "ients": 2447,
      "Ġshot": 2448,
      "ev": 2449,
      "Ġeasy": 2450,
      "ades": 2451,
      "uary": 2452,
      "Ġbase": 2453,
      "Ġcomput": 2454,
      "Ġfamil": 2455,
      "Ġsw": 2456,
      "Ġforce": 2457,
      "ĠGe": 2458,
      "Ġimpact": 2459,
      "gth": 2460,
      "Ġanti": 2461,
      "ival": 2462,
      "ĠFacebook": 2463,
      "Ġinvolved": 2464,
      "13": 2465,
      "Ġobs": 2466,
      "ĠMed": 2467,
      "Ġmag": 2468,
      "Ġpack": 2469,
      "Ġcomment": 2470,
      "Ġdead": 2471,
      "Ġcir": 2472,
      "omes": 2473,
      "ners": 2474,
      "ilities": 2475,
      "ĠCongress": 2476,
      "ittee": 2477,
      "Ġmot": 2478,
      "onday": 2479,
      "Ġdel": 2480,
      "ciety": 2481,
      "Ġce": 2482,
      "uesday": 2483,
      "Ġstaff": 2484,
      "Ġaud": 2485,
      "ĠAustral": 2486,
      "Ġnearly": 2487,
      "Ġ24": 2488,
      "Ġspeak": 2489,
      "Ġmodel": 2490,
      "Ġlangu": 2491,
      "Ġcases": 2492,
      "Ġexecut": 2493,
      "hod": 2494,
      "lam": 2495,
      "Ġrelationship": 2496,
      "ĠIm": 2497,
      "ique": 2498,
      "Ġ197": 2499,
      "cil": 2500,
      "ĠFriday": 2501,
      "Ġleave": 2502,
      "Ġconcern": 2503,
      "ples": 2504,
      "Ġinside": 2505,
      "ĠGoogle": 2506,
      "Ġresponse": 2507,
      "Ġexact": 2508,
      "Ġet": 2509,
      "Ġfir": 2510,
      "Ġprim": 2511,
      "head": 2512,
      "Ġcivil": 2513,
      "ĠApril": 2514,
      "hern": 2515,
      "Ġsuper": 2516,
      "Ġfans": 2517,
      "Ġoriginal": 2518,
      "Ġaverage": 2519,
      "itution": 2520,
      "Ġdeep": 2521,
      "Ġvol": 2522,
      "Ġcontent": 2523,
      "Ġmater": 2524,
      "Ġusers": 2525,
      "Ġap": 2526,
      "Ġliving": 2527,
      "ĠRes": 2528,
      "Ġarrest": 2529,
      "Ġkilled": 2530,
      "Ġreports": 2531,
      "Ġ2010": 2532,
      "ĠMonday": 2533,
      "ĠTuesday": 2534,
      "Ġ+": 2535,
      "Ġnation": 2536,
      "Ġworth": 2537,
      "Ġworked": 2538,
      "time": 2539,
      "Ġsen": 2540,
      "Ġpred": 2541,
      "Ġsource": 2542,
      "over": 2543,
      "ĠAmericans": 2544,
      "Ġestab": 2545,
      "Ġargu": 2546,
      "Ġterror": 2547,
      "Ġrespond": 2548,
      "Ġinternational": 2549,
      "Ġimmedi": 2550,
      "Ġtype": 2551,
      "ĠHill": 2552,
      "Ġability": 2553,
      "Ġrequest": 2554,
      "Ġstrate": 2555,
      "Ġtakes": 2556,
      "itting": 2557,
      "anc": 2558,
      "Ġchance": 2559,
      "Ġoppos": 2560,
      "Ġprice": 2561,
      "ĠJapan": 2562,
      "Ġtal": 2563,
      "Ġworkers": 2564,
      "Ġterms": 2565,
      "Ġclub": 2566,
      "cri": 2567,
      "Ġpublished": 2568,
      "itten": 2569,
      "ĠWhile": 2570,
      "val": 2571,
      "Ġassoci": 2572,
      "Ġdecided": 2573,
      "Ġphone": 2574,
      "ctor": 2575,
      "Ġmoder": 2576,
      "ĠRussia": 2577,
      "Ġsubject": 2578,
      "Ġweap": 2579,
      "ees": 2580,
      "urch": 2581,
      "Ġsoft": 2582,
      "Ġcell": 2583,
      "Ġgave": 2584,
      "Ġdirector": 2585,
      "ĠGod": 2586,
      "ovember": 2587,
      "Ġfinancial": 2588,
      "Ġoil": 2589,
      "Ġgirl": 2590,
      "aut": 2591,
      "Ġlack": 2592,
      "ights": 2593,
      "ĠDo": 2594,
      "ĠSome": 2595,
      "Ġhappened": 2596,
      "atic": 2597,
      "Ġrequire": 2598,
      "rought": 2599,
      "ĠEx": 2600,
      "Ġden": 2601,
      "aving": 2602,
      "Ġbroad": 2603,
      "Ġspok": 2604,
      "ourt": 2605,
      "ler": 2606,
      "Ġfriend": 2607,
      "Ġcit": 2608,
      "Ġforeign": 2609,
      "Ġcurrently": 2610,
      "ĠCount": 2611,
      "Ġheav": 2612,
      "ĠBar": 2613,
      "Ġgoes": 2614,
      "joy": 2615,
      "based": 2616,
      "isl": 2617,
      "Ġglobal": 2618,
      "Ġsort": 2619,
      "Ġexc": 2620,
      "Ġwhose": 2621,
      "Ġoffer": 2622,
      "Ġsituation": 2623,
      "ĠCalif": 2624,
      "Ġinflu": 2625,
      "Ġbuy": 2626,
      "ik": 2627,
      "Ġlives": 2628,
      "Ġste": 2629,
      "vertise": 2630,
      "Ġplans": 2631,
      "ĠMc": 2632,
      "Ġ<": 2633,
      "Ġindic": 2634,
      "nesday": 2635,
      "ednesday": 2636,
      "Ġhar": 2637,
      "anger": 2638,
      "Ġconfir": 2639,
      "Ġmember": 2640,
      "atives": 2641,
      "fect": 2642,
      "mb": 2643,
      "Ġturned": 2644,
      "Ġmother": 2645,
      "oke": 2646,
      "Ġevents": 2647,
      "Ġarri": 2648,
      "ursday": 2649,
      "ĠJanuary": 2650,
      "Ġ21": 2651,
      "Ġemer": 2652,
      "lt": 2653,
      "Ġroad": 2654,
      "Ġteams": 2655,
      "ĠNow": 2656,
      "Ġmeeting": 2657,
      "Ġstra": 2658,
      "sy": 2659,
      "ĠFeb": 2660,
      "At": 2661,
      "Ġheart": 2662,
      "Ġep": 2663,
      "Ġcollect": 2664,
      "duct": 2665,
      "ery": 2666,
      "Ġred": 2667,
      "Ġhuge": 2668,
      "oid": 2669,
      "ĠSeptember": 2670,
      "Ġdiv": 2671,
      "Ġregard": 2672,
      "Ġdeterm": 2673,
      "Ġareas": 2674,
      "come": 2675,
      "iet": 2676,
      "Ġsimple": 2677,
      "Ġfem": 2678,
      "Ġnetwork": 2679,
      "ring": 2680,
      "ext": 2681,
      "Ġ@": 2682,
      "17": 2683,
      "Ġintrodu": 2684,
      "ĠGen": 2685,
      "\".": 2686,
      "Ġcouple": 2687,
      "ĠGu": 2688,
      "Ġcareer": 2689,
      "ask": 2690,
      "irt": 2691,
      "Ġmaterial": 2692,
      "eed": 2693,
      "Ġperformance": 2694,
      "atural": 2695,
      "ĠNovember": 2696,
      "ĠAfric": 2697,
      "ray": 2698,
      "Ġfelt": 2699,
      "Ġquickly": 2700,
      "Ġnumbers": 2701,
      "Ġpict": 2702,
      "ĠGeor": 2703,
      "Ġparticip": 2704,
      "Ġapproach": 2705,
      "oring": 2706,
      "Ġsto": 2707,
      "Ġrace": 2708,
      "ĠSund": 2709,
      "Ġadministration": 2710,
      "ĠWednesday": 2711,
      "Ġcapital": 2712,
      "Ġaffect": 2713,
      "Ġimprove": 2714,
      "ĠDavid": 2715,
      "Ġengine": 2716,
      "Ġvia": 2717,
      "Ġpage": 2718,
      "One": 2719,
      "omm": 2720,
      "off": 2721,
      "Ġemb": 2722,
      "rom": 2723,
      "ĠAct": 2724,
      "Ġur": 2725,
      "ellig": 2726,
      "ĠEuropean": 2727,
      "ĠThursday": 2728,
      "Ġbuilt": 2729,
      "Ġrecogn": 2730,
      "ĠTV": 2731,
      "ĠIslam": 2732,
      "ires": 2733,
      "Ġproduction": 2734,
      "ornia": 2735,
      "Ġmethod": 2736,
      "Ġheard": 2737,
      "ighb": 2738,
      "Ġthous": 2739,
      "Ġloss": 2740,
      "Ġhttp": 2741,
      "Ġeconomy": 2742,
      "Ġenjoy": 2743,
      "Ġgain": 2744,
      "Ġpull": 2745,
      "urd": 2746,
      "Ġ40": 2747,
      "Ġwebsite": 2748,
      "To": 2749,
      "Ġallowed": 2750,
      "Ġreveal": 2751,
      "Ġspent": 2752,
      "Ġrev": 2753,
      "ĠMy": 2754,
      "Ġlog": 2755,
      "Ġfather": 2756,
      "Ġincluded": 2757,
      "ograph": 2758,
      "ech": 2759,
      "Ġtravel": 2760,
      "Ġdeli": 2761,
      "ĠOctober": 2762,
      "ruction": 2763,
      "ĠCourt": 2764,
      "Ġbank": 2765,
      "cember": 2766,
      "Ġknew": 2767,
      "hood": 2768,
      "Ġlower": 2769,
      "Ġwants": 2770,
      "Ġvictim": 2771,
      "ought": 2772,
      "ĠAugust": 2773,
      "Ġneighb": 2774,
      "Ġnorm": 2775,
      "Ġwide": 2776,
      "Ġbehav": 2777,
      "ĠBritish": 2778,
      "Ġcover": 2779,
      "ÂŃ": 2780,
      "Ġtrade": 2781,
      "Ġdefin": 2782,
      "ĠCanada": 2783,
      "Ġcoll": 2784,
      "Ġtool": 2785,
      "Ġgets": 2786,
      "Ġmovement": 2787,
      "ructure": 2788,
      "Ġ22": 2789,
      "Ġtradition": 2790,
      "Ġaren": 2791,
      "Ġtried": 2792,
      "Ġord": 2793,
      "set": 2794,
      "Ġforces": 2795,
      "Ġsecret": 2796,
      "ĠSunday": 2797,
      "put": 2798,
      "Ġcause": 2799,
      "Ġboard": 2800,
      "ĠSu": 2801,
      "Ġpoll": 2802,
      "sh": 2803,
      "ĠPaul": 2804,
      "Ġsuff": 2805,
      "orters": 2806,
      "Ġrepe": 2807,
      "ĠAb": 2808,
      "Ġmatch": 2809,
      "Ġtext": 2810,
      "âĢĿ.": 2811,
      "ael": 2812,
      "Ġvisit": 2813,
      "Ġsepar": 2814,
      "Ġpers": 2815,
      "\",": 2816,
      "Ġlegisl": 2817,
      "ĠBy": 2818,
      "Ġattention": 2819,
      "uel": 2820,
      "Ġpopulation": 2821,
      "Ġvarious": 2822,
      "Ġround": 2823,
      "Ġparticular": 2824,
      "key": 2825,
      "Ġlooks": 2826,
      "ĠCalifornia": 2827,
      "Ġbrought": 2828,
      "Ġhon": 2829,
      "Ġperfect": 2830,
      "ĠPark": 2831,
      "Ġill": 2832,
      "aily": 2833,
      "order": 2834,
      "Ġtown": 2835,
      "Ġboy": 2836,
      "chie": 2837,
      "Ġreach": 2838,
      "Ġprevious": 2839,
      "Ph": 2840,
      "ĠRussian": 2841,
      "Ġmention": 2842,
      "Ġmorning": 2843,
      "load": 2844,
      "ĠUK": 2845,
      "fer": 2846,
      "Ġveh": 2847,
      "'d": 2848,
      "Ġcal": 2849,
      "Ġfear": 2850,
      "Ġsett": 2851,
      "Ġgrowth": 2852,
      "Ġmid": 2853,
      "Ġclos": 2854,
      "yond": 2855,
      "Ġexam": 2856,
      "Ġtraining": 2857,
      "After": 2858,
      "With": 2859,
      "ĠKore": 2860,
      "ĠDecember": 2861,
      "Ġhands": 2862,
      "Ġcorre": 2863,
      "ceed": 2864,
      "While": 2865,
      "Ġdemand": 2866,
      "Ġ196": 2867,
      "ĠSan": 2868,
      "ecause": 2869,
      "Ġsize": 2870,
      "Ġimage": 2871,
      "Ġcontact": 2872,
      "Ġprogress": 2873,
      "Ġrules": 2874,
      "estern": 2875,
      "br": 2876,
      "oose": 2877,
      "Ġsong": 2878,
      "Ġupon": 2879,
      "Ġcitiz": 2880,
      "lled": 2881,
      "][": 2882,
      "clus": 2883,
      "Ġlatest": 2884,
      "Ġstrugg": 2885,
      "onst": 2886,
      "Ġindepend": 2887,
      "Ġfeatures": 2888,
      "idents": 2889,
      "cement": 2890,
      "istan": 2891,
      "Ġtalking": 2892,
      "Ġlearn": 2893,
      "Ġcoach": 2894,
      "oto": 2895,
      "?âĢĿ": 2896,
      "Ġleader": 2897,
      "ctions": 2898,
      "Ġsearch": 2899,
      "Ġslow": 2900,
      "ĠSenate": 2901,
      "udget": 2902,
      "idered": 2903,
      "Ġconsidered": 2904,
      "Ġ}": 2905,
      "Ġess": 2906,
      "ĠStreet": 2907,
      "ern": 2908,
      "Ġens": 2909,
      "Ġlevels": 2910,
      "Ġdig": 2911,
      "arc": 2912,
      "ĠCounty": 2913,
      "Ġinvestigation": 2914,
      "ĠPe": 2915,
      "Ad": 2916,
      "undred": 2917,
      "ĠTimes": 2918,
      "raq": 2919,
      "Ġfair": 2920,
      "ĠParty": 2921,
      "Ġcapt": 2922,
      "Ġlanguage": 2923,
      "Ġmedical": 2924,
      "Ġachie": 2925,
      "Ġprep": 2926,
      "ises": 2927,
      "aturday": 2928,
      "Ġwond": 2929,
      "Ġru": 2930,
      "ĠIndia": 2931,
      "ĠCenter": 2932,
      "Ġ2008": 2933,
      "Ġparents": 2934,
      "Ġsystems": 2935,
      "ume": 2936,
      "ĠPal": 2937,
      "agement": 2938,
      "reg": 2939,
      "18": 2940,
      "action": 2941,
      "ĠSm": 2942,
      "Ġwritten": 2943,
      "imately": 2944,
      "ips": 2945,
      "Ġhot": 2946,
      "cast": 2947,
      "ude": 2948,
      "istic": 2949,
      "Ġseek": 2950,
      "Ġincreasing": 2951,
      "ondon": 2952,
      "Ġliber": 2953,
      "Ġlit": 2954,
      "iction": 2955,
      "Ġpaper": 2956,
      "Ġcritic": 2957,
      "elligence": 2958,
      "face": 2959,
      "Ġhear": 2960,
      "ĠMuslim": 2961,
      "Ġjobs": 2962,
      "Ġfast": 2963,
      "ruary": 2964,
      "200": 2965,
      "Ġdocument": 2966,
      "Ġdoll": 2967,
      "ana": 2968,
      "Ġextreme": 2969,
      "ession": 2970,
      "Ġsexual": 2971,
      "sequ": 2972,
      "Ġseven": 2973,
      "ĠTex": 2974,
      "Ġserious": 2975,
      "Ġspeed": 2976,
      "Ġalle": 2977,
      "ĠIran": 2978,
      "ij": 2979,
      "Ġviolence": 2980,
      "Ġimag": 2981,
      "ĠKing": 2982,
      "lear": 2983,
      "ĠJew": 2984,
      "Al": 2985,
      "Ġstar": 2986,
      "ĠIraq": 2987,
      "iple": 2988,
      "Ġcompletely": 2989,
      "Ġrange": 2990,
      "Ġ2009": 2991,
      "Ġextra": 2992,
      "Ġsafe": 2993,
      "Ġmessage": 2994,
      "Ġinteresting": 2995,
      "Ġbox": 2996,
      "arily": 2997,
      "Ġopportunity": 2998,
      "ledge": 2999,
      "Ġspokes": 3000,
      "Ġprotest": 3001,
      "Ġmajority": 3002,
      "Ġclimate": 3003,
      "Ġparticularly": 3004,
      "Ġhor": 3005,
      "Ġeight": 3006,
      "Ġprevent": 3007,
      "Ġdespite": 3008,
      "hel": 3009,
      "Ġconduct": 3010,
      "Ġclaims": 3011,
      "Ġobv": 3012,
      "uth": 3013,
      "ysis": 3014,
      "Ġ*": 3015,
      "ĠSte": 3016,
      "Ġsociety": 3017,
      "icles": 3018,
      "Ġimmig": 3019,
      "Ġdefense": 3020,
      "Ġjournal": 3021,
      "Ġguy": 3022,
      "Ġsurve": 3023,
      "Ġanswer": 3024,
      "Ġattacks": 3025,
      "Ġregul": 3026,
      "oura": 3027,
      "Ġter": 3028,
      "Ġrequired": 3029,
      "Ġmach": 3030,
      "ĠDonald": 3031,
      "Ġbiggest": 3032,
      "vertisement": 3033,
      "Ġresour": 3034,
      "Ġexactly": 3035,
      "Ġcarry": 3036,
      "Ġpaid": 3037,
      "Ġsqu": 3038,
      "ese": 3039,
      "Ġ...": 3040,
      "umb": 3041,
      "Ġcompl": 3042,
      "Ġexperi": 3043,
      "atform": 3044,
      "ground": 3045,
      "Ġofficers": 3046,
      "raft": 3047,
      "Ġ23": 3048,
      "Ġpractice": 3049,
      "reedom": 3050,
      "Ġcy": 3051,
      "Ġconserv": 3052,
      "Ġtele": 3053,
      "Ġcertainly": 3054,
      "Ġfre": 3055,
      "ĠSaturday": 3056,
      "ĠRed": 3057,
      "Ġstories": 3058,
      "ĠLondon": 3059,
      "ills": 3060,
      "Ġhundred": 3061,
      "alled": 3062,
      "Ġproducts": 3063,
      "Ġcard": 3064,
      "Ġlooked": 3065,
      "Ġsometimes": 3066,
      "Ġprior": 3067,
      "Ġremo": 3068,
      "Ġson": 3069,
      "ĠIS": 3070,
      "Ġpark": 3071,
      "Ġfinally": 3072,
      "Ġscience": 3073,
      "inese": 3074,
      "Ġsport": 3075,
      "ĠEm": 3076,
      "Ġdraw": 3077,
      "Ġchanged": 3078,
      "Ġleading": 3079,
      "25": 3080,
      "Ġdescribed": 3081,
      "Ġtable": 3082,
      "wo": 3083,
      "ĠFebruary": 3084,
      "anks": 3085,
      "Ġexcept": 3086,
      "Ġprison": 3087,
      "Ġones": 3088,
      "Ġdetails": 3089,
      "cies": 3090,
      "Ġstarting": 3091,
      "ted": 3092,
      "af": 3093,
      "fully": 3094,
      "Ġscreen": 3095,
      "Ġquality": 3096,
      "ĠPost": 3097,
      "Ġoccur": 3098,
      "Ġshowed": 3099,
      "Ġstuff": 3100,
      "Ġgiving": 3101,
      "Ġdoub": 3102,
      "Ġremains": 3103,
      "Ġnamed": 3104,
      "Ġsummer": 3105,
      "oll": 3106,
      "Ġmovie": 3107,
      "Ġhistor": 3108,
      "Ġprovided": 3109,
      "Ġcosts": 3110,
      "Ġsurv": 3111,
      ");": 3112,
      "Ġquarter": 3113,
      "Ġrout": 3114,
      "bit": 3115,
      "Ġbott": 3116,
      "Ġdamage": 3117,
      "Ġuser": 3118,
      "Ġflo": 3119,
      "omb": 3120,
      "Ġdanger": 3121,
      "icro": 3122,
      "Ġchief": 3123,
      "Ġpoor": 3124,
      "Ġsens": 3125,
      "uclear": 3126,
      "Ġcontinued": 3127,
      "Ġeducation": 3128,
      "Ġgrowing": 3129,
      "Ġcommunic": 3130,
      "Ġregion": 3131,
      "oming": 3132,
      "Ġparts": 3133,
      "Ġmiddle": 3134,
      "iff": 3135,
      "Ġwriting": 3136,
      "oard": 3137,
      "ibly": 3138,
      "Ġcomments": 3139,
      "uses": 3140,
      "entially": 3141,
      "Ġthinking": 3142,
      "Ġmultiple": 3143,
      "Ġrock": 3144,
      "Ġconvers": 3145,
      "ĠEast": 3146,
      "ĠRepublicans": 3147,
      "inally": 3148,
      "Ġassist": 3149,
      "ĠChar": 3150,
      "ĠDemocratic": 3151,
      "Ġdied": 3152,
      "Ġpen": 3153,
      "rast": 3154,
      "Ġincreased": 3155,
      "Ġwouldn": 3156,
      "Ġnatural": 3157,
      "Ġready": 3158,
      "ops": 3159,
      "isions": 3160,
      "Ġculture": 3161,
      "pro": 3162,
      "ĠEven": 3163,
      "Ġefforts": 3164,
      "Ġvoters": 3165,
      "Ġmodern": 3166,
      "Ġcomplain": 3167,
      "aught": 3168,
      "Ġgas": 3169,
      "Ġreading": 3170,
      "ological": 3171,
      "Ġprin": 3172,
      "Ġimplement": 3173,
      "Ġwrite": 3174,
      "Ġusually": 3175,
      "ai": 3176,
      "Ġeffects": 3177,
      "Ġcalls": 3178,
      "gency": 3179,
      "Ġperhaps": 3180,
      "Ġbudget": 3181,
      "iment": 3182,
      "ĠMore": 3183,
      "Ġalone": 3184,
      "ĠMark": 3185,
      "Ġitem": 3186,
      "Ġmaintain": 3187,
      "sc": 3188,
      "Ġalthough": 3189,
      "ospital": 3190,
      "Ġtowards": 3191,
      "ĠLeague": 3192,
      "down": 3193,
      "Ġguys": 3194,
      "Ġpurp": 3195,
      "nces": 3196,
      "ĠTexas": 3197,
      "eter": 3198,
      "Ġcirc": 3199,
      "Ġdirectly": 3200,
      "Ġdemonst": 3201,
      "Ġconsist": 3202,
      "Ġbeyond": 3203,
      "ĠChinese": 3204,
      "hest": 3205,
      "Ġreality": 3206,
      "No": 3207,
      "Ġlay": 3208,
      "Ġfile": 3209,
      "Ġkids": 3210,
      "ean": 3211,
      "Ġment": 3212,
      "Ġhous": 3213,
      "Ġthroughout": 3214,
      "Ġ(@": 3215,
      "Ġpurch": 3216,
      "Ġfill": 3217,
      "Ġcamer": 3218,
      "SA": 3219,
      "oph": 3220,
      "Ġstudent": 3221,
      "Ġcouldn": 3222,
      "erve": 3223,
      "ĠBlack": 3224,
      "yn": 3225,
      "She": 3226,
      "Ġimmediately": 3227,
      "ĠMichael": 3228,
      "Ġincludes": 3229,
      "ĠDr": 3230,
      "utions": 3231,
      "Ġplatform": 3232,
      "Ġchoice": 3233,
      "Ġadditional": 3234,
      "Ġscene": 3235,
      "Ġdro": 3236,
      "Ġconc": 3237,
      "ĠEar": 3238,
      "lying": 3239,
      "oe": 3240,
      "rench": 3241,
      "Ġwife": 3242,
      "ĠJames": 3243,
      "Ġresearc": 3244,
      "Ġcrim": 3245,
      "ĠFirst": 3246,
      "enced": 3247,
      "ĠLab": 3248,
      "Ġfix": 3249,
      "Ġspeech": 3250,
      "Ġcross": 3251,
      "Ġepis": 3252,
      "Ġdesigned": 3253,
      "Ġsafety": 3254,
      "ĠEn": 3255,
      "Ġsoftware": 3256,
      "Ġremember": 3257,
      "Ġrecomm": 3258,
      "Ġgone": 3259,
      "Ġfootball": 3260,
      "Ġreb": 3261,
      "Ġcenter": 3262,
      "Ġselect": 3263,
      "ĠIndian": 3264,
      "Ġstandard": 3265,
      "Ġblood": 3266,
      "Ġtoward": 3267,
      "Ġagency": 3268,
      "indows": 3269,
      "Ġofficer": 3270,
      "Ġcomplex": 3271,
      "ĠMinister": 3272,
      "Ġult": 3273,
      "ĠNet": 3274,
      "Ġdebate": 3275,
      "Ġthousands": 3276,
      "Ġpath": 3277,
      "Ġer": 3278,
      "ris": 3279,
      "Ġcele": 3280,
      "Ġahead": 3281,
      "itute": 3282,
      "Ġpropos": 3283,
      "Ġrelative": 3284,
      "ishing": 3285,
      "ĠPer": 3286,
      "Ġreceive": 3287,
      "Ġpressure": 3288,
      "vision": 3289,
      "Ġfigure": 3290,
      "aged": 3291,
      "Ġpiece": 3292,
      "Ġmoved": 3293,
      "atory": 3294,
      "Ġappears": 3295,
      "Ġpassed": 3296,
      "Ġsell": 3297,
      "Ġopin": 3298,
      "ened": 3299,
      "ĠPar": 3300,
      "Ġlaunch": 3301,
      "atever": 3302,
      "Ġhelped": 3303,
      "overed": 3304,
      "Ġstage": 3305,
      "Ġproperty": 3306,
      "Ġsubs": 3307,
      "Ġalleged": 3308,
      "ĠRom": 3309,
      "Ġconcept": 3310,
      "Ġaw": 3311,
      "Ġ27": 3312,
      "ampions": 3313,
      "isc": 3314,
      "ĠBill": 3315,
      "ĠDemocrats": 3316,
      "Ġmob": 3317,
      "Ġconditions": 3318,
      "Ġcorpor": 3319,
      "ollow": 3320,
      "ĠPat": 3321,
      "Ġmoving": 3322,
      "Ġorganization": 3323,
      "Ġrob": 3324,
      "Ġoption": 3325,
      "Ġdate": 3326,
      "Ġreasons": 3327,
      "ĠThen": 3328,
      "Ġsuspect": 3329,
      "apt": 3330,
      "aur": 3331,
      "Ġmyself": 3332,
      "exic": 3333,
      "Ġnuclear": 3334,
      "Ġletter": 3335,
      "Ġdrive": 3336,
      "fact": 3337,
      "Ġhappy": 3338,
      "Ġ26": 3339,
      "Ġdifference": 3340,
      "AT": 3341,
      "Ġdevice": 3342,
      "Ġbi": 3343,
      "Ġ28": 3344,
      "Ġbeginning": 3345,
      "Ġmaybe": 3346,
      "Ġfailed": 3347,
      "ĠWilliam": 3348,
      "Ġcharacters": 3349,
      "ĠAssoci": 3350,
      "Ġnature": 3351,
      "lection": 3352,
      "ension": 3353,
      "anced": 3354,
      "Ġpit": 3355,
      "Ġmeaning": 3356,
      "Ġcompared": 3357,
      "Ġencoura": 3358,
      "Ġcris": 3359,
      "iber": 3360,
      "Ġleague": 3361,
      "hem": 3362,
      "inated": 3363,
      "Now": 3364,
      "Ġblog": 3365,
      "ung": 3366,
      "Ġcollege": 3367,
      "ham": 3368,
      "Ġtitle": 3369,
      "Ġstore": 3370,
      "Ġtwe": 3371,
      "resh": 3372,
      "rary": 3373,
      "ams": 3374,
      "Ġcentury": 3375,
      "Ġshown": 3376,
      "Ġpowerful": 3377,
      "ĠII": 3378,
      "ĠâĢ¦": 3379,
      "oud": 3380,
      "Ġsubst": 3381,
      "Ġlimited": 3382,
      "Ġaim": 3383,
      "Ġorganiz": 3384,
      "Ġpositive": 3385,
      "Ġforced": 3386,
      "Ġnecessary": 3387,
      "Ġestim": 3388,
      "Ġcandidate": 3389,
      "Ġcomputer": 3390,
      "Ġil": 3391,
      "inc": 3392,
      "Ġmill": 3393,
      "Ġcontribut": 3394,
      "Ġpan": 3395,
      "ĠJack": 3396,
      "Ġlargest": 3397,
      "alt": 3398,
      "Ġconference": 3399,
      "Ġanalysis": 3400,
      "Ġnote": 3401,
      "Ġspending": 3402,
      "ĠRich": 3403,
      "Ġpresidential": 3404,
      "mon": 3405,
      "ĠApple": 3406,
      "ĠCoun": 3407,
      "Ġcitizens": 3408,
      "Ġschools": 3409,
      "Ġdark": 3410,
      "Ġperm": 3411,
      "Ġign": 3412,
      "Ġbattle": 3413,
      "ĠSyria": 3414,
      "Ġclean": 3415,
      "ĠFrench": 3416,
      "Ġdog": 3417,
      "Ġaware": 3418,
      "Ġexecutive": 3419,
      "Ġmeant": 3420,
      "Ġeventually": 3421,
      "ĠPhil": 3422,
      "imum": 3423,
      "Ġfollowed": 3424,
      "lease": 3425,
      "ĠEnglish": 3426,
      "Ġyes": 3427,
      "Ġeyes": 3428,
      "Ġcast": 3429,
      "Ġbooks": 3430,
      "Ġtreatment": 3431,
      "ĠRober": 3432,
      "Ġdisapp": 3433,
      "Ġphysical": 3434,
      "Ġhy": 3435,
      "Ġstren": 3436,
      "coin": 3437,
      "Ġtouch": 3438,
      "Ġwall": 3439,
      "Ġeasily": 3440,
      "Ġcopy": 3441,
      "Ġ60": 3442,
      "Ġreligious": 3443,
      "Ġsle": 3444,
      "olute": 3445,
      "ĠHere": 3446,
      "Ġfeature": 3447,
      "Ġfamilies": 3448,
      "ĠSand": 3449,
      "na": 3450,
      "enty": 3451,
      "orney": 3452,
      "Ġactions": 3453,
      "?\"": 3454,
      "Ġallows": 3455,
      "wise": 3456,
      "itness": 3457,
      "Ġgives": 3458,
      "ĠServ": 3459,
      "Ġtrust": 3460,
      "venue": 3461,
      "Ġyourself": 3462,
      "ĠÂ£": 3463,
      "Ġoverall": 3464,
      "Ġfirm": 3465,
      "Ġappeared": 3466,
      "ĠOf": 3467,
      "Ġincome": 3468,
      "Ġenfor": 3469,
      "Ġbrand": 3470,
      "Ġtro": 3471,
      "airs": 3472,
      "using": 3473,
      "Ġsigned": 3474,
      "ites": 3475,
      "Ġdraft": 3476,
      "Ġthrow": 3477,
      "ĠMexic": 3478,
      "Ġideas": 3479,
      "Ġmix": 3480,
      "Ġ>": 3481,
      "erc": 3482,
      "Ġprinci": 3483,
      "Ġbrain": 3484,
      "Advertisement": 3485,
      "Ġweapons": 3486,
      "Ġpus": 3487,
      "ĠCont": 3488,
      "Ġcommand": 3489,
      "emy": 3490,
      "Ġnice": 3491,
      "Ġdeg": 3492,
      "Ġpolitics": 3493,
      "Ġdecades": 3494,
      "Ġpromot": 3495,
      "Ġdisplay": 3496,
      "Ġten": 3497,
      "ope": 3498,
      "Ġuses": 3499,
      "rowd": 3500,
      "Ġcrime": 3501,
      "fort": 3502,
      "ĠCor": 3503,
      "ĠAnge": 3504,
      "ĠPlay": 3505,
      "Ġnom": 3506,
      "Ġsenior": 3507,
      "Ġunique": 3508,
      "Ġdestro": 3509,
      "Ġcredit": 3510,
      "ugh": 3511,
      "Ġdeveloped": 3512,
      "Ġcustomers": 3513,
      "Ġbal": 3514,
      "Ġbenefits": 3515,
      "ĠSw": 3516,
      "Ġdrink": 3517,
      "Ġcrisis": 3518,
      "ufact": 3519,
      "Ġanaly": 3520,
      "Ġconflic": 3521,
      "Ġnoted": 3522,
      "ĠAustralia": 3523,
      "Ġavoid": 3524,
      "Ġrelated": 3525,
      "ĠDay": 3526,
      "Ġilleg": 3527,
      "According": 3528,
      "ago": 3529,
      "ĠInternational": 3530,
      "Ġindividuals": 3531,
      "Ġautom": 3532,
      "Ġcontinues": 3533,
      "Ġfrequ": 3534,
      "ening": 3535,
      "ĠGerman": 3536,
      "Ġchallenge": 3537,
      "ĠTur": 3538,
      "Ġdise": 3539,
      "Ġapparent": 3540,
      "Ġcool": 3541,
      "Ġcharge": 3542,
      "Ġsusp": 3543,
      "ida": 3544,
      "omen": 3545,
      "Ġcrowd": 3546,
      "Ġprojects": 3547,
      "rief": 3548,
      "egr": 3549,
      "encies": 3550,
      "ĠSchool": 3551,
      "ĠOff": 3552,
      "ĠGovern": 3553,
      "40": 3554,
      "Ġmeasure": 3555,
      "eration": 3556,
      "uty": 3557,
      "ĠPolice": 3558,
      "Ġintelligence": 3559,
      "rely": 3560,
      "Ġpreviously": 3561,
      "Ġfeed": 3562,
      "ĠGermany": 3563,
      "Ġfully": 3564,
      "light": 3565,
      "Ġmanager": 3566,
      "Ġsil": 3567,
      "Ġrates": 3568,
      "Ġdoor": 3569,
      "ression": 3570,
      "Ġclearly": 3571,
      "Ġsales": 3572,
      "Ġsuccessful": 3573,
      "Ġhighly": 3574,
      "Ġbat": 3575,
      "Ġgoals": 3576,
      "Ġtruth": 3577,
      "Ġlarger": 3578,
      "Ġseemed": 3579,
      "Ġadvant": 3580,
      "aves": 3581,
      "Ġbeaut": 3582,
      "Ġlines": 3583,
      "Ġsmart": 3584,
      "Ġsat": 3585,
      "hib": 3586,
      "Ġprograms": 3587,
      "ps": 3588,
      "Ġcorrect": 3589,
      "ĠGeorge": 3590,
      "Ġgrad": 3591,
      "Ġresources": 3592,
      "ĠUnion": 3593,
      "ĠAra": 3594,
      "Ġgreater": 3595,
      "Ch": 3596,
      "Ġpredict": 3597,
      "Ġprimary": 3598,
      "Ġminor": 3599,
      "Ġincident": 3600,
      "irth": 3601,
      "Ġstudies": 3602,
      "bum": 3603,
      "Ġknowledge": 3604,
      "aughter": 3605,
      "ĠChristian": 3606,
      "Ġexpand": 3607,
      "Ġkept": 3608,
      "Ġcentral": 3609,
      "aches": 3610,
      "anch": 3611,
      "rated": 3612,
      "ĠEU": 3613,
      "Ġfan": 3614,
      "Ġlos": 3615,
      "Ġfeet": 3616,
      "ĠSmith": 3617,
      "Ġreached": 3618,
      "Ġsave": 3619,
      "FL": 3620,
      "inary": 3621,
      "ĠHer": 3622,
      "Ġpeace": 3623,
      "rant": 3624,
      "Ġrule": 3625,
      "Ġbrother": 3626,
      "ze": 3627,
      "Ġunf": 3628,
      "Ġspread": 3629,
      "Ġfavorite": 3630,
      "Ġrap": 3631,
      "Ġplaces": 3632,
      "ĠInternet": 3633,
      "Ġnar": 3634,
      "):": 3635,
      "idge": 3636,
      "Ġregular": 3637,
      "Ġdrop": 3638,
      "ĠThom": 3639,
      "Ġfa": 3640,
      "All": 3641,
      "Ġlaun": 3642,
      "Ġfra": 3643,
      "iders": 3644,
      "Ġmanufact": 3645,
      "ĠGl": 3646,
      "kes": 3647,
      "Ġknows": 3648,
      "Ġshooting": 3649,
      "Ġactivity": 3650,
      "sych": 3651,
      "22": 3652,
      "rel": 3653,
      "Ġsources": 3654,
      "Ġaltern": 3655,
      "orida": 3656,
      "--": 3657,
      "while": 3658,
      "aries": 3659,
      "Ġexch": 3660,
      "Ġfighting": 3661,
      "iny": 3662,
      "Ġspot": 3663,
      "ĠSci": 3664,
      "Ġrise": 3665,
      "Ġcaused": 3666,
      "Ġfine": 3667,
      "Ġowners": 3668,
      "Ġclaimed": 3669,
      "uit": 3670,
      "Ġstatus": 3671,
      "Ġswe": 3672,
      "gers": 3673,
      "ĠGreen": 3674,
      "itely": 3675,
      "Ġoptions": 3676,
      "Ġ2007": 3677,
      "ĠCouncil": 3678,
      "ĠEarth": 3679,
      "urance": 3680,
      "Ġband": 3681,
      "Ġcities": 3682,
      "Ġlic": 3683,
      "ales": 3684,
      "Ġended": 3685,
      "Ġemot": 3686,
      "riage": 3687,
      "IS": 3688,
      "Ġresearchers": 3689,
      "Ġsend": 3690,
      "oday": 3691,
      "Some": 3692,
      "Ġcalling": 3693,
      "ĠGeneral": 3694,
      "ĠBra": 3695,
      "Ġstraight": 3696,
      "ĠGra": 3697,
      "room": 3698,
      "Ġinsp": 3699,
      "chan": 3700,
      "Ġreform": 3701,
      "HE": 3702,
      "cul": 3703,
      "onents": 3704,
      "Ġprices": 3705,
      "ĠStar": 3706,
      "Ġvoice": 3707,
      "Ġemployees": 3708,
      "Ġarch": 3709,
      "Ġfemale": 3710,
      "Ġspend": 3711,
      "Ġwilling": 3712,
      "icago": 3713,
      "Ġut": 3714,
      "Ġraised": 3715,
      "Ġalbum": 3716,
      "ĠSpe": 3717,
      "Ġsupposed": 3718,
      "Ġhappens": 3719,
      "Ġadding": 3720,
      "Ġpolicies": 3721,
      "ĠEngland": 3722,
      "iant": 3723,
      "Ġmist": 3724,
      "My": 3725,
      "Ġconcerns": 3726,
      "Ġcharges": 3727,
      "Ġhur": 3728,
      "Ġbasic": 3729,
      "ĠAir": 3730,
      "www": 3731,
      "Ġabsolute": 3732,
      "99": 3733,
      "Ġfunding": 3734,
      "Ġreflect": 3735,
      "Ġesc": 3736,
      "Ġpatients": 3737,
      "Ġauthorities": 3738,
      "Ġtour": 3739,
      "By": 3740,
      "ĠBen": 3741,
      "Im": 3742,
      "Ġcreating": 3743,
      "Ġcolor": 3744,
      "Ġfreedom": 3745,
      "Ġund": 3746,
      "Ġminister": 3747,
      "Ġintegr": 3748,
      "new": 3749,
      "Ġnames": 3750,
      "ĠFrom": 3751,
      "Ġslight": 3752,
      "Ġseeing": 3753,
      "Ġspir": 3754,
      "ĠDan": 3755,
      "rupt": 3756,
      "nown": 3757,
      "Ġstyle": 3758,
      "Ġ29": 3759,
      "astic": 3760,
      "âĢĿ,": 3761,
      "Ġcriminal": 3762,
      "just": 3763,
      "BI": 3764,
      "secut": 3765,
      "Ġleaving": 3766,
      "ĠEvery": 3767,
      "craft": 3768,
      "term": 3769,
      "akers": 3770,
      "te": 3771,
      "ously": 3772,
      "Ġoffered": 3773,
      "Ġtraditional": 3774,
      "Ġensure": 3775,
      "Ġagreement": 3776,
      "ĠFlorida": 3777,
      "het": 3778,
      "Ġplant": 3779,
      "ĠRo": 3780,
      "eff": 3781,
      "Ġhaven": 3782,
      "Ġliter": 3783,
      "RE": 3784,
      "Ġbehavior": 3785,
      "Ġposted": 3786,
      "ĠJer": 3787,
      "ĠHillary": 3788,
      "ĠInt": 3789,
      "Ġweekend": 3790,
      "Ġtrou": 3791,
      "Ġmis": 3792,
      "Ġwait": 3793,
      "ĠEl": 3794,
      "ĠScott": 3795,
      "Ġnormal": 3796,
      "Ġstation": 3797,
      "yan": 3798,
      "Ġrevealed": 3799,
      "Ġmostly": 3800,
      "Ġvalues": 3801,
      "ength": 3802,
      "Ġapplication": 3803,
      "ston": 3804,
      "more": 3805,
      "orter": 3806,
      "ek": 3807,
      "eg": 3808,
      "roid": 3809,
      "Ġcounter": 3810,
      "ĠAccording": 3811,
      ".âĢĻ": 3812,
      "aper": 3813,
      "Ġestabl": 3814,
      "Ġadult": 3815,
      "Ġrecords": 3816,
      "ĠArab": 3817,
      "ressed": 3818,
      "ports": 3819,
      "band": 3820,
      "Ġbeat": 3821,
      "Ġjump": 3822,
      "Ġvirt": 3823,
      "Here": 3824,
      "ĠSer": 3825,
      "ĠMost": 3826,
      "Ġhospital": 3827,
      "Ġbelieved": 3828,
      "ube": 3829,
      "Ġpicture": 3830,
      "Ġmechan": 3831,
      "ables": 3832,
      "Ġlearned": 3833,
      "Ġpush": 3834,
      "erved": 3835,
      "Ġrank": 3836,
      "Ġstrategy": 3837,
      "ban": 3838,
      "aker": 3839,
      "Ġkick": 3840,
      "Ġprem": 3841,
      "Ġbeg": 3842,
      "Ġasse": 3843,
      "Ġchoose": 3844,
      "Ġmassive": 3845,
      "Ġdevices": 3846,
      "Ġparties": 3847,
      "ĠBrown": 3848,
      "Ġcommit": 3849,
      "ĠMart": 3850,
      "Ġcommer": 3851,
      "Ġactual": 3852,
      "Ġcars": 3853,
      "Ġarrested": 3854,
      "Ġpow": 3855,
      "ĠPeople": 3856,
      "aced": 3857,
      "Ġwhatever": 3858,
      "Ġlawy": 3859,
      "Ġgold": 3860,
      "Ġprovides": 3861,
      "Ġprint": 3862,
      "ĠFrance": 3863,
      "espite": 3864,
      "Ġshut": 3865,
      "Ġwhom": 3866,
      "Ġeye": 3867,
      "Ġinstall": 3868,
      "Ġassault": 3869,
      "Ġasking": 3870,
      "Ġinfluence": 3871,
      "Ġlose": 3872,
      "Ġfeeling": 3873,
      "ĠChicago": 3874,
      "Ġoperations": 3875,
      "Ġproduced": 3876,
      "Ġwonder": 3877,
      "Ġpun": 3878,
      "ken": 3879,
      "wide": 3880,
      "http": 3881,
      "Ġpros": 3882,
      "Don": 3883,
      "ĠGO": 3884,
      "Ġmission": 3885,
      "Ġconfirmed": 3886,
      "Ġcritical": 3887,
      "Ġimages": 3888,
      "Ġbirth": 3889,
      "Ġshowing": 3890,
      "verse": 3891,
      "Ġappl": 3892,
      ".'": 3893,
      "Ġbrief": 3894,
      "Ġarm": 3895,
      "pper": 3896,
      "Ġruns": 3897,
      "Ġlimit": 3898,
      "ĠCons": 3899,
      "Ġdistrict": 3900,
      "rim": 3901,
      "oti": 3902,
      "Ġnegoti": 3903,
      "ocked": 3904,
      "Ġresidents": 3905,
      "ification": 3906,
      "Ġgreen": 3907,
      "However": 3908,
      "rate": 3909,
      "Ġweb": 3910,
      "ribution": 3911,
      "ĠCommittee": 3912,
      "Ġx": 3913,
      "onent": 3914,
      "iers": 3915,
      "Ġjudge": 3916,
      "hold": 3917,
      "Ġflow": 3918,
      "Ġopposition": 3919,
      "uana": 3920,
      "ijuana": 3921,
      "zy": 3922,
      "Ġproduce": 3923,
      "alse": 3924,
      "che": 3925,
      "Ġadop": 3926,
      "ĠHigh": 3927,
      "Ġteac": 3928,
      "Ġdefend": 3929,
      "oes": 3930,
      "aging": 3931,
      "ancis": 3932,
      "Ġindependent": 3933,
      "Ġborder": 3934,
      "Ġacqu": 3935,
      "Ġcelebr": 3936,
      "Ġwat": 3937,
      "Ġpattern": 3938,
      "Ġbenefit": 3939,
      "ĠMor": 3940,
      "ĠCommission": 3941,
      "Ġweight": 3942,
      "mp": 3943,
      "ĠSim": 3944,
      "Ġadvoc": 3945,
      "EO": 3946,
      "itor": 3947,
      "Ġdollars": 3948,
      "Ġattract": 3949,
      "Ġ;": 3950,
      "ĠItal": 3951,
      "Ġeffective": 3952,
      "Ġstreet": 3953,
      "Ġsolution": 3954,
      "ino": 3955,
      "Ġenter": 3956,
      "Ġetc": 3957,
      "Ġinterested": 3958,
      "Ġsection": 3959,
      "Mr": 3960,
      "orks": 3961,
      "soft": 3962,
      "ĠKorea": 3963,
      "Ġdire": 3964,
      "Ġhighest": 3965,
      "ĠUp": 3966,
      "ounds": 3967,
      "Ġopening": 3968,
      "Ġworse": 3969,
      "ĠSecret": 3970,
      "Ġmemory": 3971,
      "Ġmount": 3972,
      "Ġlearning": 3973,
      "Ġresponsible": 3974,
      "Ġoffers": 3975,
      "earch": 3976,
      "ĠWhy": 3977,
      "vent": 3978,
      "Ġdigital": 3979,
      "Ġdebt": 3980,
      "Ġtheory": 3981,
      "Ġcondition": 3982,
      "Ġagreed": 3983,
      "ĠPalest": 3984,
      "Ġtelevision": 3985,
      "Ġdaily": 3986,
      "ĠStud": 3987,
      "see": 3988,
      "ĠBecause": 3989,
      "Ġtrial": 3990,
      "24": 3991,
      "Ġpsych": 3992,
      "Ġinvestment": 3993,
      "ny": 3994,
      "ĠFrancis": 3995,
      "Ġstream": 3996,
      "Ġrestrict": 3997,
      "Ġmillions": 3998,
      "Ġmiles": 3999,
      "ĠOther": 4000,
      "Ġtemper": 4001,
      "ĠHealth": 4002,
      "ĠBush": 4003,
      "ĠJustice": 4004,
      "Ġvs": 4005,
      "ĠOffice": 4006,
      "Ġgenerally": 4007,
      "Ġbasis": 4008,
      "Ġproposed": 4009,
      "Ġoccas": 4010,
      "Ġreplace": 4011,
      "ĠLet": 4012,
      "These": 4013,
      "Ġexplained": 4014,
      "Ġdetect": 4015,
      "Ġsubm": 4016,
      "23": 4017,
      "Ġtypes": 4018,
      "Ġpartners": 4019,
      "icit": 4020,
      "Ġstock": 4021,
      "Ġonto": 4022,
      "ux": 4023,
      "Ġdisp": 4024,
      "ĠAlex": 4025,
      "Ġassociated": 4026,
      "ĠWestern": 4027,
      "ĠTor": 4028,
      "Ġeffic": 4029,
      "arm": 4030,
      "ĠPress": 4031,
      "Ġbecomes": 4032,
      "Ġaccom": 4033,
      "Ġhero": 4034,
      "ares": 4035,
      "Ġfit": 4036,
      "Ġdefe": 4037,
      "icrosoft": 4038,
      "liament": 4039,
      "Ġadvantage": 4040,
      "Ġhundreds": 4041,
      "ĠSecurity": 4042,
      "Ġopened": 4043,
      "Ġachieve": 4044,
      "Ġdestroy": 4045,
      "ĠOur": 4046,
      "Ġunderstanding": 4047,
      "Ġassum": 4048,
      "Ġsurround": 4049,
      "Not": 4050,
      "ĠWell": 4051,
      "Ġtend": 4052,
      "Ġheavy": 4053,
      "Ġopinion": 4054,
      "ĠJohnson": 4055,
      "Ġcoal": 4056,
      "100": 4057,
      "ĠLou": 4058,
      "Ġtick": 4059,
      "iced": 4060,
      "ota": 4061,
      "Ġreject": 4062,
      "Ġmanagement": 4063,
      "Ġbecoming": 4064,
      "Ġborn": 4065,
      "Ġmarriage": 4066,
      "ĠGold": 4067,
      "ĠNFL": 4068,
      "Ġeasier": 4069,
      "ĠWindows": 4070,
      "ĠCup": 4071,
      "Ġmap": 4072,
      "ĠOh": 4073,
      "Ġlegislation": 4074,
      "Ġwild": 4075,
      "estic": 4076,
      "Ġdream": 4077,
      "ĠMike": 4078,
      "Ġaccused": 4079,
      "outhern": 4080,
      "Ġcamera": 4081,
      "ĠMany": 4082,
      "org": 4083,
      "Ġstick": 4084,
      "Ġthus": 4085,
      "iles": 4086,
      "Ġmale": 4087,
      "Ġneighbor": 4088,
      "60": 4089,
      "Ġunlike": 4090,
      "Ġspecies": 4091,
      "Ġeth": 4092,
      "ĠKe": 4093,
      "Ġshared": 4094,
      "uing": 4095,
      "Ġconstant": 4096,
      "ĠTom": 4097,
      "Ġ2006": 4098,
      "Ġserved": 4099,
      "500": 4100,
      "Ġextremely": 4101,
      "Ġobtain": 4102,
      "Ġillegal": 4103,
      "field": 4104,
      "Ġdocuments": 4105,
      "Ġserve": 4106,
      "Ġ31": 4107,
      "ror": 4108,
      "ĠIslamic": 4109,
      "Ġaudience": 4110,
      "Ġjoin": 4111,
      "ĠVal": 4112,
      "Ġactive": 4113,
      "orthern": 4114,
      "Ġload": 4115,
      "Ġscientists": 4116,
      "Ġlocation": 4117,
      "Ġvictims": 4118,
      "Ġmachine": 4119,
      "Ġwealth": 4120,
      "Ġcontrovers": 4121,
      "Ġbelief": 4122,
      "Re": 4123,
      "Ġchair": 4124,
      "Ġmarijuana": 4125,
      "Ġreduce": 4126,
      "ĠGreat": 4127,
      "Ġnegative": 4128,
      "Ġcommunities": 4129,
      "Ġnine": 4130,
      "Ġreturned": 4131,
      "Ġelectric": 4132,
      "cription": 4133,
      "ĠInstitute": 4134,
      "eth": 4135,
      "Ġtrain": 4136,
      "Ġwind": 4137,
      "part": 4138,
      "Ġdouble": 4139,
      "Ġvictory": 4140,
      "Ġbab": 4141,
      "Ġwinning": 4142,
      "Ġprofessional": 4143,
      "Ġphoto": 4144,
      "Ġframe": 4145,
      "Ġvehicle": 4146,
      "Ġchem": 4147,
      "Ġvill": 4148,
      "ĠSuper": 4149,
      "Ġinternet": 4150,
      "Ġmobile": 4151,
      "Ġran": 4152,
      "iled": 4153,
      "rants": 4154,
      "Ġremark": 4155,
      "Ġstre": 4156,
      "Ġleadership": 4157,
      "iring": 4158,
      "Ġseparate": 4159,
      "Ġhearing": 4160,
      "Ġexisting": 4161,
      "ortunately": 4162,
      "iar": 4163,
      "ĠSanders": 4164,
      "Ġnotice": 4165,
      "etro": 4166,
      "Ġepisode": 4167,
      "Is": 4168,
      "azing": 4169,
      "Ġwatching": 4170,
      "Ġinstance": 4171,
      "Ġpolitic": 4172,
      "Ġnotes": 4173,
      "ĠCanadian": 4174,
      "ĠBay": 4175,
      "Ġice": 4176,
      "aming": 4177,
      "Ġputting": 4178,
      "Ġteach": 4179,
      "Ġimpl": 4180,
      "Ġviews": 4181,
      "urder": 4182,
      "Ġsupporters": 4183,
      "Ġdepartment": 4184,
      "Ġver": 4185,
      "dom": 4186,
      "nov": 4187,
      "usion": 4188,
      "Ġcry": 4189,
      "Tr": 4190,
      "Ġlaunched": 4191,
      "Ġchurch": 4192,
      "Ġcat": 4193,
      "Ġcommittee": 4194,
      "Ġitems": 4195,
      "Ġfaith": 4196,
      "Ġappeal": 4197,
      "ĠUk": 4198,
      "ateg": 4199,
      "Ġdefinitely": 4200,
      "ĠPort": 4201,
      "ĠFound": 4202,
      "ties": 4203,
      "Ġcoverage": 4204,
      "Ġcharged": 4205,
      "level": 4206,
      "bed": 4207,
      "Ġdangerous": 4208,
      "Ġpurpose": 4209,
      "ĠLaw": 4210,
      "cious": 4211,
      "Ġissued": 4212,
      "Ġdrugs": 4213,
      "Ġsolid": 4214,
      "which": 4215,
      "known": 4216,
      "Ġcomfort": 4217,
      "Ġconservative": 4218,
      "Ġcompetition": 4219,
      "etty": 4220,
      "Ġfresh": 4221,
      "ĠYour": 4222,
      "Ġincred": 4223,
      "Ġstated": 4224,
      "Ġburn": 4225,
      "ipe": 4226,
      "itation": 4227,
      "Ġdoubt": 4228,
      "Ġtraffic": 4229,
      "ĠFBI": 4230,
      "Ġbackground": 4231,
      "Ġcore": 4232,
      "cript": 4233,
      "Ġsleep": 4234,
      "Ġsuggested": 4235,
      "ole": 4236,
      "Ġargument": 4237,
      "Ġsites": 4238,
      "Ġstructure": 4239,
      "Ġspoke": 4240,
      "ĠChurch": 4241,
      "Ġresist": 4242,
      "Ġfloor": 4243,
      "Ġdecade": 4244,
      "Ġfat": 4245,
      "Ġbottom": 4246,
      "Ġrepeated": 4247,
      "Ġinitial": 4248,
      "Ġanimals": 4249,
      "Ġcards": 4250,
      "Ġ80": 4251,
      "ĠLike": 4252,
      "racy": 4253,
      "Ġdriving": 4254,
      "Ġdaughter": 4255,
      "21": 4256,
      "Ġentirely": 4257,
      "Ġswit": 4258,
      "Ġclosed": 4259,
      "oul": 4260,
      "ser": 4261,
      "ĠBritain": 4262,
      "Ġworst": 4263,
      "Ġdie": 4264,
      "Ġbur": 4265,
      "ĠSince": 4266,
      "Ġdriver": 4267,
      "Ġradio": 4268,
      "ĠMcC": 4269,
      "ĠAfgh": 4270,
      "Ġdisease": 4271,
      "ĠComp": 4272,
      "Ġtelling": 4273,
      "Ġsmaller": 4274,
      "Ġcru": 4275,
      "Ġscore": 4276,
      "ĠCommun": 4277,
      "Ġdiscovered": 4278,
      "Ġship": 4279,
      "Ġtrend": 4280,
      "ampionship": 4281,
      "Ġlif": 4282,
      "Ġgrand": 4283,
      "Ġprec": 4284,
      "ĠBro": 4285,
      "Ġconcerned": 4286,
      "Ġsurface": 4287,
      "Ġdirection": 4288,
      "uries": 4289,
      "Ġsupported": 4290,
      "Ġrestaur": 4291,
      "ĠCarol": 4292,
      "Ġtask": 4293,
      "arian": 4294,
      "Ġlabor": 4295,
      "Ġfinding": 4296,
      "Ġtools": 4297,
      "do": 4298,
      "Ġbusinesses": 4299,
      "Ġbomb": 4300,
      "Ġblue": 4301,
      "âĢ¢": 4302,
      "Ġaspect": 4303,
      "Ġolder": 4304,
      "Ġplease": 4305,
      "bon": 4306,
      "ĠSun": 4307,
      "sing": 4308,
      "Ġactivities": 4309,
      "Ġrequires": 4310,
      "Ġplays": 4311,
      "ĠLos": 4312,
      "Ġtransport": 4313,
      "Ġstrength": 4314,
      "ĠChris": 4315,
      "80": 4316,
      "Ġrat": 4317,
      "Ġinsurance": 4318,
      "lick": 4319,
      "ivity": 4320,
      "Ġlargely": 4321,
      "Ġ90": 4322,
      "Ġnovel": 4323,
      "Ġcaught": 4324,
      "akistan": 4325,
      "Ġcandidates": 4326,
      "ĠWall": 4327,
      "ĠIsraeli": 4328,
      "irgin": 4329,
      "Ġallowing": 4330,
      "oon": 4331,
      "Ġnor": 4332,
      "Ġsn": 4333,
      "Ġpurs": 4334,
      "Ġmurder": 4335,
      "Ġtesting": 4336,
      "Ġmer": 4337,
      "ĠLiber": 4338,
      "ero": 4339,
      "pri": 4340,
      "Ġraise": 4341,
      "Ġtalent": 4342,
      "Ġexerc": 4343,
      "Ġâ": 4344,
      "Ġdecisions": 4345,
      "ĠHam": 4346,
      "Ġgay": 4347,
      "ĠJones": 4348,
      "Ġfuel": 4349,
      "New": 4350,
      "Ġaccur": 4351,
      "Ġbelieves": 4352,
      "gain": 4353,
      "Ġreact": 4354,
      "ĠUkra": 4355,
      "Ġcompar": 4356,
      "Ġrefer": 4357,
      "Ġtruly": 4358,
      "Ġflag": 4359,
      "vant": 4360,
      "asc": 4361,
      "Ġgrant": 4362,
      "dule": 4363,
      "ĠBank": 4364,
      "Ġjustice": 4365,
      "Ġconstruction": 4366,
      "oses": 4367,
      "overy": 4368,
      "Ġwel": 4369,
      "Ġgeneration": 4370,
      "Ġpresence": 4371,
      "Ġdoz": 4372,
      "Ġdism": 4373,
      "Ġiniti": 4374,
      "Ġafford": 4375,
      "iven": 4376,
      "Ġcommercial": 4377,
      "ĠAfrica": 4378,
      "Ġannual": 4379,
      "Americ": 4380,
      "Ġhus": 4381,
      "ĠRobert": 4382,
      "Ġholding": 4383,
      "sey": 4384,
      "Ġwitness": 4385,
      "ĠIsland": 4386,
      "Ġnorth": 4387,
      "Ġplanning": 4388,
      "Ġestablish": 4389,
      "ctors": 4390,
      "Ġplaced": 4391,
      "Ġrefuge": 4392,
      "Ġtells": 4393,
      "ĠAssociation": 4394,
      "Ġstrateg": 4395,
      "ĠJewish": 4396,
      "Ġspokesman": 4397,
      "ĠAfghan": 4398,
      "Ġlib": 4399,
      "Ġconsequ": 4400,
      "Ġjoined": 4401,
      "Ġcells": 4402,
      "ĠAfrican": 4403,
      "going": 4404,
      "rian": 4405,
      "Ġscale": 4406,
      "Ġinterests": 4407,
      "Ġmentioned": 4408,
      "Ġabuse": 4409,
      "Ġcontext": 4410,
      "Ġhasn": 4411,
      "Ġfalse": 4412,
      "Ġenforcement": 4413,
      "Ġalleg": 4414,
      "ĠAdd": 4415,
      "olic": 4416,
      "Ġintroduced": 4417,
      "Image": 4418,
      "Ġrefere": 4419,
      "Ġguess": 4420,
      "Ġlength": 4421,
      "abor": 4422,
      "Ġshift": 4423,
      "Ġconflict": 4424,
      "ĠDef": 4425,
      "Ġproviding": 4426,
      "Ġwaiting": 4427,
      "Ġmissing": 4428,
      "ĠPM": 4429,
      "Ġexperiment": 4430,
      "ĠRead": 4431,
      "ĠMicrosoft": 4432,
      "Ġunit": 4433,
      "ĠRob": 4434,
      "Ġfarm": 4435,
      "ĠGree": 4436,
      "Ġestablished": 4437,
      "Ġrecommend": 4438,
      "lant": 4439,
      "Ġclick": 4440,
      "ĠAngeles": 4441,
      "Ġcash": 4442,
      "Ġremoved": 4443,
      "igned": 4444,
      "Ġ2005": 4445,
      "ĠInstead": 4446,
      "ĠGOP": 4447,
      "Ġinjury": 4448,
      "Ġamazing": 4449,
      "ĠAP": 4450,
      "Be": 4451,
      "Ġupdate": 4452,
      "Ġdiscussion": 4453,
      "Ġuseful": 4454,
      "Ġoffensive": 4455,
      "atically": 4456,
      "coming": 4457,
      "Ġconversation": 4458,
      "ĠCEO": 4459,
      "Ġsun": 4460,
      "Ġhack": 4461,
      "Ġbanks": 4462,
      "Ġstopped": 4463,
      "Ġbeautif": 4464,
      "ĠDirect": 4465,
      "Ġnewsp": 4466,
      "Ġmeasures": 4467,
      "Ġ194": 4468,
      "Ġmodels": 4469,
      "acc": 4470,
      "orrow": 4471,
      "ĠFox": 4472,
      "umn": 4473,
      "Ġdeliver": 4474,
      "Ġobvious": 4475,
      "inian": 4476,
      "Ġgirls": 4477,
      "ipped": 4478,
      "Ġ2018": 4479,
      "Ġrough": 4480,
      "Ġfourth": 4481,
      "Ġcancer": 4482,
      "Ġoperation": 4483,
      "Ġdownload": 4484,
      "ĠTra": 4485,
      "Ġmanaged": 4486,
      "Ġattend": 4487,
      "More": 4488,
      "Ġfigures": 4489,
      "Ġeditor": 4490,
      "Our": 4491,
      "Ġidentified": 4492,
      "itude": 4493,
      "Ġfinished": 4494,
      "Ġfunds": 4495,
      "Ġeat": 4496,
      "ĠPakistan": 4497,
      "Ġsetting": 4498,
      "Ġbed": 4499,
      "Ġconclud": 4500,
      "Ġcommitted": 4501,
      "ĠMexico": 4502,
      "rial": 4503,
      "Ġtransfer": 4504,
      "istics": 4505,
      "ĠMon": 4506,
      "Ġfocused": 4507,
      "Ġarrived": 4508,
      "Ġhousing": 4509,
      "Ġkeeping": 4510,
      "lege": 4511,
      "Ġtherefore": 4512,
      "Ġhair": 4513,
      "mark": 4514,
      "aud": 4515,
      "ĠFin": 4516,
      "Ġpartner": 4517,
      "Ġfiles": 4518,
      "ossible": 4519,
      "ĠAss": 4520,
      "ĠLouis": 4521,
      "rative": 4522,
      "ript": 4523,
      "iation": 4524,
      "ĠJapanese": 4525,
      "Ġcatch": 4526,
      "Ġrelatively": 4527,
      "ked": 4528,
      "GB": 4529,
      "cknow": 4530,
      "Ġacknow": 4531,
      "upreme": 4532,
      "ĠSupreme": 4533,
      "ĠAre": 4534,
      "Ġtough": 4535,
      "Ġfeels": 4536,
      "Ġidentity": 4537,
      "Ġotherwise": 4538,
      "ĠTHE": 4539,
      "ĠAndroid": 4540,
      "Ġ2000": 4541,
      "inate": 4542,
      "Ġassess": 4543,
      "Ġder": 4544,
      "ĠHall": 4545,
      "ocal": 4546,
      "icip": 4547,
      "ĠBit": 4548,
      "Ġfellow": 4549,
      "Ġspirit": 4550,
      "ĠYes": 4551,
      "ĠGroup": 4552,
      "ĠBel": 4553,
      "Ġowner": 4554,
      "Ġkid": 4555,
      "Ġskills": 4556,
      "Ġveter": 4557,
      "Ġ35": 4558,
      "Ġcateg": 4559,
      "azon": 4560,
      "ribute": 4561,
      "how": 4562,
      "Ġexchange": 4563,
      "ĠBig": 4564,
      "Ġsteps": 4565,
      "Ġslightly": 4566,
      "!âĢĿ": 4567,
      "Ġregist": 4568,
      "ĠArmy": 4569,
      "Ġfell": 4570,
      "Ġconnection": 4571,
      "Ġelements": 4572,
      "ky": 4573,
      "Ġamb": 4574,
      "ĠVirgin": 4575,
      "Ġhusband": 4576,
      "Ġsurvey": 4577,
      "ĠRichard": 4578,
      "Ġstrike": 4579,
      "Ġharm": 4580,
      "Ġdefensive": 4581,
      "Ġhomes": 4582,
      "Ġtweet": 4583,
      "Ġappropri": 4584,
      "ĠRyan": 4585,
      "Ġkilling": 4586,
      "azine": 4587,
      "Ġoccup": 4588,
      "Ġcollection": 4589,
      "ĠGovernment": 4590,
      "Ġboo": 4591,
      "Ġsuggests": 4592,
      "ĠFrank": 4593,
      "uman": 4594,
      "oices": 4595,
      "rol": 4596,
      "ĠAlthough": 4597,
      "iel": 4598,
      "rap": 4599,
      "vil": 4600,
      "pective": 4601,
      "Ġfant": 4602,
      "Ġsports": 4603,
      "Ġchann": 4604,
      "ĠCollege": 4605,
      "onto": 4606,
      "Ġbigger": 4607,
      "Ġgraph": 4608,
      "Ġfailure": 4609,
      "Ġ70": 4610,
      "Ġsupply": 4611,
      "Ġsequ": 4612,
      "Ġsouth": 4613,
      "Ġremind": 4614,
      "Ġstarts": 4615,
      "what": 4616,
      "box": 4617,
      "phone": 4618,
      "ona": 4619,
      "ĠJeff": 4620,
      "ĠDist": 4621,
      "uild": 4622,
      "Ġspeaking": 4623,
      "eah": 4624,
      "oyal": 4625,
      "Ġhappening": 4626,
      "ection": 4627,
      "Ġorganizations": 4628,
      "Ġtalks": 4629,
      "cell": 4630,
      "Ġmental": 4631,
      "Ġarmy": 4632,
      "Ġcook": 4633,
      "Ġtaxes": 4634,
      "Ġgender": 4635,
      "Ġplanned": 4636,
      "Ġprefer": 4637,
      "anging": 4638,
      "ĠDis": 4639,
      "Photo": 4640,
      "Ġtrip": 4641,
      "Ġdecide": 4642,
      "Ġcarried": 4643,
      "Why": 4644,
      "ĠJoe": 4645,
      "Ġhate": 4646,
      "Ġfigh": 4647,
      "dden": 4648,
      "Ġsudden": 4649,
      "acity": 4650,
      "ario": 4651,
      "Ġtrail": 4652,
      "Ġplanet": 4653,
      "Ġcove": 4654,
      "Ġsuit": 4655,
      "Ġhelping": 4656,
      "Ġthanks": 4657,
      "ĠMe": 4658,
      "Ġstandards": 4659,
      "ĠJim": 4660,
      "Ġdomestic": 4661,
      "ford": 4662,
      "Ġcommission": 4663,
      "Ġprotection": 4664,
      "ĠMartin": 4665,
      "season": 4666,
      "Ġnone": 4667,
      "but": 4668,
      "Ġaward": 4669,
      "Ġseconds": 4670,
      "Ġguard": 4671,
      "Ġimmigration": 4672,
      "Ġstanding": 4673,
      "Ġscientific": 4674,
      "gen": 4675,
      "Ġexclus": 4676,
      "Ġearth": 4677,
      "Ġhol": 4678,
      "ĠThomas": 4679,
      "Ġphotos": 4680,
      "27": 4681,
      "ios": 4682,
      "Ġtransform": 4683,
      "ĠQue": 4684,
      "works": 4685,
      "ĠResearch": 4686,
      "ĠAlso": 4687,
      "ĠSecretary": 4688,
      "Ġsides": 4689,
      "Ġbeer": 4690,
      "Ġphil": 4691,
      "Ġvariety": 4692,
      "ĠTheir": 4693,
      "Ġfamiliar": 4694,
      "Ġdropped": 4695,
      "Ġaccounts": 4696,
      "hlet": 4697,
      "Ġ32": 4698,
      "arant": 4699,
      "pre": 4700,
      "Ġfiled": 4701,
      "Ġmarkets": 4702,
      "Ġwindow": 4703,
      "Ġtransl": 4704,
      "Ġvolunt": 4705,
      "Ġimpossible": 4706,
      "Ġearn": 4707,
      "Ġbalance": 4708,
      "pan": 4709,
      "Ġneighborhood": 4710,
      "Ġrac": 4711,
      "Ġdegree": 4712,
      "Ġturns": 4713,
      "Ġterrit": 4714,
      "ĠMiss": 4715,
      "Ġweak": 4716,
      "Ġpossibly": 4717,
      "night": 4718,
      "ĠReg": 4719,
      "Ġoperating": 4720,
      "Ġcorner": 4721,
      "ears": 4722,
      "oston": 4723,
      "lin": 4724,
      "Ġvotes": 4725,
      "Trump": 4726,
      "ĠBre": 4727,
      "Ġincreasingly": 4728,
      "Last": 4729,
      "osure": 4730,
      "vere": 4731,
      "Ġprofessor": 4732,
      "odes": 4733,
      "Ġcuts": 4734,
      "Ġdevelopers": 4735,
      "Ġhonest": 4736,
      "Ġapparently": 4737,
      "Ġmax": 4738,
      "issions": 4739,
      "ĠSyrian": 4740,
      "Ġlived": 4741,
      "Ġchanging": 4742,
      "Ġapply": 4743,
      "ĠNA": 4744,
      "ĠCarolina": 4745,
      "ĠAtlant": 4746,
      "Ġunits": 4747,
      "Ġtests": 4748,
      "ource": 4749,
      "Ġscript": 4750,
      "Ġhumans": 4751,
      "ĠService": 4752,
      "ĠFoundation": 4753,
      "Ġded": 4754,
      "onym": 4755,
      "Ġagencies": 4756,
      "icy": 4757,
      "ocracy": 4758,
      "Ġsounds": 4759,
      "ĠTwo": 4760,
      "Ġappoint": 4761,
      "Ġcrew": 4762,
      "Ġmedic": 4763,
      "ĠTeam": 4764,
      "Ġtwice": 4765,
      "Ġultimately": 4766,
      "asy": 4767,
      "Ġauthority": 4768,
      "Ġlosing": 4769,
      "Ġsoldiers": 4770,
      "mail": 4771,
      "inct": 4772,
      "Ġserver": 4773,
      "ĠImages": 4774,
      "Ġcorporate": 4775,
      "Ġhealthy": 4776,
      "Ġpaying": 4777,
      "Ġabsolutely": 4778,
      "Ġdepend": 4779,
      "stitution": 4780,
      "Ġisland": 4781,
      "iance": 4782,
      "Ġworry": 4783,
      "Ġdeveloping": 4784,
      "ĠPrime": 4785,
      "Ġcloser": 4786,
      "vention": 4787,
      "Ġaggress": 4788,
      "Ġsea": 4789,
      "Ġwish": 4790,
      "Ġpair": 4791,
      "âĢĺ": 4792,
      "point": 4793,
      "Ġregarding": 4794,
      "Ġseeking": 4795,
      "enses": 4796,
      "Ġbatter": 4797,
      "Ġenvironmental": 4798,
      "Ġinteract": 4799,
      "ĠGame": 4800,
      "Ġpossibility": 4801,
      "cient": 4802,
      "Ġbeautiful": 4803,
      "ĠLib": 4804,
      "Ġexperts": 4805,
      "gypt": 4806,
      "Ġyards": 4807,
      "Ġacad": 4808,
      "Ġanimal": 4809,
      "ĠBer": 4810,
      "odies": 4811,
      "ĠKen": 4812,
      "Ġapart": 4813,
      "rastructure": 4814,
      "ĠArt": 4815,
      "ĠQu": 4816,
      "Ġreligion": 4817,
      "Ġexpensive": 4818,
      "adium": 4819,
      "Ġwriter": 4820,
      "ĠMad": 4821,
      "Ġsolar": 4822,
      "stain": 4823,
      "Ġsustain": 4824,
      "Ġalternative": 4825,
      "ĠMod": 4826,
      "uters": 4827,
      "Ġequip": 4828,
      "Ġimagine": 4829,
      "Ġstruct": 4830,
      "Ġathlet": 4831,
      "ĠAnt": 4832,
      "ĠMary": 4833,
      "Ġapplications": 4834,
      "Ġgradu": 4835,
      "ĠFrancisco": 4836,
      "ĠCentral": 4837,
      "Ġsitting": 4838,
      "Ġflight": 4839,
      "Ġunless": 4840,
      "Ġmig": 4841,
      "ĠToronto": 4842,
      "hedul": 4843,
      "Ġschedul": 4844,
      "ception": 4845,
      "Ġ2004": 4846,
      "ĠDistrict": 4847,
      "ager": 4848,
      "Ġresponsibility": 4849,
      "Ġspl": 4850,
      "Ġcapacity": 4851,
      "aked": 4852,
      "ront": 4853,
      "agues": 4854,
      "NN": 4855,
      "Ġvast": 4856,
      "].": 4857,
      "udd": 4858,
      "ĠMP": 4859,
      "Ġ195": 4860,
      "Ġchain": 4861,
      "Ġcovered": 4862,
      "Ġrich": 4863,
      "Ġarms": 4864,
      "ĠChe": 4865,
      "Ġcold": 4866,
      "\":": 4867,
      "Ġfamous": 4868,
      "Ġfle": 4869,
      "ica": 4870,
      "rency": 4871,
      "Ġforms": 4872,
      "Ġroll": 4873,
      "Ġuniversity": 4874,
      "Ġvision": 4875,
      "Ġerror": 4876,
      "ĠJose": 4877,
      "board": 4878,
      "Ġvul": 4879,
      "Ġpresented": 4880,
      "Even": 4881,
      "Ġphilos": 4882,
      "Ġunivers": 4883,
      "Ġsurprise": 4884,
      "Ġattorney": 4885,
      "ĠStep": 4886,
      "icated": 4887,
      "Ġelections": 4888,
      "Ġestimated": 4889,
      "ĠTime": 4890,
      "Ġhom": 4891,
      "From": 4892,
      "ĠLast": 4893,
      "Ġdeploy": 4894,
      "riend": 4895,
      "Ġrevolution": 4896,
      "Ġbul": 4897,
      "32": 4898,
      "Ġvehicles": 4899,
      "Ġfundament": 4900,
      "Ġintended": 4901,
      "eal": 4902,
      "ĠAM": 4903,
      "ĠMil": 4904,
      "ipp": 4905,
      "Ġhelps": 4906,
      "Ġoccurred": 4907,
      "ĠPeter": 4908,
      "Ġque": 4909,
      "net": 4910,
      "ulf": 4911,
      "Ġtack": 4912,
      "Ġ=>": 4913,
      "Ġelim": 4914,
      "Ġdetermine": 4915,
      "Ġdat": 4916,
      "ado": 4917,
      "26": 4918,
      "illed": 4919,
      "ĠEgypt": 4920,
      "bl": 4921,
      "Ġguarant": 4922,
      "cks": 4923,
      "Ġinnov": 4924,
      "urer": 4925,
      "Ġadjust": 4926,
      "Ġfired": 4927,
      "Ġtim": 4928,
      "ĠHoll": 4929,
      "ĠBoston": 4930,
      "Ġlisten": 4931,
      "Ġstreets": 4932,
      "nel": 4933,
      "Ġtroops": 4934,
      "equ": 4935,
      "ĠTre": 4936,
      "Ġbroken": 4937,
      "ĠThose": 4938,
      "Ġskin": 4939,
      "Ġpieces": 4940,
      "icted": 4941,
      "Ġprepared": 4942,
      "Ġmulti": 4943,
      "Ġrecru": 4944,
      "oted": 4945,
      "ĠChief": 4946,
      "Ġlocated": 4947,
      "Ġsan": 4948,
      "ndom": 4949,
      "ansion": 4950,
      "terday": 4951,
      "ĠDN": 4952,
      "Ġbringing": 4953,
      "ĠBitcoin": 4954,
      "with": 4955,
      "Ġconvention": 4956,
      "avy": 4957,
      "Ġspecifically": 4958,
      "Ġpotentially": 4959,
      "Ġprove": 4960,
      "ĠAmazon": 4961,
      "Ġselling": 4962,
      "Ġgovernments": 4963,
      "ĠOnce": 4964,
      "eanwhile": 4965,
      "Ġteen": 4966,
      "ucky": 4967,
      "erous": 4968,
      "Ġinstit": 4969,
      "Ġfaster": 4970,
      "pm": 4971,
      "Ġinternal": 4972,
      "Ġrapid": 4973,
      "resp": 4974,
      "ĠPC": 4975,
      "iverse": 4976,
      "Ġproposal": 4977,
      "Ġfactors": 4978,
      "ĠSam": 4979,
      "Ġplenty": 4980,
      "Ġequipment": 4981,
      "min": 4982,
      "icide": 4983,
      "Ġsector": 4984,
      "ĠJud": 4985,
      "Ġera": 4986,
      "Ġinfrastructure": 4987,
      "win": 4988,
      "ĠProf": 4989,
      "35": 4990,
      "Ġuns": 4991,
      "prof": 4992,
      "Ġexpert": 4993,
      "iling": 4994,
      "Ġbaby": 4995,
      "Ġang": 4996,
      "ĠRock": 4997,
      "ĠVirginia": 4998,
      "Ġtast": 4999,
      "Ġconsult": 5000,
      "Ġbag": 5001,
      "Ġvoted": 5002,
      "Ġoffering": 5003,
      "Ġexpressed": 5004,
      "Ġbroke": 5005,
      "Just": 5006,
      "Ġruling": 5007,
      "Ġrefused": 5008,
      "IA": 5009,
      "Ġelected": 5010,
      "Ġvulner": 5011,
      "ĠAut": 5012,
      "ĠRec": 5013,
      "ĠInc": 5014,
      "Ġseasons": 5015,
      "Ġconducted": 5016,
      "roll": 5017,
      "ĠSocial": 5018,
      "Ġsecure": 5019,
      "Ġchallenges": 5020,
      "izing": 5021,
      "Ġjail": 5022,
      "aces": 5023,
      "Ġmethods": 5024,
      "Ġtight": 5025,
      "ocol": 5026,
      "Ġremained": 5027,
      "29": 5028,
      "ĠAustralian": 5029,
      "Ġshall": 5030,
      "Ġpositions": 5031,
      "ĠOver": 5032,
      "Ġheat": 5033,
      "!\"": 5034,
      "Ġappre": 5035,
      "Ġcircum": 5036,
      "ĠPlease": 5037,
      "ronic": 5038,
      "endment": 5039,
      "Ġremove": 5040,
      "ĠUSA": 5041,
      "Ġ45": 5042,
      "ĠFore": 5043,
      "Ġsignificantly": 5044,
      "Ġadvis": 5045,
      "ĠPublic": 5046,
      "Ġweren": 5047,
      "pen": 5048,
      "Ġoriginally": 5049,
      "Ġcultural": 5050,
      "ading": 5051,
      "ĠDuring": 5052,
      "ĠJes": 5053,
      "Ġaffected": 5054,
      "Ġappearance": 5055,
      "Ġir": 5056,
      "Ġsale": 5057,
      "Ġrare": 5058,
      "Ġfacing": 5059,
      "Ġgreatest": 5060,
      "Ġconclus": 5061,
      "Read": 5062,
      "ĠMiddle": 5063,
      "itect": 5064,
      "Ġunion": 5065,
      "Ġstress": 5066,
      "fficient": 5067,
      "Ġfinish": 5068,
      "Ġspect": 5069,
      "Ġpercentage": 5070,
      "icon": 5071,
      "Ġsigns": 5072,
      "owl": 5073,
      "Ġyouth": 5074,
      "BA": 5075,
      "Ġretail": 5076,
      "Ġprime": 5077,
      "Ġbought": 5078,
      "Ġprosecut": 5079,
      "Ġchemical": 5080,
      "ĠJournal": 5081,
      "Ġregime": 5082,
      "Ġinvolve": 5083,
      "makers": 5084,
      "Ġdetermined": 5085,
      "ĠPri": 5086,
      "Ġschem": 5087,
      "chol": 5088,
      "Ġgrew": 5089,
      "Ġclin": 5090,
      "ĠGuard": 5091,
      "gment": 5092,
      "Ġtourn": 5093,
      "emic": 5094,
      "Ġremaining": 5095,
      "ĠSteve": 5096,
      "Ġstars": 5097,
      "Ġindeed": 5098,
      "Ġrandom": 5099,
      "ĠCath": 5100,
      "Ġshape": 5101,
      "range": 5102,
      "Ġherself": 5103,
      "Ġvoting": 5104,
      "Ġpointed": 5105,
      "Ġmode": 5106,
      "Ġcomplic": 5107,
      "aks": 5108,
      "Ġobviously": 5109,
      "ĠCap": 5110,
      "Ġlock": 5111,
      "Ġodd": 5112,
      "Let": 5113,
      "Ġreduced": 5114,
      "coh": 5115,
      "**": 5116,
      "Ġrecorded": 5117,
      "Ġargued": 5118,
      "Ġ500": 5119,
      "Ġrevenue": 5120,
      "Ġ1990": 5121,
      "useum": 5122,
      "ĠLee": 5123,
      "Ġreci": 5124,
      "Every": 5125,
      "Ġwearing": 5126,
      "Ġleads": 5127,
      "Ġexplo": 5128,
      "that": 5129,
      "Ġpoliticians": 5130,
      "rible": 5131,
      "ĠForce": 5132,
      "ĠLeg": 5133,
      "Ġpurchase": 5134,
      "ĠFederal": 5135,
      "Ġweapon": 5136,
      "Ġcombat": 5137,
      "ulated": 5138,
      "Ġcontrast": 5139,
      "Ġtransition": 5140,
      "Ġexperienced": 5141,
      "Ġdram": 5142,
      "Ġhttps": 5143,
      "Ġvideos": 5144,
      "Ġsupporting": 5145,
      "ady": 5146,
      "porary": 5147,
      "Ġminimum": 5148,
      "ĠPhoto": 5149,
      "ĠPut": 5150,
      "Ġsurprising": 5151,
      "Ġcouncil": 5152,
      "ĠParis": 5153,
      "urb": 5154,
      "Ġplus": 5155,
      "Ġidentify": 5156,
      "Ġconsumers": 5157,
      "Ġfol": 5158,
      "Ġconsidering": 5159,
      "Ġdin": 5160,
      "ĠMill": 5161,
      "Ġclim": 5162,
      "Ġagent": 5163,
      "inent": 5164,
      "Ġtrig": 5165,
      "erry": 5166,
      "Ġbelong": 5167,
      "Ġpulled": 5168,
      "Ġdifferences": 5169,
      "ĠWilliams": 5170,
      "Ġbasically": 5171,
      "ĠBoth": 5172,
      "Ġaid": 5173,
      "noon": 5174,
      "Ġafternoon": 5175,
      "Ġminute": 5176,
      "Un": 5177,
      "Ġbrow": 5178,
      "Ġinn": 5179,
      "ortion": 5180,
      "stream": 5181,
      "Ġturning": 5182,
      "ĠPlan": 5183,
      "Ġends": 5184,
      "Ġoptim": 5185,
      "obby": 5186,
      "igan": 5187,
      "Ġfilms": 5188,
      "rees": 5189,
      "ram": 5190,
      "Ġinsist": 5191,
      "Ġpil": 5192,
      "Ġimpress": 5193,
      "Since": 5194,
      "Ġtreated": 5195,
      "Ġrid": 5196,
      "wing": 5197,
      "Of": 5198,
      "Ġaircraft": 5199,
      "idden": 5200,
      "Ġseriously": 5201,
      "Ġcombined": 5202,
      "oman": 5203,
      "Ġprivacy": 5204,
      "Ġopportunities": 5205,
      "Ġevening": 5206,
      "ĠMars": 5207,
      "Ġstruggle": 5208,
      "de": 5209,
      "ma": 5210,
      "ingly": 5211,
      "Ġrent": 5212,
      "Ġlots": 5213,
      "Ġcompleted": 5214,
      "ynam": 5215,
      "Ġtalked": 5216,
      "ĠJon": 5217,
      "Ġhopes": 5218,
      "Ġpassing": 5219,
      "rd": 5220,
      "Ġapps": 5221,
      "First": 5222,
      "Ġcarbon": 5223,
      "ords": 5224,
      ",'": 5225,
      "Ġstret": 5226,
      "Ġwidely": 5227,
      "ĠSaud": 5228,
      "Ġemergency": 5229,
      "ĠiPh": 5230,
      "Ġaccident": 5231,
      "Ġenemy": 5232,
      "adow": 5233,
      "28": 5234,
      "Ġproced": 5235,
      "orage": 5236,
      "related": 5237,
      "Another": 5238,
      "inger": 5239,
      "Ġboost": 5240,
      "ests": 5241,
      "Ġhurt": 5242,
      "Ġexcited": 5243,
      "Ġexplos": 5244,
      "Ġplants": 5245,
      "Ġopposed": 5246,
      "wers": 5247,
      "ĠWho": 5248,
      "Ġswitch": 5249,
      "rick": 5250,
      "Ġproceed": 5251,
      "His": 5252,
      "Ġ2003": 5253,
      "Ġadvance": 5254,
      "Ġpowers": 5255,
      "Ġattempts": 5256,
      "ĠBBC": 5257,
      "Ġdistance": 5258,
      "Ġdepart": 5259,
      "ĠNor": 5260,
      "ĠColor": 5261,
      "oper": 5262,
      "ĠMat": 5263,
      "ologies": 5264,
      "Ġhandle": 5265,
      "Ġreporters": 5266,
      "ĠLa": 5267,
      "Ġzone": 5268,
      "Ġelement": 5269,
      "Ġadapt": 5270,
      "look": 5271,
      "Ġsumm": 5272,
      "Ġwrites": 5273,
      "Ġglass": 5274,
      "Ġtypically": 5275,
      "kins": 5276,
      "ureau": 5277,
      "Ġfactor": 5278,
      "ĠJackson": 5279,
      "Ġpages": 5280,
      "ĠToday": 5281,
      "riz": 5282,
      "ĠDaily": 5283,
      "Ġbodies": 5284,
      "Ġreference": 5285,
      "lig": 5286,
      "hens": 5287,
      "Ġclot": 5288,
      "Ġmatters": 5289,
      "ander": 5290,
      "Ġpackage": 5291,
      "Ġshock": 5292,
      "Ġseat": 5293,
      "ĠAtt": 5294,
      "Ġdenied": 5295,
      "vest": 5296,
      "Ġcalcul": 5297,
      "Ġmotiv": 5298,
      "ava": 5299,
      "ĠWeb": 5300,
      "ĠRiver": 5301,
      "Ġprospect": 5302,
      "Ġresponded": 5303,
      "Ġapproved": 5304,
      "Ġreaction": 5305,
      "Ġconcent": 5306,
      "roud": 5307,
      "ĠTurkey": 5308,
      "Ġupgr": 5309,
      "Ġbatt": 5310,
      "ĠTrans": 5311,
      "Ġinstitutions": 5312,
      "Ġappreci": 5313,
      "Ġstands": 5314,
      "Ġtruck": 5315,
      "edd": 5316,
      "Ġsets": 5317,
      "ĠDirector": 5318,
      "atures": 5319,
      "ĠAny": 5320,
      "osh": 5321,
      "ĠSil": 5322,
      "Ġconstitution": 5323,
      "apers": 5324,
      "Ġcolumn": 5325,
      "ashion": 5326,
      "ĠCharl": 5327,
      "Ġtrouble": 5328,
      "Ġequal": 5329,
      "Ġcapable": 5330,
      "Ġ2001": 5331,
      "Ġdismiss": 5332,
      "mas": 5333,
      "Ġloved": 5334,
      "aint": 5335,
      "Ġtact": 5336,
      "ruption": 5337,
      "Ġgiant": 5338,
      ",[": 5339,
      "ĠNH": 5340,
      "Ġconfidence": 5341,
      "bur": 5342,
      "Ġnumerous": 5343,
      "Ġreportedly": 5344,
      "Ġdiscl": 5345,
      "isf": 5346,
      "ha": 5347,
      "Ġfaces": 5348,
      "Ġprompt": 5349,
      "Ġbroadcast": 5350,
      "ĠAfghanistan": 5351,
      "Ġcollabor": 5352,
      "Ġcopyright": 5353,
      "Ġmaster": 5354,
      "Ġperspective": 5355,
      "Ġsad": 5356,
      "Ġunable": 5357,
      "Ġsho": 5358,
      "Ġconfident": 5359,
      "Ġsuffered": 5360,
      "olf": 5361,
      "real": 5362,
      "ĠOhio": 5363,
      "dra": 5364,
      "Do": 5365,
      "Ġalcoh": 5366,
      "Ġexperiences": 5367,
      "apter": 5368,
      "ĠLabour": 5369,
      "alu": 5370,
      "Ġadvice": 5371,
      "Ġroute": 5372,
      "Ġdeclared": 5373,
      "Ġviolent": 5374,
      "Ġemp": 5375,
      "Ġordered": 5376,
      "Ġcrimes": 5377,
      "ĠConserv": 5378,
      "Ġreporting": 5379,
      "ĠAndrew": 5380,
      "Ġmessages": 5381,
      "idel": 5382,
      "Ġinstruct": 5383,
      "Ġpanel": 5384,
      "Ġfindings": 5385,
      "=\"": 5386,
      "Ġrenew": 5387,
      "Ġdeclined": 5388,
      "Ġcoord": 5389,
      "Ġexplains": 5390,
      "Ġspring": 5391,
      "unk": 5392,
      "ĠDen": 5393,
      "Ġalt": 5394,
      "ulate": 5395,
      "Ġshouldn": 5396,
      "ifying": 5397,
      "Ġgar": 5398,
      "Ġnewspaper": 5399,
      "ania": 5400,
      "Ġquiet": 5401,
      "wood": 5402,
      "Ġdelay": 5403,
      "Ġongoing": 5404,
      "Ġcaption": 5405,
      "Ġmovies": 5406,
      "Ġpicked": 5407,
      "eria": 5408,
      "Ġprofit": 5409,
      "Ġadmitted": 5410,
      "estival": 5411,
      "ivered": 5412,
      "Ġdelivered": 5413,
      "eper": 5414,
      "Ġpitch": 5415,
      "state": 5416,
      "Ġphotograph": 5417,
      "During": 5418,
      "Ġvir": 5419,
      "ĠBern": 5420,
      "01": 5421,
      "FC": 5422,
      "Ġwalking": 5423,
      "Ġdisappoint": 5424,
      "Ġagents": 5425,
      "Ġthoughts": 5426,
      "Well": 5427,
      "Ġmarried": 5428,
      "rig": 5429,
      "Ġemails": 5430,
      "Ġappropriate": 5431,
      "Ġbound": 5432,
      "Ġliberal": 5433,
      "Ġproud": 5434,
      "ĠYet": 5435,
      "Ġconnected": 5436,
      "Ġleaves": 5437,
      "Ġtechnical": 5438,
      "Ġexcell": 5439,
      "Ġupdates": 5440,
      "Ġgather": 5441,
      "ĠMuslims": 5442,
      "Ġsymb": 5443,
      "phas": 5444,
      "Ġresol": 5445,
      "aling": 5446,
      "called": 5447,
      "place": 5448,
      "Ġbreat": 5449,
      "Ġdefault": 5450,
      "ĠSpace": 5451,
      "Ġinjured": 5452,
      "ĠWil": 5453,
      "Ġpublicly": 5454,
      "Ġstatements": 5455,
      "ĠTim": 5456,
      "Ġfrust": 5457,
      "bert": 5458,
      "Ġconstruct": 5459,
      "Ġourselves": 5460,
      "ĠMag": 5461,
      "Ġdrivers": 5462,
      "Ġrealize": 5463,
      "Ġton": 5464,
      "Ġsession": 5465,
      "Ġedge": 5466,
      "Ġarmed": 5467,
      "ĠProject": 5468,
      "Ġquarterback": 5469,
      "cean": 5470,
      "Ġreaders": 5471,
      "ĠScience": 5472,
      "ĠShow": 5473,
      "ĠSystem": 5474,
      "spe": 5475,
      "lymp": 5476,
      "ĠOlymp": 5477,
      "ups": 5478,
      "Ġweather": 5479,
      "Ġblow": 5480,
      "pret": 5481,
      "reland": 5482,
      "Ġfilled": 5483,
      "abilities": 5484,
      "Ġlawyer": 5485,
      "ĠMatt": 5486,
      "Ġallegations": 5487,
      "Ġactivists": 5488,
      "ĠCamp": 5489,
      "standing": 5490,
      "Ġcontains": 5491,
      "mosp": 5492,
      "ĠDel": 5493,
      "Ġargue": 5494,
      "ĠChristmas": 5495,
      "Ġpictures": 5496,
      "Ġ1980": 5497,
      "Ġarchitect": 5498,
      "ĠMichigan": 5499,
      "Ġbuildings": 5500,
      "Other": 5501,
      "Ġforget": 5502,
      "oms": 5503,
      "Ġcloud": 5504,
      "Ġcircumst": 5505,
      "aren": 5506,
      "Ġexercise": 5507,
      "Ġadvert": 5508,
      "rage": 5509,
      "Ġeffectively": 5510,
      "Ġpray": 5511,
      "Ġpractices": 5512,
      "()": 5513,
      "ĠFollow": 5514,
      "Ġterrorist": 5515,
      "cket": 5516,
      "orial": 5517,
      "90": 5518,
      "ST": 5519,
      "ownt": 5520,
      "Ġexamples": 5521,
      "Ġcriticism": 5522,
      "Ġdebut": 5523,
      "zz": 5524,
      "Ġsubsequ": 5525,
      "ĠSov": 5526,
      "Ġlabel": 5527,
      "Ġpatient": 5528,
      "Ġobjects": 5529,
      "Ġsecretary": 5530,
      "Ġmissed": 5531,
      "Ġcauses": 5532,
      "ĠMont": 5533,
      "Many": 5534,
      "ĠMass": 5535,
      ",âĢĻ": 5536,
      "Ġthank": 5537,
      "Ġcoast": 5538,
      "Ġessentially": 5539,
      "Ġfif": 5540,
      "ĠLat": 5541,
      "Ġtrick": 5542,
      "ĠWin": 5543,
      "45": 5544,
      "ĠHome": 5545,
      "ĠUkraine": 5546,
      "Ġvisual": 5547,
      "ĠGood": 5548,
      "Ġdiag": 5549,
      "ĠSeattle": 5550,
      "Ġinjuries": 5551,
      "ĠRoad": 5552,
      "Ġdiscrim": 5553,
      "Ġthinks": 5554,
      "life": 5555,
      "Ġcas": 5556,
      "ĠiPhone": 5557,
      "person": 5558,
      "Ġguns": 5559,
      "ĠPenn": 5560,
      "ansas": 5561,
      "Tube": 5562,
      "Ġperman": 5563,
      "Ġtree": 5564,
      "Ġentertain": 5565,
      "ship": 5566,
      "ĠPac": 5567,
      "ĠSaudi": 5568,
      "Ġ//": 5569,
      "Although": 5570,
      "esters": 5571,
      "Ġconfirm": 5572,
      "Ġrail": 5573,
      "Ġmaterials": 5574,
      "Ġfacts": 5575,
      "Ġperformed": 5576,
      "Ġdesire": 5577,
      "ĠBook": 5578,
      "Ġinitially": 5579,
      "ĠMedia": 5580,
      "Ġbull": 5581,
      "Ġnecessarily": 5582,
      "Ġsem": 5583,
      "Ġpool": 5584,
      "ĠFire": 5585,
      "Ġscheduled": 5586,
      "Ġwarned": 5587,
      "Ġlinked": 5588,
      "Ġpra": 5589,
      "Ġadvanced": 5590,
      "Ġstorm": 5591,
      "sen": 5592,
      "Ġtun": 5593,
      "Ġeverybody": 5594,
      "Ġcoff": 5595,
      "Ġresolution": 5596,
      "Ġincreases": 5597,
      "me": 5598,
      "Ġaccepted": 5599,
      "osen": 5600,
      "Ġexplan": 5601,
      "evin": 5602,
      "hedule": 5603,
      "ĠMos": 5604,
      "Ġannouncement": 5605,
      "Ġfollows": 5606,
      "Ġnations": 5607,
      "hors": 5608,
      "Ġmyster": 5609,
      "Ġplayoff": 5610,
      "zil": 5611,
      "uke": 5612,
      "astern": 5613,
      "uration": 5614,
      "Ġneither": 5615,
      "Ġjoint": 5616,
      "ĠMac": 5617,
      "Ġvalid": 5618,
      "Ġyesterday": 5619,
      "urrent": 5620,
      "oore": 5621,
      "Ġnearby": 5622,
      "ĠSant": 5623,
      "ĠUN": 5624,
      "33": 5625,
      "Ġfaced": 5626,
      "nergy": 5627,
      "Follow": 5628,
      "Ġapplied": 5629,
      "Ġpassen": 5630,
      "Ġcentre": 5631,
      "Ġconsequences": 5632,
      "Ġmagazine": 5633,
      "Ġorganis": 5634,
      "Ġlisted": 5635,
      "Up": 5636,
      "ributed": 5637,
      "Ġsurprised": 5638,
      "Ġoffense": 5639,
      "andon": 5640,
      "Ġabandon": 5641,
      "ouston": 5642,
      "essor": 5643,
      "Ġcreation": 5644,
      "essions": 5645,
      "Ġbegins": 5646,
      "Ġsubstant": 5647,
      "Ġthreats": 5648,
      "Ġapprox": 5649,
      "Ġrepresents": 5650,
      "Ġdatab": 5651,
      "Ġdistribution": 5652,
      "Ġgovernor": 5653,
      "Ġ36": 5654,
      "Ġsongs": 5655,
      "ĠJews": 5656,
      "Yes": 5657,
      "Ġdoctor": 5658,
      "Ġadds": 5659,
      "Ġimproved": 5660,
      "Ġartist": 5661,
      "Ġmand": 5662,
      "lor": 5663,
      "Ġbehavi": 5664,
      "Ġride": 5665,
      "Ġwear": 5666,
      "ampion": 5667,
      "Ġshots": 5668,
      "Ġemphas": 5669,
      "Ġstood": 5670,
      "Ġquant": 5671,
      "Ġbrings": 5672,
      "Ġpushed": 5673,
      "ilty": 5674,
      "Ġguilty": 5675,
      "plom": 5676,
      "Ġdiplom": 5677,
      "ĠSee": 5678,
      "illing": 5679,
      "ancy": 5680,
      "Ġmoves": 5681,
      "inating": 5682,
      "Ġboys": 5683,
      "ĠRub": 5684,
      "ĠGet": 5685,
      "Ġtech": 5686,
      "ĠCru": 5687,
      "Ġlawsuit": 5688,
      "Ġanalyst": 5689,
      "Oh": 5690,
      "Ġreceiving": 5691,
      "ĠRomney": 5692,
      "Ġmort": 5693,
      "ĠIreland": 5694,
      "Ġmoral": 5695,
      "Ġincor": 5696,
      "gar": 5697,
      "Ġtotally": 5698,
      "Ġdiscussed": 5699,
      "Ġexpansion": 5700,
      "Ġfish": 5701,
      "Ġsought": 5702,
      "Ġrising": 5703,
      "Ġentered": 5704,
      "ĠBarack": 5705,
      "Ġforg": 5706,
      "anda": 5707,
      "ĠISIS": 5708,
      "ĠNBA": 5709,
      "Ġrestaurant": 5710,
      "ĠFree": 5711,
      "Ġconsistent": 5712,
      "Ġhistorical": 5713,
      "arters": 5714,
      "Ġdemocracy": 5715,
      "ĠOnly": 5716,
      "Ġstorage": 5717,
      "Ġcombination": 5718,
      "Ġplane": 5719,
      "Ġscored": 5720,
      "70": 5721,
      "Then": 5722,
      "twitter": 5723,
      "Ġevalu": 5724,
      "cceed": 5725,
      "Ġsucceed": 5726,
      "Ġoutput": 5727,
      "Ġinvestors": 5728,
      "Ġ2002": 5729,
      "Ġarticles": 5730,
      "Ġcreative": 5731,
      "American": 5732,
      "ĠCNN": 5733,
      "Ġdeaths": 5734,
      "ications": 5735,
      "Ġagend": 5736,
      "Ġclasses": 5737,
      "Ġunlikely": 5738,
      "Ġfunctions": 5739,
      "Ġnetworks": 5740,
      "Ġhighlight": 5741,
      "Ġclient": 5742,
      "Ġdecre": 5743,
      "Ġinterpret": 5744,
      "ĠSpr": 5745,
      "Ġphilosoph": 5746,
      "Ġenh": 5747,
      "Ġroughly": 5748,
      "Ġsquare": 5749,
      "free": 5750,
      "Ġali": 5751,
      "Ġatmosp": 5752,
      "Ġge": 5753,
      "ionally": 5754,
      "Ġheavily": 5755,
      "illance": 5756,
      "Ġfairly": 5757,
      "Ġwood": 5758,
      "ĠFed": 5759,
      "oung": 5760,
      "Ġexistence": 5761,
      "ĠAnother": 5762,
      "Ġentry": 5763,
      "ĠMaybe": 5764,
      "Ġtemperature": 5765,
      "ĠUnder": 5766,
      "ĠLake": 5767,
      "ĠNov": 5768,
      "aded": 5769,
      "Ġtargets": 5770,
      "Ġfranch": 5771,
      "Most": 5772,
      "ĠSecond": 5773,
      "Ġresident": 5774,
      "Ġalcohol": 5775,
      "Ġyounger": 5776,
      "que": 5777,
      "ĠKorean": 5778,
      "Ġcolleagues": 5779,
      "Ġsatisf": 5780,
      "ket": 5781,
      "Ġcraft": 5782,
      "ĠAsia": 5783,
      "formation": 5784,
      "Ġprotests": 5785,
      "Ġanywhere": 5786,
      "Ġlibrary": 5787,
      "pay": 5788,
      "],": 5789,
      "Ġ300": 5790,
      "Ġbreaking": 5791,
      "ĠFC": 5792,
      "road": 5793,
      "Ġstores": 5794,
      "date": 5795,
      "Ġlegit": 5796,
      "Ġfly": 5797,
      "Ġimportance": 5798,
      "ours": 5799,
      "BS": 5800,
      "Ġwarning": 5801,
      "Ġbuying": 5802,
      "Ġrally": 5803,
      "Ġdefined": 5804,
      "Ġinput": 5805,
      "Ġcann": 5806,
      "ourney": 5807,
      "Ġgrab": 5808,
      "Ġadults": 5809,
      "ĠWeek": 5810,
      "ĠIts": 5811,
      "Ġmarketing": 5812,
      "ĠEach": 5813,
      "Ġbutton": 5814,
      "rizona": 5815,
      "Ġboss": 5816,
      "rad": 5817,
      "abled": 5818,
      "Ġlinks": 5819,
      "fortunately": 5820,
      "Ġfacility": 5821,
      "ĠNO": 5822,
      "ĠSwed": 5823,
      "Ġallegedly": 5824,
      "Ġregulations": 5825,
      "ains": 5826,
      "Ġhardware": 5827,
      "Ġmanage": 5828,
      "ĠBrazil": 5829,
      "ĠDes": 5830,
      "ĠHuman": 5831,
      "Ġdoctors": 5832,
      "Ġwaste": 5833,
      "Ġreplaced": 5834,
      "ĠPower": 5835,
      "Ġ33": 5836,
      "Ġcurrency": 5837,
      "orders": 5838,
      "Ġclassic": 5839,
      "gia": 5840,
      "ĠLife": 5841,
      "anged": 5842,
      "Ġbond": 5843,
      "Ġshop": 5844,
      "Ġsomewhat": 5845,
      "Ġaccompl": 5846,
      "ĠMs": 5847,
      "Ġpromise": 5848,
      "Ġholds": 5849,
      "Ġexpression": 5850,
      "Ġopposite": 5851,
      "Ġbike": 5852,
      "Ġmoments": 5853,
      "Ġdynam": 5854,
      "ĠRights": 5855,
      "Ġopponent": 5856,
      "Ġpure": 5857,
      "ĠColorado": 5858,
      "Ġconvin": 5859,
      "ĠProt": 5860,
      "lines": 5861,
      "Ġacts": 5862,
      "oly": 5863,
      "Ġbare": 5864,
      "men": 5865,
      "Ġversions": 5866,
      "Ġnative": 5867,
      "osition": 5868,
      "Ġcampus": 5869,
      "erves": 5870,
      "cher": 5871,
      "ometimes": 5872,
      "ĠEv": 5873,
      "Ġsplit": 5874,
      "la": 5875,
      "ensions": 5876,
      "cribe": 5877,
      "ĠColumb": 5878,
      "Ġrelevant": 5879,
      "Ġclosely": 5880,
      "esome": 5881,
      "alax": 5882,
      "usiness": 5883,
      "Ġwarm": 5884,
      "ĠBoard": 5885,
      "Ġvice": 5886,
      "Ġschol": 5887,
      "Ġfewer": 5888,
      "ĠYouTube": 5889,
      "See": 5890,
      "Ġdivision": 5891,
      "Ġharder": 5892,
      "Ġhoping": 5893,
      "Ġessential": 5894,
      "ashed": 5895,
      "ĠScot": 5896,
      "Ġemotional": 5897,
      "Ġqual": 5898,
      "Ġhousehold": 5899,
      "Ġcustomer": 5900,
      "ĠDra": 5901,
      "31": 5902,
      "Ġmonit": 5903,
      "ĠStan": 5904,
      "Ġpet": 5905,
      "Ġsees": 5906,
      "Ġencourage": 5907,
      "Ġreturns": 5908,
      "ellow": 5909,
      "Ġparticipants": 5910,
      "mates": 5911,
      "Ġlie": 5912,
      "Ġextent": 5913,
      "amm": 5914,
      "care": 5915,
      "ĠValley": 5916,
      "ywood": 5917,
      "05": 5918,
      "isters": 5919,
      "lder": 5920,
      "Ġexcellent": 5921,
      "Ġconsumer": 5922,
      "ĠVict": 5923,
      "class": 5924,
      "orry": 5925,
      "Ġvan": 5926,
      "Ġbright": 5927,
      "ĠAc": 5928,
      "Ġmut": 5929,
      "Ġcomed": 5930,
      "ĠSoviet": 5931,
      "angers": 5932,
      "Ġcircumstances": 5933,
      "ĠOut": 5934,
      "Ġcontest": 5935,
      "Ġvolunte": 5936,
      "Ġflat": 5937,
      "Ġstring": 5938,
      "Ġwound": 5939,
      "Ġsuffering": 5940,
      "ĠRon": 5941,
      "Ġimmediate": 5942,
      "Ġacknowled": 5943,
      "ĠHouston": 5944,
      "Ġlies": 5945,
      "ĠNe": 5946,
      "izes": 5947,
      "stood": 5948,
      "Ġimmigrants": 5949,
      "whel": 5950,
      "Ġkinds": 5951,
      "king": 5952,
      "Ġdetailed": 5953,
      "Ġfeatured": 5954,
      "Ġevolution": 5955,
      "respond": 5956,
      "Ġcorrespond": 5957,
      "Ġske": 5958,
      "Ġnut": 5959,
      "ipping": 5960,
      "Ġpopul": 5961,
      "Ġtiny": 5962,
      "reens": 5963,
      "Pol": 5964,
      "Ġformed": 5965,
      "Ġdescribe": 5966,
      "Ġcarrying": 5967,
      "Ġrow": 5968,
      "Ġlaugh": 5969,
      "Pe": 5970,
      "Ġtournament": 5971,
      "Ġrelationships": 5972,
      "ĠAdm": 5973,
      "ara": 5974,
      "Ġhall": 5975,
      "Ġmetal": 5976,
      "etroit": 5977,
      "irty": 5978,
      "ĠJul": 5979,
      "ores": 5980,
      "Ġthr": 5981,
      "uster": 5982,
      "Ġsigning": 5983,
      "Ġflood": 5984,
      "CA": 5985,
      "Ġearned": 5986,
      "Ġdecline": 5987,
      "enture": 5988,
      "Ġcrazy": 5989,
      "inals": 5990,
      "ĠIP": 5991,
      "Ġintention": 5992,
      "ĠYear": 5993,
      "ili": 5994,
      "run": 5995,
      "ĠPalestinian": 5996,
      "ĠDaniel": 5997,
      "Ġgrown": 5998,
      "Ġpipe": 5999,
      "Ġfrequently": 6000,
      "Ġacting": 6001,
      "Ġstrange": 6002,
      "Ġancient": 6003,
      "ĠPrem": 6004,
      "ĠJesus": 6005,
      "ternal": 6006,
      "Ġefficient": 6007,
      "Ġpushing": 6008,
      "Ġcomfortable": 6009,
      "ĠCatholic": 6010,
      "ĠMount": 6011,
      "lets": 6012,
      "Ġembra": 6013,
      "Ġwins": 6014,
      "Ġcycle": 6015,
      "ĠImage": 6016,
      "gent": 6017,
      "ĠCIA": 6018,
      "ĠPutin": 6019,
      "Ġsharing": 6020,
      "Ġparliament": 6021,
      "employ": 6022,
      "Ġowned": 6023,
      "ĠÃ": 6024,
      "Ġfashion": 6025,
      "Ġconfig": 6026,
      "Ġzero": 6027,
      "Ġcommitment": 6028,
      "Ġalongside": 6029,
      "Ġhell": 6030,
      "Ġheads": 6031,
      "ĠConstitution": 6032,
      "vis": 6033,
      "berg": 6034,
      "Ġreferred": 6035,
      "Ġartists": 6036,
      "agon": 6037,
      "ĠSing": 6038,
      "ĠTO": 6039,
      "ĠDavis": 6040,
      "Ġcontroversial": 6041,
      "Ġrepeatedly": 6042,
      "Ġrecall": 6043,
      "Ġempt": 6044,
      "Ġsac": 6045,
      "Ġregional": 6046,
      "Ġattempted": 6047,
      "Ġdim": 6048,
      "Ġcheap": 6049,
      "Ġinvent": 6050,
      "ĠJo": 6051,
      "Over": 6052,
      "ĠClub": 6053,
      "Ġschedule": 6054,
      "ĠWalk": 6055,
      "Ġdedicated": 6056,
      "Ġupdated": 6057,
      "ĠKell": 6058,
      "Ġsentence": 6059,
      "gn": 6060,
      "Ġpregn": 6061,
      "Ġupcoming": 6062,
      "Ġauthors": 6063,
      "Ġbug": 6064,
      "Ġcart": 6065,
      "Ġevil": 6066,
      "ype": 6067,
      "Ġcrack": 6068,
      "Ġstruck": 6069,
      "Ġrealized": 6070,
      "Ġstudio": 6071,
      "ideo": 6072,
      "Ġdepth": 6073,
      "Despite": 6074,
      "Ġsquad": 6075,
      "Ġserving": 6076,
      "Ġwalked": 6077,
      "ene": 6078,
      "rison": 6079,
      "Ġchart": 6080,
      "Ġdesk": 6081,
      "Ġmotion": 6082,
      "Ġtargeted": 6083,
      "Ġbird": 6084,
      "Ġassets": 6085,
      "Ġmanner": 6086,
      "Ġinspired": 6087,
      "ĠPet": 6088,
      "abin": 6089,
      "ĠEnergy": 6090,
      "Ġnewslet": 6091,
      "ĠArizona": 6092,
      "ĠBlue": 6093,
      "Ġagenda": 6094,
      "rations": 6095,
      "Ġuniverse": 6096,
      "mbly": 6097,
      "Ġcausing": 6098,
      "oking": 6099,
      "Ġwatched": 6100,
      "Ġposts": 6101,
      "Ġsuicide": 6102,
      "Ġcompetitive": 6103,
      "Ġsurveillance": 6104,
      "ĠGrand": 6105,
      "Ġguide": 6106,
      "Ġ\\": 6107,
      "ĠCharles": 6108,
      "Ġchairman": 6109,
      "Ġopponents": 6110,
      "Ġusual": 6111,
      "Ġdownt": 6112,
      "Ġshar": 6113,
      "Ġhunt": 6114,
      "Ġsurrounding": 6115,
      "',": 6116,
      "Ġunus": 6117,
      "Ġorders": 6118,
      "pir": 6119,
      "Ġevol": 6120,
      "Ġliterally": 6121,
      "Ġobserved": 6122,
      "Ġknowing": 6123,
      "ĠAgain": 6124,
      "ĠCub": 6125,
      "Ġintent": 6126,
      "Ġgenet": 6127,
      "34": 6128,
      "ĠSch": 6129,
      "kay": 6130,
      "icing": 6131,
      "Ġapproval": 6132,
      "OS": 6133,
      "Ġhotel": 6134,
      "Ġlatter": 6135,
      "Ġremote": 6136,
      "Ġteachers": 6137,
      "athan": 6138,
      "iami": 6139,
      "Ġmine": 6140,
      "pport": 6141,
      "Ġillust": 6142,
      "ĠDevelop": 6143,
      "People": 6144,
      "Ġsam": 6145,
      "Ġmainstream": 6146,
      "ĠGames": 6147,
      "Ġfundamental": 6148,
      "Ġprotected": 6149,
      "Ġnoticed": 6150,
      "Ġdealing": 6151,
      "Ġoverwhel": 6152,
      "Ġprecise": 6153,
      "ĠCruz": 6154,
      "Ġfraud": 6155,
      "ĠLord": 6156,
      "Ġexciting": 6157,
      "Ġdeeply": 6158,
      "Ġcommunication": 6159,
      "Ġsister": 6160,
      "Ġsending": 6161,
      "emies": 6162,
      "ĠDefense": 6163,
      "ĠPhot": 6164,
      "efully": 6165,
      "istry": 6166,
      "Ġkit": 6167,
      "Ġsignal": 6168,
      "Ġbattery": 6169,
      "Ġaside": 6170,
      "duc": 6171,
      "hether": 6172,
      "Ġrequirements": 6173,
      "Ġbasket": 6174,
      "ordan": 6175,
      "Ġvac": 6176,
      "Ġproperties": 6177,
      "Ġpled": 6178,
      "Ġfolks": 6179,
      "top": 6180,
      "Ġfixed": 6181,
      "ĠMem": 6182,
      "obe": 6183,
      "Ġalive": 6184,
      "75": 6185,
      "36": 6186,
      "Ġinstru": 6187,
      "Ġeating": 6188,
      "ht": 6189,
      "Ġmir": 6190,
      "Ġmistake": 6191,
      "ĠWork": 6192,
      "Ġ34": 6193,
      "ĠGM": 6194,
      "oral": 6195,
      "ĠML": 6196,
      "Ġexplore": 6197,
      "Ġwinter": 6198,
      "Ġ1970": 6199,
      "ĠLin": 6200,
      "ĠJr": 6201,
      "Ġpromised": 6202,
      "cel": 6203,
      "Ġvolume": 6204,
      "Ġrisks": 6205,
      "Ġpassion": 6206,
      "ĠSpan": 6207,
      "%)": 6208,
      "ĠWars": 6209,
      "ĠOpen": 6210,
      "Ġisol": 6211,
      "fra": 6212,
      "Ġrape": 6213,
      "isher": 6214,
      "Like": 6215,
      "Ġinvolving": 6216,
      "ĠJava": 6217,
      "istory": 6218,
      "Ġtested": 6219,
      "west": 6220,
      "hered": 6221,
      "aped": 6222,
      "Ĥ¬": 6223,
      "yth": 6224,
      "Ġextended": 6225,
      "Ġwelcome": 6226,
      "Ġterritory": 6227,
      "Ġselection": 6228,
      "ĠLead": 6229,
      "Ġrefugees": 6230,
      "alty": 6231,
      "Ġjourney": 6232,
      "Ġreward": 6233,
      "usal": 6234,
      "Ġapproximately": 6235,
      "acing": 6236,
      "ER": 6237,
      "oles": 6238,
      "Ġtrib": 6239,
      "ĠSports": 6240,
      "Ġanyway": 6241,
      "vey": 6242,
      "ĠKevin": 6243,
      "Ġdestroyed": 6244,
      "Ġcere": 6245,
      "Ġcoffee": 6246,
      "Ġimpressive": 6247,
      "Ġsample": 6248,
      "ula": 6249,
      "ĠWik": 6250,
      "Ġuncle": 6251,
      "Ġwage": 6252,
      "Ġlocations": 6253,
      "Two": 6254,
      "ĠOffic": 6255,
      "Ġreli": 6256,
      "style": 6257,
      "Ġprohib": 6258,
      "ĠEconom": 6259,
      "ĠDie": 6260,
      "pet": 6261,
      "ĠMur": 6262,
      "Ġblame": 6263,
      "Ġattacked": 6264,
      "ĠMal": 6265,
      "Ġunemploy": 6266,
      "Ġgap": 6267,
      "Ġfort": 6268,
      "Ġpromote": 6269,
      "amily": 6270,
      "Ġmerely": 6271,
      "Ġcrash": 6272,
      "Ġhat": 6273,
      "rier": 6274,
      "ĠRight": 6275,
      "Ġrequests": 6276,
      "Ġsuddenly": 6277,
      "Ġslowly": 6278,
      "Ġprotesters": 6279,
      "ĠStephen": 6280,
      "Ġselected": 6281,
      "Ġdefeat": 6282,
      "Donald": 6283,
      "Ġteacher": 6284,
      "ĠSign": 6285,
      "Ġking": 6286,
      "lete": 6287,
      "Ġtypical": 6288,
      "Ġputs": 6289,
      "ĠWilson": 6290,
      "Ġchose": 6291,
      "ĠDetroit": 6292,
      "cont": 6293,
      "Ġmaximum": 6294,
      "ĠWomen": 6295,
      "Ġmatches": 6296,
      "Ġproperly": 6297,
      "iot": 6298,
      "Ġassume": 6299,
      "Ġplot": 6300,
      "Ġnorthern": 6301,
      "ensus": 6302,
      "Ġskill": 6303,
      "ville": 6304,
      "Ġallies": 6305,
      "Ġrain": 6306,
      "Ġwave": 6307,
      "Ġsupports": 6308,
      "ĠMiller": 6309,
      "ĠHT": 6310,
      "Ġarguments": 6311,
      "Ġworried": 6312,
      "Ġfacilities": 6313,
      "ĠDec": 6314,
      "Ġintel": 6315,
      "uct": 6316,
      "Ġtheme": 6317,
      "Ġterrorism": 6318,
      "Ġrecognize": 6319,
      "Ġindustrial": 6320,
      "edia": 6321,
      "Ġwake": 6322,
      "ĠID": 6323,
      "Ġfavour": 6324,
      "een": 6325,
      "Ġobtained": 6326,
      "verty": 6327,
      "Ġreput": 6328,
      "Ġpoverty": 6329,
      "Ġnarrow": 6330,
      "Ġdeals": 6331,
      "ĠItaly": 6332,
      "Ġfees": 6333,
      "38": 6334,
      "ogue": 6335,
      "Ġnomine": 6336,
      "!!": 6337,
      "Ġec": 6338,
      "Ġscr": 6339,
      "Ġcontrolled": 6340,
      "Ġunderstood": 6341,
      "Ġvirtual": 6342,
      "ĠEric": 6343,
      "Ġtopic": 6344,
      "otal": 6345,
      "Ġcritics": 6346,
      "ĠSociety": 6347,
      "Ġabortion": 6348,
      "ĠAgency": 6349,
      "Ġegg": 6350,
      "Ġdiscover": 6351,
      "Ġvillage": 6352,
      "Ġing": 6353,
      "Ġformat": 6354,
      "house": 6355,
      "Ġproof": 6356,
      "Ġradical": 6357,
      "ĠHaw": 6358,
      "Ġforth": 6359,
      "ĠReport": 6360,
      "ĠHollywood": 6361,
      "Ġlikes": 6362,
      "Ġvalu": 6363,
      "ĠDou": 6364,
      "ooth": 6365,
      "Ġpunish": 6366,
      "ĠBob": 6367,
      "Ġcongress": 6368,
      "Ġgift": 6369,
      "Ġmeat": 6370,
      "ĠGeorgia": 6371,
      "Ġjournalists": 6372,
      "ĠJersey": 6373,
      "Ġdial": 6374,
      "Ġexposed": 6375,
      "Ġregions": 6376,
      "Ġcommunications": 6377,
      "Ġscheme": 6378,
      "ov": 6379,
      "ĠCompany": 6380,
      "Ġexhib": 6381,
      "Ġlimits": 6382,
      "Ġtom": 6383,
      "Ġpu": 6384,
      "Ġsomehow": 6385,
      "Ġtag": 6386,
      "ĠTen": 6387,
      "Ġstrongly": 6388,
      "allas": 6389,
      "Ġresistance": 6390,
      "ĠGr": 6391,
      "Ġbunch": 6392,
      "ĠWatch": 6393,
      "ĠNASA": 6394,
      "Ġsymbol": 6395,
      "Ġpersonally": 6396,
      "Ġunknown": 6397,
      "ĠEnter": 6398,
      "Ġfranchise": 6399,
      "henomen": 6400,
      "Ġphenomen": 6401,
      "Ġfalling": 6402,
      "Ġfasc": 6403,
      "Ġsurger": 6404,
      "outs": 6405,
      "Ġsomewhere": 6406,
      "âĢĻ.": 6407,
      "atell": 6408,
      "Ġphase": 6409,
      "nesota": 6410,
      "Ġemployee": 6411,
      "ĠSqu": 6412,
      "Ġcomparison": 6413,
      "Ġrot": 6414,
      "onymous": 6415,
      "Ġpolls": 6416,
      "ĠLabor": 6417,
      "Ġemissions": 6418,
      "Get": 6419,
      "Ġring": 6420,
      "ĠSpanish": 6421,
      "itch": 6422,
      "ĠTechn": 6423,
      "Ġwithdra": 6424,
      "icious": 6425,
      "ĠMiami": 6426,
      "ĠGP": 6427,
      "Ġmotor": 6428,
      "Ġdefinition": 6429,
      "Ġdirected": 6430,
      "ĠOF": 6431,
      "Ġhits": 6432,
      "Ġempty": 6433,
      "iques": 6434,
      "Ġmeetings": 6435,
      "Ġchannel": 6436,
      "Ġobserv": 6437,
      "Ġwinner": 6438,
      "aylor": 6439,
      "Ġgotten": 6440,
      "ĠMet": 6441,
      "aza": 6442,
      "Ġheight": 6443,
      "Ġelectricity": 6444,
      "Ġlicense": 6445,
      "Ġcontinu": 6446,
      "Ġofficially": 6447,
      "Ġmouth": 6448,
      "ĠDespite": 6449,
      "ein": 6450,
      "Ġchosen": 6451,
      "Ġstronger": 6452,
      "ĠKim": 6453,
      "onna": 6454,
      "Ġdatabase": 6455,
      "Ġpurposes": 6456,
      "Ġurban": 6457,
      "Ġcomprom": 6458,
      "enry": 6459,
      "ĠAN": 6460,
      "ait": 6461,
      "Ġcutting": 6462,
      "Ġamounts": 6463,
      "Ġextensive": 6464,
      "hus": 6465,
      "Ġ49": 6466,
      "Ġdiet": 6467,
      "ĠChild": 6468,
      "ockey": 6469,
      "Ġescape": 6470,
      "Ġdisag": 6471,
      "Ġtrees": 6472,
      "encing": 6473,
      "sex": 6474,
      "199": 6475,
      "ocratic": 6476,
      "Ġcondem": 6477,
      "Ġretire": 6478,
      "Ġbid": 6479,
      "icial": 6480,
      "Ġgoods": 6481,
      "Ġdesper": 6482,
      "Ġclaiming": 6483,
      "ferences": 6484,
      "Ġdeveloper": 6485,
      "Ġcaptured": 6486,
      "Ġfinds": 6487,
      "ĠBest": 6488,
      "Ġdriven": 6489,
      "Ġsouthern": 6490,
      "Ġpayments": 6491,
      "ĠThough": 6492,
      "ller": 6493,
      "Ġties": 6494,
      "ĠAdminist": 6495,
      "Ġreasonable": 6496,
      "Ġseed": 6497,
      "Ġmagic": 6498,
      "Ġsomebody": 6499,
      "ĠAsian": 6500,
      "Ġending": 6501,
      "Ġchoices": 6502,
      "ĠCamer": 6503,
      "Ġseats": 6504,
      "ĠNations": 6505,
      "adel": 6506,
      "Ġfifth": 6507,
      "ĠServices": 6508,
      "Ġengage": 6509,
      "Ġdrawn": 6510,
      "Ġdogs": 6511,
      "aine": 6512,
      "Ġthreatened": 6513,
      "Ġruled": 6514,
      "Ġsand": 6515,
      "lyn": 6516,
      "ĠAttorney": 6517,
      "Ġharass": 6518,
      "abis": 6519,
      "erring": 6520,
      "Ġprimarily": 6521,
      "Sh": 6522,
      "Ġtrading": 6523,
      "Ġdomin": 6524,
      "Ġconvert": 6525,
      "ugg": 6526,
      "Ġaspects": 6527,
      "Ġfighters": 6528,
      "Ġhonor": 6529,
      "Ġsole": 6530,
      "ĠNHL": 6531,
      "Ġperfectly": 6532,
      "Ġanswers": 6533,
      "Ġconfront": 6534,
      "add": 6535,
      "Ġparking": 6536,
      "Ġrejected": 6537,
      "Ġwal": 6538,
      "Ġconstantly": 6539,
      "rey": 6540,
      "Ġintellect": 6541,
      "ya": 6542,
      "Ġprote": 6543,
      "Ġpayment": 6544,
      "Ġstretch": 6545,
      "ĠWal": 6546,
      "39": 6547,
      "alaxy": 6548,
      "Ġtechnologies": 6549,
      "ĠBet": 6550,
      "ĠAff": 6551,
      "ĠThank": 6552,
      "Ġflying": 6553,
      "gu": 6554,
      "ĠWay": 6555,
      "unction": 6556,
      "Ġcomponents": 6557,
      "Ġelsewhere": 6558,
      "yl": 6559,
      "Ġanymore": 6560,
      "Ġsubsid": 6561,
      "ĠScotland": 6562,
      "ĠDC": 6563,
      "ceived": 6564,
      "Ġestimates": 6565,
      "Ġmanufacturer": 6566,
      "Ġwest": 6567,
      "Ġchampion": 6568,
      "Ġresulting": 6569,
      "Ġfields": 6570,
      "ĠJordan": 6571,
      "Ġsolutions": 6572,
      "Ġ48": 6573,
      "Ġsuppl": 6574,
      "Ġencoun": 6575,
      "Ġworldwide": 6576,
      "Ġregularly": 6577,
      "Ġrobot": 6578,
      "pes": 6579,
      "Ġpleas": 6580,
      "Ġenemies": 6581,
      "Ġprovince": 6582,
      "Ġactor": 6583,
      "Ġdress": 6584,
      "Ġmixed": 6585,
      "ĠFord": 6586,
      "bor": 6587,
      "Ġbear": 6588,
      "Ġ75": 6589,
      "Ġnobody": 6590,
      "Ġwire": 6591,
      "Ġhouses": 6592,
      "Ġsevere": 6593,
      "arge": 6594,
      "Ġid": 6595,
      "Ġcontrols": 6596,
      "PA": 6597,
      "Ġletters": 6598,
      "Ġretain": 6599,
      "Ġvacc": 6600,
      "Ġoutcome": 6601,
      "Ġnarrative": 6602,
      "Ġhyp": 6603,
      "Ġ37": 6604,
      "ĠGar": 6605,
      "ĠNetwork": 6606,
      "Ġapartment": 6607,
      "Ġcontributed": 6608,
      "Ġcoalition": 6609,
      "Ġmurd": 6610,
      "Ġequival": 6611,
      "ĠSol": 6612,
      "oked": 6613,
      "Ġconcluded": 6614,
      "certain": 6615,
      "Once": 6616,
      "ensity": 6617,
      "Ġexists": 6618,
      "Ġfounder": 6619,
      "Ġawesome": 6620,
      "ĠMoore": 6621,
      "Ġeast": 6622,
      "Ġatmosphere": 6623,
      "Ġnav": 6624,
      "Ġdiagn": 6625,
      "Ġsick": 6626,
      "Ġsituations": 6627,
      "luding": 6628,
      "Ġsimpl": 6629,
      "Police": 6630,
      "Ġmayor": 6631,
      "Ġprofile": 6632,
      "ĠChampionship": 6633,
      "ĠDisney": 6634,
      "Ġincredible": 6635,
      "Ġaccurate": 6636,
      "ĠYoung": 6637,
      "owa": 6638,
      "Ġemployment": 6639,
      "asks": 6640,
      "Ġinformed": 6641,
      "Ġcontinuing": 6642,
      "ĠBrian": 6643,
      "Ġresc": 6644,
      "gon": 6645,
      "Ġclients": 6646,
      "ĠSouthern": 6647,
      "awn": 6648,
      "Ġfuck": 6649,
      "ĠRod": 6650,
      "cow": 6651,
      "ĠDNA": 6652,
      "Ġroutine": 6653,
      "Ġangry": 6654,
      "Ġraising": 6655,
      "Ġpic": 6656,
      "Ġsym": 6657,
      "Ġtied": 6658,
      "Ġmachines": 6659,
      "Ġcategory": 6660,
      "Ġrival": 6661,
      "Ġregistered": 6662,
      "nic": 6663,
      "Ġdemands": 6664,
      "PN": 6665,
      "Ġ42": 6666,
      "mond": 6667,
      "Also": 6668,
      "Ġproved": 6669,
      "Ġgenerate": 6670,
      "Ġoblig": 6671,
      "Ġincredibly": 6672,
      "Ġgaming": 6673,
      "Ġcrucial": 6674,
      "ador": 6675,
      "Ġstuck": 6676,
      "Ġterrible": 6677,
      "Ġdistinct": 6678,
      "Ġdry": 6679,
      "ilarly": 6680,
      "Ġbench": 6681,
      "ccer": 6682,
      "ĠDallas": 6683,
      "ĠIll": 6684,
      "Ġestate": 6685,
      "Ġconsumption": 6686,
      "Ġsoul": 6687,
      "Ġbills": 6688,
      "ĠAI": 6689,
      "Ġ38": 6690,
      "Ġkeeps": 6691,
      "Ġdozen": 6692,
      "bre": 6693,
      "Ġcert": 6694,
      "Ġwriters": 6695,
      "ĠTurn": 6696,
      "Ġanx": 6697,
      "Ġaggressive": 6698,
      "Ġtransp": 6699,
      "ĠSpain": 6700,
      "ĠFour": 6701,
      "Ġexcess": 6702,
      "Ġreporter": 6703,
      "Ġqualif": 6704,
      "Ġreturning": 6705,
      "Ġbaseball": 6706,
      "Ġprogramming": 6707,
      "Ġrepresented": 6708,
      "Ġconscious": 6709,
      "Ġdeck": 6710,
      "antly": 6711,
      "ĠStand": 6712,
      "intend": 6713,
      "Ġassistant": 6714,
      "Ġconclusion": 6715,
      "husi": 6716,
      "Ġenthusi": 6717,
      "Ġorganized": 6718,
      "Ġroster": 6719,
      "Can": 6720,
      "Ġtransm": 6721,
      "Ġforest": 6722,
      "Ġadopt": 6723,
      "Ġpenalty": 6724,
      "ĠMinnesota": 6725,
      "02": 6726,
      "ĠSur": 6727,
      "Ġdrinking": 6728,
      "ĠIrish": 6729,
      "ĠDown": 6730,
      "ĠThanks": 6731,
      "illy": 6732,
      "Ġsatell": 6733,
      "Ġrum": 6734,
      "Ġshel": 6735,
      "Ġdisci": 6736,
      "May": 6737,
      "Ġexplanation": 6738,
      "Ġcapture": 6739,
      "hand": 6740,
      "ĠSher": 6741,
      "you": 6742,
      "Le": 6743,
      "ĠItalian": 6744,
      "Ġliqu": 6745,
      "phia": 6746,
      "adelphia": 6747,
      "Ġassistance": 6748,
      "Ġcomplaint": 6749,
      "Today": 6750,
      "Ġloan": 6751,
      "Ġalg": 6752,
      "Ġgranted": 6753,
      "orse": 6754,
      "John": 6755,
      "redit": 6756,
      "name": 6757,
      "ument": 6758,
      "Ġlift": 6759,
      ".\"[": 6760,
      "Ġcomplicated": 6761,
      "Ġchances": 6762,
      "Because": 6763,
      "ĠMel": 6764,
      "Ġcourts": 6765,
      "bing": 6766,
      "GBT": 6767,
      "Ġcounty": 6768,
      "Ġ1999": 6769,
      "Ġshares": 6770,
      "04": 6771,
      "Ġsuccessfully": 6772,
      "long": 6773,
      "ĠRev": 6774,
      "Ġfeedback": 6775,
      "Ġgang": 6776,
      "Ġnewly": 6777,
      "Ġaudio": 6778,
      "gender": 6779,
      "Ġdiss": 6780,
      "37": 6781,
      "Ġtechniques": 6782,
      "Ġast": 6783,
      "Ġrecovery": 6784,
      "Ġscenes": 6785,
      "Ġsky": 6786,
      "onsin": 6787,
      "isconsin": 6788,
      "apping": 6789,
      "Ġupper": 6790,
      "Ġveteran": 6791,
      "Ġdegrees": 6792,
      "igure": 6793,
      "Ġlawmakers": 6794,
      "Ġoperate": 6795,
      "Ġaimed": 6796,
      "ĠParliament": 6797,
      "ĠAuthor": 6798,
      "ĠOld": 6799,
      "ĠAdam": 6800,
      "urt": 6801,
      "Ġengaged": 6802,
      "Ġinstitution": 6803,
      "Ġsav": 6804,
      "Ab": 6805,
      "03": 6806,
      "Ġteaching": 6807,
      "Ġrating": 6808,
      "Ġacademic": 6809,
      "arden": 6810,
      "Ġdecent": 6811,
      "Ġpasses": 6812,
      "ĠES": 6813,
      "Ġrein": 6814,
      "ĠCarl": 6815,
      "Ġautomatically": 6816,
      "ĠAcad": 6817,
      "Add": 6818,
      "Ġattended": 6819,
      "Ġdollar": 6820,
      "Ġsurvive": 6821,
      "Ġtherap": 6822,
      "Ġmarked": 6823,
      "Ġtaught": 6824,
      "Ġtitles": 6825,
      "ĠVictor": 6826,
      "Ġhidden": 6827,
      "kish": 6828,
      "Ġpermanent": 6829,
      "Ġsight": 6830,
      "oom": 6831,
      "uilding": 6832,
      "ĠWhere": 6833,
      "Ġdepending": 6834,
      "Ġlawyers": 6835,
      "everal": 6836,
      "Ġvaluable": 6837,
      "Ġelite": 6838,
      "Ġchick": 6839,
      "ĠNY": 6840,
      "Ġinstalled": 6841,
      "Ġchampionship": 6842,
      "DP": 6843,
      "ilit": 6844,
      "abama": 6845,
      "iat": 6846,
      "Ġsolve": 6847,
      "Ġequivalent": 6848,
      "Ġduty": 6849,
      "Ġprivile": 6850,
      "Ġicon": 6851,
      "%.": 6852,
      "Ġwis": 6853,
      "Ġphones": 6854,
      "hi": 6855,
      "ĠSea": 6856,
      "word": 6857,
      "host": 6858,
      "Ġreputation": 6859,
      "Ġenable": 6860,
      "Ġwarming": 6861,
      "Ġads": 6862,
      "ĠMedic": 6863,
      "Ġideal": 6864,
      "Ġvisited": 6865,
      "Ġsufficient": 6866,
      "Ġpersonnel": 6867,
      "Ġprinciples": 6868,
      "Ġvulnerable": 6869,
      "Ġenjoyed": 6870,
      "Ġblocks": 6871,
      "Ġnegotiations": 6872,
      "Ġpace": 6873,
      "Ġthread": 6874,
      "Ġexposure": 6875,
      "Ġbon": 6876,
      "Ġgenerated": 6877,
      "Ġrecording": 6878,
      "Ġregardless": 6879,
      "Ġinqu": 6880,
      "Ġcollected": 6881,
      "Ġpartnership": 6882,
      "ĠLinux": 6883,
      "Ġdowntown": 6884,
      "Ġpatterns": 6885,
      "Ġtaste": 6886,
      "Ġfake": 6887,
      "Ġ($": 6888,
      "Ġuncertain": 6889,
      "ĠAvenue": 6890,
      "ĠTaylor": 6891,
      "Ġmainly": 6892,
      "regon": 6893,
      "Ġpounds": 6894,
      "Ġpaint": 6895,
      "Ġdisaster": 6896,
      "ĠElect": 6897,
      "fraid": 6898,
      "Ġafraid": 6899,
      "ĠKelly": 6900,
      "ĠPolit": 6901,
      "azi": 6902,
      "Ġrus": 6903,
      "Ġanticip": 6904,
      "Ġwarn": 6905,
      "Ġintense": 6906,
      "Ġworker": 6907,
      "ĠSeries": 6908,
      "Ġcable": 6909,
      "Getty": 6910,
      "Ġportion": 6911,
      "Ġsurgery": 6912,
      "Ġunl": 6913,
      "Ġpossession": 6914,
      "aled": 6915,
      "Ġprominent": 6916,
      "ĠMoscow": 6917,
      "Ġplastic": 6918,
      "PD": 6919,
      "ĠForeign": 6920,
      "Ġconstit": 6921,
      "imal": 6922,
      "anges": 6923,
      "Ġengineering": 6924,
      "Ġincl": 6925,
      "ĠRad": 6926,
      "Ġbitcoin": 6927,
      "ĠPacific": 6928,
      "Ġprocesses": 6929,
      "Ġstim": 6930,
      "Ġflex": 6931,
      "Ġfunny": 6932,
      "ducation": 6933,
      "ĠWild": 6934,
      "inn": 6935,
      "Ġbom": 6936,
      "Ġscand": 6937,
      "ĠJoseph": 6938,
      "Ġcomic": 6939,
      "Ġparam": 6940,
      "Ġdescribes": 6941,
      "Ġunusual": 6942,
      "ĠEastern": 6943,
      "ĠSenator": 6944,
      "Ġtall": 6945,
      "Ġresulted": 6946,
      "Ġmicro": 6947,
      "Ġemerged": 6948,
      "game": 6949,
      "ĠMer": 6950,
      "ails": 6951,
      "ĠProgram": 6952,
      "ĠInter": 6953,
      "rid": 6954,
      "ĠCoast": 6955,
      "Ġstations": 6956,
      "Ġcorruption": 6957,
      "can": 6958,
      "idency": 6959,
      "hetic": 6960,
      "Ġfought": 6961,
      "ĠTop": 6962,
      "Ġadopted": 6963,
      "ĠLove": 6964,
      "ĠIowa": 6965,
      "ĠClass": 6966,
      "ml": 6967,
      "Ġpilot": 6968,
      "ĠBrad": 6969,
      "64": 6970,
      "Ġcompete": 6971,
      "sp": 6972,
      "Ġtracks": 6973,
      "Ġinfect": 6974,
      "Ġspin": 6975,
      "Ġhadn": 6976,
      "ĠAT": 6977,
      "Ġextension": 6978,
      "Ġclar": 6979,
      "Ġ64": 6980,
      "Ġeverywhere": 6981,
      "quarters": 6982,
      "08": 6983,
      "elated": 6984,
      "Ġtaxpay": 6985,
      "ĠCard": 6986,
      "Ġcontracts": 6987,
      "ĠBoy": 6988,
      "Ġfeelings": 6989,
      "Ġwestern": 6990,
      "Ġfirms": 6991,
      "Ġflav": 6992,
      "erg": 6993,
      "Ġminority": 6994,
      "Ġrarely": 6995,
      "Ġadvertising": 6996,
      "Ġbusy": 6997,
      "Ġticket": 6998,
      "Ġgod": 6999,
      "stein": 7000,
      "ĠCivil": 7001,
      "Ġinnoc": 7002,
      "Ġsanctions": 7003,
      "iency": 7004,
      "thew": 7005,
      "Ġtort": 7006,
      "Ġforum": 7007,
      "ĠNorthern": 7008,
      "Ġcameras": 7009,
      "Ġwid": 7010,
      "Ġsoci": 7011,
      "ĠPhiladelphia": 7012,
      "Ġsympt": 7013,
      "Ġcited": 7014,
      "ography": 7015,
      "utch": 7016,
      "Ġshortly": 7017,
      "obile": 7018,
      "Ġexpectations": 7019,
      "Ġven": 7020,
      "Ġimplementation": 7021,
      "inations": 7022,
      "06": 7023,
      "ĠTony": 7024,
      "Ġexplicit": 7025,
      "ĠBowl": 7026,
      "thony": 7027,
      "pson": 7028,
      "Any": 7029,
      "ĠCr": 7030,
      "Ġfinance": 7031,
      "ĠâĢĻ": 7032,
      "Ġgam": 7033,
      "ĠBefore": 7034,
      "usse": 7035,
      "Ġoverse": 7036,
      "ĠBur": 7037,
      "Ġassert": 7038,
      "ivision": 7039,
      "ĠNavy": 7040,
      "ĠGreek": 7041,
      "Ġscenario": 7042,
      "ibilities": 7043,
      "this": 7044,
      "Ġ400": 7045,
      "Ġracial": 7046,
      "ett": 7047,
      "ĠBusiness": 7048,
      "Ġvisible": 7049,
      "Ġdeleg": 7050,
      "sea": 7051,
      "Ġpriority": 7052,
      "idelines": 7053,
      "Ġcreates": 7054,
      "gt": 7055,
      "esy": 7056,
      "aturally": 7057,
      "ĠKurd": 7058,
      "Ġspell": 7059,
      "Ġparticipate": 7060,
      "Ġplug": 7061,
      "ĠJosh": 7062,
      "Ġdefence": 7063,
      "Ġroot": 7064,
      "Ġstack": 7065,
      "ancing": 7066,
      "ĠBack": 7067,
      "ĠPolicy": 7068,
      "Ġerr": 7069,
      "phy": 7070,
      "ĠWisconsin": 7071,
      "Ġdozens": 7072,
      "Ġcomputers": 7073,
      "Ġlosses": 7074,
      "Ġextrem": 7075,
      "ĠRoman": 7076,
      "09": 7077,
      "Ġentit": 7078,
      "ED": 7079,
      "ĠAmendment": 7080,
      "Ġstrikes": 7081,
      "Rep": 7082,
      "Ġprinciple": 7083,
      "there": 7084,
      "Ġthousand": 7085,
      "ĠStill": 7086,
      "44": 7087,
      "Ġscoring": 7088,
      "nell": 7089,
      "Ġavo": 7090,
      "Ġbridge": 7091,
      "ĪĴ": 7092,
      "met": 7093,
      "ixt": 7094,
      "Ġlaid": 7095,
      "Ġbrowser": 7096,
      "Ġbehalf": 7097,
      "ogan": 7098,
      "Ġwonderful": 7099,
      "Ġpermission": 7100,
      "Ġdiscipl": 7101,
      "Ġinterface": 7102,
      "ĠSub": 7103,
      "Ġbasketball": 7104,
      "Ġpod": 7105,
      "Ġgained": 7106,
      "Ġestablishment": 7107,
      "Ġfounded": 7108,
      "Ġphr": 7109,
      "ĠLook": 7110,
      "rog": 7111,
      "ĠView": 7112,
      "Ġclubs": 7113,
      "Ġcannabis": 7114,
      "cuit": 7115,
      "ses": 7116,
      "Ġfoundation": 7117,
      "ĠThus": 7118,
      "from": 7119,
      "Ġairport": 7120,
      "ĠWat": 7121,
      "onom": 7122,
      "cedent": 7123,
      "oration": 7124,
      "ietn": 7125,
      "Ġcompens": 7126,
      "ĠVietn": 7127,
      "Ġmanufacturing": 7128,
      "operation": 7129,
      "xual": 7130,
      "300": 7131,
      "Ġrely": 7132,
      "apse": 7133,
      "vard": 7134,
      "ĠCome": 7135,
      "uine": 7136,
      "ricult": 7137,
      "Ġgenuine": 7138,
      "Ġagricult": 7139,
      "ĠHenry": 7140,
      "ĠBat": 7141,
      "Ġ150": 7142,
      "Ġindex": 7143,
      "ĠAlabama": 7144,
      "Ġenorm": 7145,
      "âĢĻ,": 7146,
      "Ġcontem": 7147,
      "emen": 7148,
      "amin": 7149,
      "Ġshadow": 7150,
      "Ġstead": 7151,
      "Ġheaded": 7152,
      "Ġhole": 7153,
      "Ġmanip": 7154,
      "Ġindicate": 7155,
      "Ġsweet": 7156,
      "Ġyield": 7157,
      "ĠVeg": 7158,
      "Ġships": 7159,
      "ealand": 7160,
      "ĠZealand": 7161,
      "IT": 7162,
      "Ġdrawing": 7163,
      "Ġbanned": 7164,
      "iscal": 7165,
      "Ġfootage": 7166,
      "Meanwhile": 7167,
      "Ġjournalist": 7168,
      "rong": 7169,
      "Ġhistoric": 7170,
      "ĠLGBT": 7171,
      "month": 7172,
      "Ġflu": 7173,
      "Ġrecognized": 7174,
      "Ġdoors": 7175,
      "Ġsaved": 7176,
      "Ġcontaining": 7177,
      "profit": 7178,
      "Ġ1960": 7179,
      "....": 7180,
      "ĠNBC": 7181,
      "Ġ->": 7182,
      "Ġstruggling": 7183,
      "Ġ55": 7184,
      "Ob": 7185,
      "Ġachieved": 7186,
      "Ġwalls": 7187,
      "lv": 7188,
      "Ġconven": 7189,
      "ĠBalt": 7190,
      "ĠAcademy": 7191,
      "rence": 7192,
      "Ġedition": 7193,
      "icul": 7194,
      "ĠDevelopment": 7195,
      "Ġtroub": 7196,
      "Spe": 7197,
      "Ġmovements": 7198,
      "Ġrelief": 7199,
      "Before": 7200,
      "Ġrub": 7201,
      "ĠBu": 7202,
      "ĠKent": 7203,
      "Ġstable": 7204,
      "Ġepisodes": 7205,
      "ĠOregon": 7206,
      "ĠFood": 7207,
      "Ġcomponent": 7208,
      "asp": 7209,
      "Ġtank": 7210,
      "ĠSum": 7211,
      "ĠRand": 7212,
      "Ġiron": 7213,
      "AD": 7214,
      "Ġ_": 7215,
      "unning": 7216,
      "ĠPremier": 7217,
      "den": 7218,
      "07": 7219,
      "Ġ39": 7220,
      "Ġspark": 7221,
      "Ġproducer": 7222,
      "Ġdestruction": 7223,
      "Ġ1998": 7224,
      "Ġbeliefs": 7225,
      "ĠNight": 7226,
      "Ġbacked": 7227,
      "ĠSky": 7228,
      "itals": 7229,
      "Ġliked": 7230,
      "Ġhired": 7231,
      "UT": 7232,
      "Ġexception": 7233,
      "olit": 7234,
      "ĠThree": 7235,
      "Ġroles": 7236,
      "ighter": 7237,
      "Ġlanguages": 7238,
      "ola": 7239,
      "Ġentering": 7240,
      "Ġinterviews": 7241,
      "ĠDark": 7242,
      "Ġphilosophy": 7243,
      "Ġthin": 7244,
      "ĠAdministration": 7245,
      "Ġ65": 7246,
      "Ġarrange": 7247,
      "aid": 7248,
      "tra": 7249,
      "Those": 7250,
      "Ġstadium": 7251,
      "ĠAtlanta": 7252,
      "ĠKingdom": 7253,
      "Ġprofession": 7254,
      "odd": 7255,
      "Ġstrict": 7256,
      "ĠConference": 7257,
      "Ġtackle": 7258,
      "ĠTurkish": 7259,
      "Ġgonna": 7260,
      "ĠRoyal": 7261,
      "Ġ44": 7262,
      "ĠDiego": 7263,
      "Ġfarmers": 7264,
      "Ġnominee": 7265,
      "ĠNation": 7266,
      "chester": 7267,
      "ĠManchester": 7268,
      "Ġcrop": 7269,
      "evit": 7270,
      "Ġinevit": 7271,
      "Ġmedium": 7272,
      "Ġbarely": 7273,
      "ĠRog": 7274,
      "ained": 7275,
      "Ġstructures": 7276,
      "Ġcontained": 7277,
      "ication": 7278,
      "ĠMajor": 7279,
      "ĠJason": 7280,
      "ĠPS": 7281,
      "oma": 7282,
      "ĠVan": 7283,
      "Ġdinner": 7284,
      "Ġdiscrimination": 7285,
      "Ġprocessing": 7286,
      "who": 7287,
      "Ġlights": 7288,
      "Ġlegend": 7289,
      "oget": 7290,
      "ogether": 7291,
      "orith": 7292,
      "Ġalgorith": 7293,
      "Ġcounsel": 7294,
      "Ġ41": 7295,
      "%,": 7296,
      "Ġbrut": 7297,
      "iments": 7298,
      "Ġdelivery": 7299,
      "pass": 7300,
      "ĠCentre": 7301,
      "ĠSpecial": 7302,
      "ius": 7303,
      "ĠIT": 7304,
      "ĠPerhaps": 7305,
      "Ġcompre": 7306,
      "Ġsnow": 7307,
      "Ġupset": 7308,
      "ĠEducation": 7309,
      "Ġchallenging": 7310,
      "war": 7311,
      "Ġrestrictions": 7312,
      "mm": 7313,
      "ĠCare": 7314,
      "rive": 7315,
      "Ġspons": 7316,
      "ĠPre": 7317,
      "Ġhitting": 7318,
      "Ġelectronic": 7319,
      "ependent": 7320,
      "utral": 7321,
      "ĠEll": 7322,
      "49": 7323,
      "Ġreduction": 7324,
      "amsung": 7325,
      "Ġgri": 7326,
      "Ġreviews": 7327,
      "Ġconvicted": 7328,
      "Ġillness": 7329,
      "rain": 7330,
      "Ġindicated": 7331,
      "Ġretired": 7332,
      "Ġborrow": 7333,
      "Ġforever": 7334,
      "Ġproducing": 7335,
      "Ġrapidly": 7336,
      "ĠTake": 7337,
      "Ġtrigger": 7338,
      "Ġweird": 7339,
      "Ġintellectual": 7340,
      "Ġcorporations": 7341,
      "sole": 7342,
      "Ġpump": 7343,
      "iety": 7344,
      "ORE": 7345,
      "ĠTit": 7346,
      "Ġlistening": 7347,
      "piracy": 7348,
      "igation": 7349,
      "anes": 7350,
      "Ġfee": 7351,
      "ĠReuters": 7352,
      "Ġtechnique": 7353,
      "ĠLong": 7354,
      "iform": 7355,
      "Ġuniform": 7356,
      "found": 7357,
      "ĠBru": 7358,
      "friend": 7359,
      "ĠAbout": 7360,
      "Ġnotion": 7361,
      "herent": 7362,
      "Ġrecognition": 7363,
      "Ġbegun": 7364,
      "Ġstem": 7365,
      "Ġfault": 7366,
      "DA": 7367,
      "pool": 7368,
      "Ã©": 7369,
      "ĠOper": 7370,
      "Ġembar": 7371,
      "Ġassociation": 7372,
      "Ġwebsites": 7373,
      "Ġasks": 7374,
      "hab": 7375,
      "Ġtickets": 7376,
      "Ġdescription": 7377,
      "Ġsuggesting": 7378,
      "Ġwarrant": 7379,
      "Ġannounce": 7380,
      "Ġreaching": 7381,
      "Ġexclusive": 7382,
      "ĠDam": 7383,
      "ĠTest": 7384,
      "well": 7385,
      "55": 7386,
      "ĠHarry": 7387,
      "ĠKansas": 7388,
      "Ġflaw": 7389,
      "https": 7390,
      "cons": 7391,
      "Ġprogressive": 7392,
      "viously": 7393,
      "ĠCross": 7394,
      "Ġequally": 7395,
      "ĠUFC": 7396,
      "ga": 7397,
      "Ġhardly": 7398,
      "pread": 7399,
      "idespread": 7400,
      "Ġwidespread": 7401,
      "Ġcampaigns": 7402,
      "Ġmal": 7403,
      "Ġcontribute": 7404,
      "Ġparal": 7405,
      "Ġexceed": 7406,
      "ĠMayor": 7407,
      "Ġinitiative": 7408,
      "ĠMot": 7409,
      "ĠReview": 7410,
      "asion": 7411,
      "Ġpossess": 7412,
      "inson": 7413,
      "Ġnormally": 7414,
      "ĠChristians": 7415,
      "Ġunclear": 7416,
      "Ġplate": 7417,
      "Ġrepresentative": 7418,
      "ĠHol": 7419,
      "opy": 7420,
      "Ġmyth": 7421,
      "ĠGlobal": 7422,
      "Ġreducing": 7423,
      "Ġbranch": 7424,
      "Ġcarefully": 7425,
      "ĠArabia": 7426,
      "Ġfriendly": 7427,
      "Ġcolon": 7428,
      "etary": 7429,
      "ĠLive": 7430,
      "Ġloud": 7431,
      "abinet": 7432,
      "woman": 7433,
      "Ġrespectively": 7434,
      "Ġblast": 7435,
      "Ġracist": 7436,
      "Am": 7437,
      "Ġprepare": 7438,
      "48": 7439,
      "Ġcha": 7440,
      "ĠNote": 7441,
      "ewis": 7442,
      "Ġoverwhelming": 7443,
      "lfare": 7444,
      "Ġwelfare": 7445,
      "Ġconvinced": 7446,
      "senal": 7447,
      "Ġviewers": 7448,
      "Ġinvolvement": 7449,
      "Ġmail": 7450,
      "Ġcollapse": 7451,
      "Ġgear": 7452,
      "Ġ43": 7453,
      "Ġconnections": 7454,
      "cers": 7455,
      "Ġterrorists": 7456,
      "Ġthrown": 7457,
      "ingu": 7458,
      "rating": 7459,
      "Ġstrategic": 7460,
      "pected": 7461,
      "ĠFurther": 7462,
      "Ġ%": 7463,
      "Ġsensitive": 7464,
      "izz": 7465,
      "imore": 7466,
      "Ġsettlement": 7467,
      "isan": 7468,
      "ĠJudge": 7469,
      "Ġstatistics": 7470,
      "ĠBernie": 7471,
      "Ġriver": 7472,
      "Ġfeaturing": 7473,
      "42": 7474,
      "Ġlandsc": 7475,
      "Ġvary": 7476,
      "Ġsettle": 7477,
      "Ġindependence": 7478,
      "Ġdeliber": 7479,
      "Ġthick": 7480,
      "greg": 7481,
      "ĠMcCain": 7482,
      "ĠMax": 7483,
      "ĠCP": 7484,
      "had": 7485,
      "ON": 7486,
      "AM": 7487,
      "ĠAnn": 7488,
      "Ġcomplaints": 7489,
      "Ġinvited": 7490,
      "Ġhabit": 7491,
      "Ġjoining": 7492,
      "Ġscores": 7493,
      "Ġdeeper": 7494,
      "itarian": 7495,
      "Ġunderm": 7496,
      "Ġscream": 7497,
      "ouver": 7498,
      "ancouver": 7499,
      "sylv": 7500,
      "sylvania": 7501,
      "ĠPennsylvania": 7502,
      "foot": 7503,
      "Ġfantasy": 7504,
      "Ġdeputy": 7505,
      "chain": 7506,
      "Ġvital": 7507,
      "ographic": 7508,
      "Ġbehaviour": 7509,
      "Ġanger": 7510,
      "Ġrig": 7511,
      "agan": 7512,
      "ĠMen": 7513,
      "Ġfiscal": 7514,
      "ilton": 7515,
      "Ġsacr": 7516,
      "Ġinvestigate": 7517,
      "Cl": 7518,
      "Ġveget": 7519,
      "ATO": 7520,
      "</": 7521,
      "Ġlists": 7522,
      "Ġscholars": 7523,
      "Ġanybody": 7524,
      "Ġsubjects": 7525,
      "AP": 7526,
      "ĠiOS": 7527,
      "even": 7528,
      "ache": 7529,
      "ĠPoint": 7530,
      "ĠCra": 7531,
      "lights": 7532,
      "Ġownership": 7533,
      "Ġelig": 7534,
      "Ġunemployment": 7535,
      "Ġframework": 7536,
      "ĠAli": 7537,
      "born": 7538,
      "ada": 7539,
      "ĠFar": 7540,
      "ĠDead": 7541,
      "ĠFil": 7542,
      "ĠRick": 7543,
      "Ġlobby": 7544,
      "Ġproven": 7545,
      "Ġimprovements": 7546,
      "ĠSeason": 7547,
      "ĠIII": 7548,
      "aug": 7549,
      "ĠContin": 7550,
      "Ġfinger": 7551,
      "Ġdemocratic": 7552,
      "Ġphysic": 7553,
      "Ġtasks": 7554,
      "Ġwine": 7555,
      "illa": 7556,
      "Ġpeak": 7557,
      "Ġcompe": 7558,
      "ĠLight": 7559,
      "Look": 7560,
      "xit": 7561,
      "ey": 7562,
      "inistry": 7563,
      "ĠMinistry": 7564,
      "Ġjury": 7565,
      "Ġrose": 7566,
      "ĠRadio": 7567,
      "Ġdefine": 7568,
      "Ġmenu": 7569,
      "ĠMusic": 7570,
      "Ġdiscovery": 7571,
      "cles": 7572,
      "itional": 7573,
      "ĠXbox": 7574,
      "esides": 7575,
      "ĠReal": 7576,
      "Ġfailing": 7577,
      "ĠCal": 7578,
      "ĠVR": 7579,
      "Ind": 7580,
      "ĠWood": 7581,
      "Ġserves": 7582,
      "athered": 7583,
      "Ġgathered": 7584,
      "Ġminds": 7585,
      "izon": 7586,
      "Ġimplemented": 7587,
      "Ġcontroversy": 7588,
      "ĠCameron": 7589,
      "acle": 7590,
      "Ġcollective": 7591,
      "Ġtrained": 7592,
      "dit": 7593,
      "otten": 7594,
      "Ġloyal": 7595,
      "Ġsamples": 7596,
      "ĠABC": 7597,
      "Ġfears": 7598,
      "Ġestimate": 7599,
      "ĠLatin": 7600,
      "ograp": 7601,
      "Ġdynamic": 7602,
      "Ġcup": 7603,
      "chen": 7604,
      "ĠCommunity": 7605,
      "Ġreferring": 7606,
      "Ġ1997": 7607,
      "Ġtransgender": 7608,
      "Ġ1996": 7609,
      "47": 7610,
      "Ġregister": 7611,
      "ĠUt": 7612,
      "ĠGreg": 7613,
      "Ġroads": 7614,
      "ker": 7615,
      "ĠMedical": 7616,
      "gged": 7617,
      "Ġversus": 7618,
      "ĠUs": 7619,
      "Ġsoil": 7620,
      "Ġfiction": 7621,
      "Ġlegs": 7622,
      "Ġsugar": 7623,
      "President": 7624,
      "ĠBeach": 7625,
      "Ġtemporary": 7626,
      "leveland": 7627,
      "Ġconstitutional": 7628,
      "tle": 7629,
      "rete": 7630,
      "fast": 7631,
      "ĠAC": 7632,
      "Ġcivilians": 7633,
      "Ġwages": 7634,
      "Ġvisitors": 7635,
      "Ġchat": 7636,
      "ĠCD": 7637,
      "Ġremarks": 7638,
      "Ġprosec": 7639,
      "ĠOk": 7640,
      "Ġalien": 7641,
      "Ġscreens": 7642,
      "Ġrecommended": 7643,
      "ĠInformation": 7644,
      "Ġawareness": 7645,
      "opher": 7646,
      "Ġtone": 7647,
      "Ġnoise": 7648,
      "Ġheading": 7649,
      "Ġethnic": 7650,
      "ĠWalker": 7651,
      "ĠNick": 7652,
      "mony": 7653,
      "Ġregulation": 7654,
      "Ġsmoke": 7655,
      "ĠSquare": 7656,
      "Ġincorpor": 7657,
      "FP": 7658,
      "Ġplatforms": 7659,
      "Ġmilk": 7660,
      "ĠAnthony": 7661,
      "Ġaffairs": 7662,
      "Ġtouchdown": 7663,
      "oric": 7664,
      "ĠSanta": 7665,
      "Ġattacking": 7666,
      "pire": 7667,
      "ĠPA": 7668,
      "Ġpal": 7669,
      "ĠDivision": 7670,
      "Ġtoler": 7671,
      "Ġexternal": 7672,
      "Ġdad": 7673,
      "Ġultimate": 7674,
      "rich": 7675,
      "ĠBrother": 7676,
      "Ġattached": 7677,
      "def": 7678,
      "Ġdiscussions": 7679,
      "chers": 7680,
      "Ġattempting": 7681,
      "aska": 7682,
      "Ġcasual": 7683,
      "Ġtox": 7684,
      "Ġexpanded": 7685,
      "iversary": 7686,
      "Ġraces": 7687,
      "Ġrural": 7688,
      "Ġshit": 7689,
      "ĠVegas": 7690,
      "ĠColumbia": 7691,
      "including": 7692,
      "ĠData": 7693,
      "iter": 7694,
      "Ġsymptoms": 7695,
      "ĠYO": 7696,
      "ĠMatthew": 7697,
      "Ġpractical": 7698,
      "Ġignore": 7699,
      "Ġsettings": 7700,
      "ĠPatrick": 7701,
      "weight": 7702,
      "ĠGuardian": 7703,
      "Ġtweeted": 7704,
      "arah": 7705,
      "heast": 7706,
      "Ġguit": 7707,
      "Ġarray": 7708,
      "Ġformal": 7709,
      "Ġsuspected": 7710,
      "ĠAllen": 7711,
      "Ġpurchased": 7712,
      "Ġpublication": 7713,
      "Ġbail": 7714,
      "Ġfed": 7715,
      "Ġreven": 7716,
      "Ġsalary": 7717,
      "ĠNSA": 7718,
      "ĠOak": 7719,
      "Ġfactory": 7720,
      "Ġelev": 7721,
      "cus": 7722,
      "EC": 7723,
      "Ġranked": 7724,
      "celer": 7725,
      "Ġacceler": 7726,
      "iants": 7727,
      "han": 7728,
      "Ġaver": 7729,
      "Ġhandful": 7730,
      "omething": 7731,
      "ĠRa": 7732,
      "Ġenormous": 7733,
      "ĠWater": 7734,
      "ĠOnt": 7735,
      "Ġextend": 7736,
      "Ġimprovement": 7737,
      "Ġviewed": 7738,
      "Ġentertainment": 7739,
      "Ġlegitimate": 7740,
      "Ġbrill": 7741,
      "Ġblind": 7742,
      "ĠProfessor": 7743,
      "ints": 7744,
      "ĠDoug": 7745,
      "Ġingred": 7746,
      "Ġlogic": 7747,
      "ĠConservative": 7748,
      "uset": 7749,
      "usetts": 7750,
      "achusetts": 7751,
      "ĠMassachusetts": 7752,
      "Ġ2019": 7753,
      "ĠAPI": 7754,
      "vy": 7755,
      "Ġhide": 7756,
      "Ġadmit": 7757,
      "Ġactors": 7758,
      "aron": 7759,
      "Ġhumanity": 7760,
      "Ġinvolves": 7761,
      "Ġinquir": 7762,
      "otes": 7763,
      "Ġwww": 7764,
      "Ġdict": 7765,
      "Ġcrypt": 7766,
      "Ġbrothers": 7767,
      "ĠAustin": 7768,
      "Ġseemingly": 7769,
      "Ġsorry": 7770,
      "Ġsubstantial": 7771,
      "Ġaccus": 7772,
      "Ġinvestigating": 7773,
      "Ġabsence": 7774,
      "Ġproviders": 7775,
      "Ġeastern": 7776,
      "About": 7777,
      "Who": 7778,
      "Ġlayer": 7779,
      "Ġcoaches": 7780,
      "Ġhang": 7781,
      "Ġocean": 7782,
      "Ġfallen": 7783,
      "Ġknock": 7784,
      "Ġadvocates": 7785,
      "Ġloans": 7786,
      "Ġinvestigators": 7787,
      "Ġconspiracy": 7788,
      "Ġburd": 7789,
      "Ġmedicine": 7790,
      "Ġdevast": 7791,
      "Ġdramatic": 7792,
      "Ġchapter": 7793,
      "ĠMarket": 7794,
      "ĠQueen": 7795,
      "Ġtomorrow": 7796,
      "Ġluck": 7797,
      "Ġchoo": 7798,
      "Ġsuspended": 7799,
      "Ġpapers": 7800,
      "Ġpropag": 7801,
      "ĠHot": 7802,
      "Ġmonitor": 7803,
      "ĠOtt": 7804,
      "ĠGreece": 7805,
      "enders": 7806,
      "ĠOK": 7807,
      "amber": 7808,
      "hour": 7809,
      "Ġopinions": 7810,
      "Ġactivist": 7811,
      "Ġstayed": 7812,
      "arry": 7813,
      "ĠFoot": 7814,
      "Ġdiversity": 7815,
      "Ġapolog": 7816,
      "Ġwing": 7817,
      "intendo": 7818,
      "Ġraw": 7819,
      "Ġmissile": 7820,
      "Ġoffices": 7821,
      "Ġbars": 7822,
      "ĠBull": 7823,
      "400": 7824,
      "Ġrecover": 7825,
      "ials": 7826,
      "ifts": 7827,
      "ĠâĤ¬": 7828,
      "ĠESPN": 7829,
      "ĠIranian": 7830,
      "Ġcovers": 7831,
      "Ġclock": 7832,
      "Ġcareful": 7833,
      "ĠCast": 7834,
      "orough": 7835,
      "ĠAction": 7836,
      "Pro": 7837,
      "aser": 7838,
      "Ġamid": 7839,
      "iverpool": 7840,
      "ĠAND": 7841,
      "ĠField": 7842,
      "ĠNext": 7843,
      "Ġsuffer": 7844,
      "Ġholiday": 7845,
      "Ġtransportation": 7846,
      "2014": 7847,
      "ĠGaza": 7848,
      "ĠHistory": 7849,
      "Ġsmooth": 7850,
      "Ġconsistently": 7851,
      "Ġlicens": 7852,
      "Ġreads": 7853,
      "Ġattitude": 7854,
      "Ġ47": 7855,
      "inois": 7856,
      "ĠIllinois": 7857,
      "ĠOrgan": 7858,
      "ĠMuseum": 7859,
      "Ġprotocol": 7860,
      "nedy": 7861,
      "ĠKennedy": 7862,
      "iration": 7863,
      "Ġmountain": 7864,
      "Ġdepends": 7865,
      "Ġmining": 7866,
      "Ġnoting": 7867,
      "Related": 7868,
      "Ġdisagree": 7869,
      "ĠRem": 7870,
      "Ġlowest": 7871,
      "Ġaddressed": 7872,
      "rum": 7873,
      "pal": 7874,
      "Sec": 7875,
      "ĠVancouver": 7876,
      "ĠDid": 7877,
      "41": 7878,
      "Ġthrowing": 7879,
      "Ġvirtually": 7880,
      "ĠSuch": 7881,
      "Ġwithdraw": 7882,
      "Ġcolors": 7883,
      "Ġguarantee": 7884,
      "Ġsoph": 7885,
      "Ġspeaks": 7886,
      "Ġwra": 7887,
      ".-": 7888,
      "riers": 7889,
      "Ġclosing": 7890,
      "asters": 7891,
      "Ġincent": 7892,
      "Ġgall": 7893,
      "unior": 7894,
      "Ġalter": 7895,
      "ĠAnderson": 7896,
      "eda": 7897,
      "Ġrook": 7898,
      "Ġpersonality": 7899,
      "ĠMic": 7900,
      "ĠRevolution": 7901,
      "ĠFamily": 7902,
      "Ġreader": 7903,
      "Ġble": 7904,
      "Ġappreciate": 7905,
      "ĠStadium": 7906,
      "ĠGov": 7907,
      "Ġridicul": 7908,
      "Ġremem": 7909,
      "ĠHit": 7910,
      "uk": 7911,
      "burgh": 7912,
      "ĠBaltimore": 7913,
      "inding": 7914,
      "Ġprofits": 7915,
      "upid": 7916,
      "Ġstupid": 7917,
      "Ġ46": 7918,
      "prise": 7919,
      "ĠCall": 7920,
      "oster": 7921,
      "Ġtries": 7922,
      "Ġhandling": 7923,
      "198": 7924,
      "Both": 7925,
      "Ġcontributions": 7926,
      "ĠIraqi": 7927,
      "Ġ52": 7928,
      "Ġclothes": 7929,
      "uted": 7930,
      "Ġconversations": 7931,
      "Ġspaces": 7932,
      "Ġfantastic": 7933,
      "ĠFort": 7934,
      "Ġtestim": 7935,
      "cho": 7936,
      "Ġcovering": 7937,
      "43": 7938,
      "Ġhanded": 7939,
      "fe": 7940,
      "Ġtea": 7941,
      "Ġneutral": 7942,
      "Ġproport": 7943,
      "Ġconsole": 7944,
      "ĠFall": 7945,
      "Ġhorror": 7946,
      "Ġgenetic": 7947,
      "65": 7948,
      "Ġencouraged": 7949,
      "Ġdepression": 7950,
      "oen": 7951,
      "Ġincidents": 7952,
      "Ġshoulder": 7953,
      "ĠSony": 7954,
      "Ġlucky": 7955,
      "Ġinject": 7956,
      "Ġgains": 7957,
      "Ġcitizen": 7958,
      "ĠPhilipp": 7959,
      "Ġsubsequent": 7960,
      "ĠFund": 7961,
      "Ġspoken": 7962,
      "Pl": 7963,
      "Ġdrew": 7964,
      "ucks": 7965,
      "Ġscandal": 7966,
      "ĠHoward": 7967,
      "ĠWi": 7968,
      "Ġranks": 7969,
      "ĠGolden": 7970,
      "ĠCleveland": 7971,
      "ĠFull": 7972,
      "Ġphotograp": 7973,
      "ĠIntelligence": 7974,
      "cling": 7975,
      "Ġextract": 7976,
      "resent": 7977,
      "Ġgrounds": 7978,
      "ĠNever": 7979,
      "ĠRE": 7980,
      "Ġtheat": 7981,
      "ocation": 7982,
      "Ġdivided": 7983,
      "Ġ1995": 7984,
      "sels": 7985,
      "Ġmaps": 7986,
      "ĠNATO": 7987,
      "Ġbath": 7988,
      "ĠSnow": 7989,
      "Ġobst": 7990,
      "Ġkm": 7991,
      "Ġorigin": 7992,
      "inity": 7993,
      "Ġtip": 7994,
      "Please": 7995,
      "Ġdistributed": 7996,
      "Ġdrama": 7997,
      "ĠLewis": 7998,
      "Ġinnovation": 7999,
      "Ġstake": 8000,
      "ĠUnfortunately": 8001,
      "ĠCam": 8002,
      "Ġshell": 8003,
      "Ġvoter": 8004,
      "page": 8005,
      "Ġpremium": 8006,
      "Ġdispl": 8007,
      "ĠCBS": 8008,
      "Ġaffili": 8009,
      "2016": 8010,
      "ĠIndeed": 8011,
      "Ġpromises": 8012,
      "Ġefficiency": 8013,
      "Where": 8014,
      "ĠEngine": 8015,
      "Ġunex": 8016,
      "ĠMexican": 8017,
      "ĠBrook": 8018,
      "ĠiP": 8019,
      "Ġcomprehens": 8020,
      "\".[": 8021,
      "ĠHospital": 8022,
      "ĠWhich": 8023,
      "Ġtemperatures": 8024,
      "Ġspokesperson": 8025,
      "ijing": 8026,
      "Ġlocked": 8027,
      "Ġimproving": 8028,
      "Ġlying": 8029,
      "inem": 8030,
      "Ġthrew": 8031,
      "Ġencounter": 8032,
      "Ġflash": 8033,
      "Ġresource": 8034,
      "ĠLittle": 8035,
      "ĠSamsung": 8036,
      "Ġmistakes": 8037,
      "Ġjudges": 8038,
      "ĠEnvironment": 8039,
      "DS": 8040,
      "US": 8041,
      "Ġhomeless": 8042,
      "lix": 8043,
      "flix": 8044,
      "Ġintervention": 8045,
      "rass": 8046,
      "Ġembarrass": 8047,
      "Ġreplacement": 8048,
      "Ġcomedy": 8049,
      "Ġdu": 8050,
      "ĠWithout": 8051,
      "Ġacknowledged": 8052,
      "Ġresponses": 8053,
      "ĠAlbert": 8054,
      "Ġprotecting": 8055,
      "Ġobser": 8056,
      "95": 8057,
      "Ġspiritual": 8058,
      "Ġwheel": 8059,
      "Go": 8060,
      "Ġbarrel": 8061,
      "osexual": 8062,
      "ĠBry": 8063,
      "Ġastron": 8064,
      "uties": 8065,
      "Ġcopies": 8066,
      "Ġneck": 8067,
      "Ġpresum": 8068,
      "Ġbreaks": 8069,
      "Ġcommonly": 8070,
      "ystem": 8071,
      "Ġlegacy": 8072,
      "rett": 8073,
      "Ġ51": 8074,
      "Ġjoke": 8075,
      "wered": 8076,
      "Ġpassengers": 8077,
      "Ġboat": 8078,
      "ĠChair": 8079,
      "Ġnaturally": 8080,
      "ython": 8081,
      "Ġlets": 8082,
      "Ġnomination": 8083,
      "Ġporn": 8084,
      "istent": 8085,
      "Ġmeasured": 8086,
      "amac": 8087,
      "amacare": 8088,
      "Ġtap": 8089,
      "Ġabandoned": 8090,
      "Ġprotein": 8091,
      "ĠInvest": 8092,
      "Russ": 8093,
      "Ġstudied": 8094,
      "xy": 8095,
      "rators": 8096,
      "ĠControl": 8097,
      "Ġacquired": 8098,
      "bn": 8099,
      "Ġju": 8100,
      "Ġmathem": 8101,
      "Ġdemonstrated": 8102,
      "force": 8103,
      "Ġfunded": 8104,
      "Ġheadquarters": 8105,
      "Ġdiverse": 8106,
      "olen": 8107,
      "Ġstolen": 8108,
      "ĠTown": 8109,
      "ĠPlus": 8110,
      "Ar": 8111,
      "Ġcounts": 8112,
      "ME": 8113,
      "ĠRel": 8114,
      "Ġordinary": 8115,
      "Ġmidfield": 8116,
      "Ġliterature": 8117,
      "Ġstages": 8118,
      "Ġ1994": 8119,
      "yr": 8120,
      "Ġfalls": 8121,
      "helsea": 8122,
      "Ġarrive": 8123,
      "Ġballot": 8124,
      "Ġignored": 8125,
      "Ġscope": 8126,
      "ĠPrince": 8127,
      "Ġmarks": 8128,
      "cked": 8129,
      "Ġvirus": 8130,
      "scale": 8131,
      "Ġunions": 8132,
      "ndum": 8133,
      "Ġreferendum": 8134,
      "Ġconservatives": 8135,
      "rect": 8136,
      "Ġguest": 8137,
      "ĠSpring": 8138,
      "46": 8139,
      "Ġfulf": 8140,
      "Ġtwenty": 8141,
      "inians": 8142,
      "ĠRay": 8143,
      "ĠAtlantic": 8144,
      "Ġexit": 8145,
      "Ġdance": 8146,
      "zen": 8147,
      "Ġshopping": 8148,
      "Ġcapabilities": 8149,
      "ĠBell": 8150,
      "Ġresign": 8151,
      "Ġhelpful": 8152,
      "ossil": 8153,
      "Ġfossil": 8154,
      "NE": 8155,
      "Ġlands": 8156,
      "otted": 8157,
      "Ġusage": 8158,
      "Ġ(âĢľ": 8159,
      "ĠDoes": 8160,
      "actions": 8161,
      "Ġtransactions": 8162,
      "Ġhoped": 8163,
      "2015": 8164,
      "ĠIndiana": 8165,
      "ĠEmpire": 8166,
      "ĠPack": 8167,
      "Ġextraord": 8168,
      "Ġupgrade": 8169,
      "ĠAnton": 8170,
      "Ġinner": 8171,
      "ĠTal": 8172,
      "Ġmechanism": 8173,
      "Ġassessment": 8174,
      "Ġuniversities": 8175,
      "Ġmarch": 8176,
      "Ġsteel": 8177,
      "Ġmonitoring": 8178,
      "Ġrepresenting": 8179,
      "Ġdisrupt": 8180,
      "Ġprovin": 8181,
      "lah": 8182,
      "lahoma": 8183,
      "Ġstone": 8184,
      "Ġfestival": 8185,
      "Ġratio": 8186,
      "Ġrhet": 8187,
      "ĠBudd": 8188,
      "ĠMake": 8189,
      "ĠGetty": 8190,
      "Ġtrave": 8191,
      "ĠSometimes": 8192,
      "Ġtracking": 8193,
      "ĠâĢ¢": 8194,
      "Ġreliable": 8195,
      "Ġproposals": 8196,
      "press": 8197,
      "Ġceleb": 8198,
      "Ġreplied": 8199,
      "Ġcriticized": 8200,
      "Ġappearances": 8201,
      "appy": 8202,
      "Ġhypot": 8203,
      "ĠMarvel": 8204,
      "Ear": 8205,
      "Ġconventional": 8206,
      "igare": 8207,
      "igarett": 8208,
      "aeda": 8209,
      "Ġsharp": 8210,
      "Ġinsisted": 8211,
      "Ġshout": 8212,
      "ennis": 8213,
      "Ġintroduction": 8214,
      "Ġappointed": 8215,
      "Ġinflation": 8216,
      "ĠFreedom": 8217,
      "Ġscan": 8218,
      "igital": 8219,
      "ĠCore": 8220,
      "Ġsupplies": 8221,
      "Ġstab": 8222,
      "Ġperforming": 8223,
      "Ġ2020": 8224,
      "Ġracism": 8225,
      "Ġbeauty": 8226,
      "Ġutil": 8227,
      "Ġreceiver": 8228,
      "Facebook": 8229,
      "ĠCapt": 8230,
      "Ġswing": 8231,
      "utive": 8232,
      "ecutive": 8233,
      "Ġchecks": 8234,
      "Ġvisiting": 8235,
      "bour": 8236,
      "'.": 8237,
      "ĠFootball": 8238,
      "ĠFO": 8239,
      "Ġletting": 8240,
      "ivals": 8241,
      "usive": 8242,
      "Ġdeficit": 8243,
      "ĠHarris": 8244,
      "ĠTechnology": 8245,
      "Ġmargin": 8246,
      "Ġprogramme": 8247,
      "Ġpresidency": 8248,
      "under": 8249,
      "Ġaccomplish": 8250,
      "ĠKong": 8251,
      "ĠGalaxy": 8252,
      "zer": 8253,
      "iana": 8254,
      "Ġblocked": 8255,
      "ĠDenver": 8256,
      "Ġmos": 8257,
      "itage": 8258,
      "obb": 8259,
      "theless": 8260,
      "Ġdrove": 8261,
      "Ġlandscape": 8262,
      "ĠIce": 8263,
      "ĠVol": 8264,
      "Ġportray": 8265,
      "Ġdismissed": 8266,
      "Note": 8267,
      "ĠOS": 8268,
      "Ġabroad": 8269,
      "Ġmusical": 8270,
      "Ġhorse": 8271,
      "mate": 8272,
      "Ġpredicted": 8273,
      "onso": 8274,
      "Ġsequence": 8275,
      "ÂĴ": 8276,
      "ĠAssociated": 8277,
      "water": 8278,
      "Ġpersons": 8279,
      "Ġskept": 8280,
      "Ġmuseum": 8281,
      "Ġbureau": 8282,
      "col": 8283,
      "ĠSaf": 8284,
      "lands": 8285,
      "ĠOntario": 8286,
      "perial": 8287,
      "Ġdates": 8288,
      "Ġtestimony": 8289,
      "Ġrequested": 8290,
      "Ġcenters": 8291,
      "assador": 8292,
      "Ġcongressional": 8293,
      "Ġdomain": 8294,
      "Ġspokeswoman": 8295,
      "Ġclassified": 8296,
      "Ġentitled": 8297,
      "Ġhockey": 8298,
      "Ġhun": 8299,
      "Ġdeter": 8300,
      "Ġrescue": 8301,
      "Ġsilver": 8302,
      "ĠBureau": 8303,
      "ĠSweden": 8304,
      "Ġequality": 8305,
      "Ġurged": 8306,
      "ĠNintendo": 8307,
      "Ġfruit": 8308,
      "Ġveterans": 8309,
      "Ġuncom": 8310,
      "Ġdocumentary": 8311,
      "ĠOlympic": 8312,
      "ĠStone": 8313,
      "ĠUse": 8314,
      "Ġexport": 8315,
      "51": 8316,
      "Ġwrest": 8317,
      "Your": 8318,
      "Ġpopulations": 8319,
      "ĠBrew": 8320,
      "MA": 8321,
      "ĠAlexander": 8322,
      "Ġconcrete": 8323,
      "asts": 8324,
      "active": 8325,
      "II": 8326,
      "Ġwhenever": 8327,
      "Ġviolation": 8328,
      "ĠPen": 8329,
      "Ġtactics": 8330,
      "Ġtargeting": 8331,
      "Ġpursue": 8332,
      "Ġbonus": 8333,
      "Ġwider": 8334,
      "Ġfiring": 8335,
      "ĠUtah": 8336,
      "Ġguitar": 8337,
      "iveness": 8338,
      "Ġrestaurants": 8339,
      "uits": 8340,
      "Ġemployed": 8341,
      "ĠRose": 8342,
      "ĠDO": 8343,
      "Ġpolitically": 8344,
      "ĠFred": 8345,
      "Ġtouc": 8346,
      "kin": 8347,
      "App": 8348,
      "ĠShare": 8349,
      "tr": 8350,
      "ĠRoy": 8351,
      "ommod": 8352,
      "Ġaccommod": 8353,
      "itors": 8354,
      "Ġyellow": 8355,
      "Ġsatellite": 8356,
      "Ġinstrument": 8357,
      "Ġretirement": 8358,
      "ĠPortland": 8359,
      "Ġrear": 8360,
      "Ġbanking": 8361,
      "ĠPan": 8362,
      "alo": 8363,
      "Ġwars": 8364,
      "Ġchannels": 8365,
      "Ġbrilliant": 8366,
      "ĠBible": 8367,
      "Ġtape": 8368,
      "etime": 8369,
      "produ": 8370,
      "ĠCir": 8371,
      "Ġwaters": 8372,
      "Ġgrid": 8373,
      "Yet": 8374,
      "Ġexperiments": 8375,
      "Ġservers": 8376,
      "Ġprisoners": 8377,
      "Ġsoccer": 8378,
      "Ġintroduce": 8379,
      "ĠBeijing": 8380,
      "ï¿": 8381,
      "ï¿½": 8382,
      "Ġswim": 8383,
      "TV": 8384,
      "Still": 8385,
      "ĠRoberts": 8386,
      "Ġcompare": 8387,
      "Ġfighter": 8388,
      "Ġartific": 8389,
      "52": 8390,
      "Ġscientist": 8391,
      "Ġsenator": 8392,
      "Ġapproached": 8393,
      "\")": 8394,
      "ĠEag": 8395,
      "ĠSal": 8396,
      "Ġmonthly": 8397,
      "Ġrepresentatives": 8398,
      "Ġdesigns": 8399,
      "Ġhook": 8400,
      "Ġpopularity": 8401,
      "Ġabilities": 8402,
      "IV": 8403,
      "Ġtitled": 8404,
      "Ġmembership": 8405,
      "Ġgrass": 8406,
      "Ġinvestigations": 8407,
      "Ġfocusing": 8408,
      "cking": 8409,
      "Ġquote": 8410,
      "Ġreprodu": 8411,
      "Ġmole": 8412,
      "Ġsaving": 8413,
      "antic": 8414,
      "cific": 8415,
      "Sen": 8416,
      "Dr": 8417,
      "Ġobjective": 8418,
      "raction": 8419,
      "ĠLiverpool": 8420,
      "Ġbact": 8421,
      "Ġphrase": 8422,
      "Ġliquid": 8423,
      "Ġpin": 8424,
      "ĠGall": 8425,
      "ĠGirl": 8426,
      "Ġpipeline": 8427,
      "Ġratings": 8428,
      "Ġrush": 8429,
      "ources": 8430,
      "unicip": 8431,
      "ico": 8432,
      "Ġtips": 8433,
      "Ġactively": 8434,
      "ĠAge": 8435,
      "Ġdemanding": 8436,
      "Ġhung": 8437,
      "59": 8438,
      "Ġfemin": 8439,
      "Ġfab": 8440,
      "Ġsmoking": 8441,
      "Bl": 8442,
      "Ġargues": 8443,
      "Ġdeny": 8444,
      "Ġunexpected": 8445,
      "Ġphenomenon": 8446,
      "Ġtransit": 8447,
      "Ġoverseas": 8448,
      "phones": 8449,
      "Ġcogn": 8450,
      "Ġsettled": 8451,
      "ĠHarvard": 8452,
      "ules": 8453,
      "Ġles": 8454,
      "making": 8455,
      "they": 8456,
      "Ġgenerations": 8457,
      "Ġpreparing": 8458,
      "Ġweekly": 8459,
      "Ġsmartphone": 8460,
      "Ġproducers": 8461,
      "ĠArch": 8462,
      "Ġanxiety": 8463,
      "ĠAward": 8464,
      "ĠTy": 8465,
      "Ġcelebrate": 8466,
      "Ġinnocent": 8467,
      "Will": 8468,
      "Ġarguing": 8469,
      "repre": 8470,
      "reprene": 8471,
      "Ġentreprene": 8472,
      "54": 8473,
      "Dav": 8474,
      "ĠMaryland": 8475,
      "Ġquestioned": 8476,
      "ĠBattle": 8477,
      "Ġforcing": 8478,
      "Ġloose": 8479,
      "ĠAL": 8480,
      "Ġbroader": 8481,
      "wr": 8482,
      "Ġsurvival": 8483,
      "minute": 8484,
      "ĠJustin": 8485,
      "ĠClark": 8486,
      "mun": 8487,
      "rates": 8488,
      "isms": 8489,
      "Ġdeadly": 8490,
      "ĠTreas": 8491,
      "Ġdeem": 8492,
      "ĠLand": 8493,
      "Ġchest": 8494,
      "Ġwealthy": 8495,
      "ĠObamacare": 8496,
      "Ġmaintained": 8497,
      "Ġped": 8498,
      "Ġsurely": 8499,
      "Ġweigh": 8500,
      "ĠScient": 8501,
      "Ġreverse": 8502,
      "Ġplain": 8503,
      "Ġdump": 8504,
      "ĠHave": 8505,
      "Ġsecondary": 8506,
      "ussell": 8507,
      "Ġsavings": 8508,
      "otic": 8509,
      "Ġkil": 8510,
      "Ġstability": 8511,
      "ught": 8512,
      "ĠDave": 8513,
      "Ġreveals": 8514,
      "Ġcivilian": 8515,
      "Ġcorrel": 8516,
      "Ġanniversary": 8517,
      "Ġsorts": 8518,
      "Ġchicken": 8519,
      "Ġves": 8520,
      "ĠGovernor": 8521,
      "Ġreleases": 8522,
      "ĠIR": 8523,
      "Ġtonight": 8524,
      "Ġrooms": 8525,
      "Ġprosecutors": 8526,
      "eping": 8527,
      "aware": 8528,
      "lel": 8529,
      "Ġparallel": 8530,
      "Ġdisorder": 8531,
      "Ġwedd": 8532,
      "Ġdifferently": 8533,
      "!)": 8534,
      "Ġharassment": 8535,
      "Ġhealthcare": 8536,
      "Ġsubmitted": 8537,
      "Under": 8538,
      "Se": 8539,
      "Ġquoted": 8540,
      "Ġramp": 8541,
      "rance": 8542,
      "Ġreforms": 8543,
      "ĠâĢĿ": 8544,
      "inction": 8545,
      "ĠCarter": 8546,
      "Ġlegislative": 8547,
      "interest": 8548,
      "eties": 8549,
      "Ġstored": 8550,
      "Ġchildhood": 8551,
      "Ġpropaganda": 8552,
      "icks": 8553,
      "rets": 8554,
      "Ġspots": 8555,
      "Ġkeys": 8556,
      "Ġinstructions": 8557,
      "Ġ1992": 8558,
      "Ġrounds": 8559,
      "Ġalert": 8560,
      "Ġshield": 8561,
      "fare": 8562,
      "type": 8563,
      "Ġerrors": 8564,
      "ĠOklahoma": 8565,
      "ĠVietnam": 8566,
      "Ġsurge": 8567,
      "Ġsilence": 8568,
      "iary": 8569,
      "Ġthreatening": 8570,
      "Ġunp": 8571,
      "Ġfate": 8572,
      "Ġgraduate": 8573,
      "Ġaffordable": 8574,
      "Ġcoc": 8575,
      "Ġcooperation": 8576,
      "ĠPitt": 8577,
      "Ġpicks": 8578,
      "Ġcaptain": 8579,
      "Ġmortg": 8580,
      "Post": 8581,
      "ss": 8582,
      "Ġodds": 8583,
      "vin": 8584,
      "Ġstriking": 8585,
      "Ġabsor": 8586,
      "Ġcomprehensive": 8587,
      "Ġovers": 8588,
      "Ġokay": 8589,
      "Ġstreaming": 8590,
      "Ġimportantly": 8591,
      "Ġinequ": 8592,
      "ĠMS": 8593,
      "only": 8594,
      "Ġstruggled": 8595,
      "ĠKey": 8596,
      "Ġsty": 8597,
      "gun": 8598,
      "Ġrender": 8599,
      "izab": 8600,
      "izabeth": 8601,
      "Ġcircle": 8602,
      "ĠIN": 8603,
      "ĠGraham": 8604,
      "Ġshame": 8605,
      "Ġdeserve": 8606,
      "Ġceremony": 8607,
      "Ġlanding": 8608,
      "ĠEdward": 8609,
      "Ġwindows": 8610,
      "Ġmere": 8611,
      "Ġdemonstrate": 8612,
      "Back": 8613,
      "Ġdifficulty": 8614,
      "ĠSarah": 8615,
      "Ġterr": 8616,
      "Ġages": 8617,
      "Ġ95": 8618,
      "Ġdying": 8619,
      "Reuters": 8620,
      "Ġforecast": 8621,
      "Ġstepped": 8622,
      "Ġcance": 8623,
      "eline": 8624,
      "Ġborders": 8625,
      "Ġassumed": 8626,
      "Ġunw": 8627,
      "Ġpointing": 8628,
      "usalem": 8629,
      "ĠJerusalem": 8630,
      "plus": 8631,
      "Though": 8632,
      "53": 8633,
      "ĠIntel": 8634,
      "Ġ53": 8635,
      "Ġprecisely": 8636,
      "Ġarchitecture": 8637,
      "Ġgreatly": 8638,
      "ordon": 8639,
      "Ġconsideration": 8640,
      "Ġdialogue": 8641,
      "ĠNetflix": 8642,
      "Ġwaves": 8643,
      "Ġnewsletter": 8644,
      "Ġrookie": 8645,
      "ĠAv": 8646,
      "oil": 8647,
      "aly": 8648,
      "Ġunpre": 8649,
      "itionally": 8650,
      "ĠMeanwhile": 8651,
      "Ġawarded": 8652,
      "Ġcontribution": 8653,
      "remend": 8654,
      "Ġtremend": 8655,
      "Ġrif": 8656,
      "ĠStart": 8657,
      "Ġcow": 8658,
      "Ġrocket": 8659,
      "Ġburning": 8660,
      "Ġtab": 8661,
      "sters": 8662,
      "ĠCle": 8663,
      "Ġdonations": 8664,
      "PR": 8665,
      "list": 8666,
      "Ġpromising": 8667,
      "ĠLt": 8668,
      "Ġvoices": 8669,
      "Ġdisg": 8670,
      "ĠTw": 8671,
      "umes": 8672,
      "Ġwanting": 8673,
      "ĠVice": 8674,
      "Ġprocedure": 8675,
      "Ġfrequency": 8676,
      "Ġmagn": 8677,
      "Ġham": 8678,
      "ĠScottish": 8679,
      "ĠSir": 8680,
      "Ġexecutives": 8681,
      "Ġplayoffs": 8682,
      "ĠWarren": 8683,
      "esh": 8684,
      "Ġsear": 8685,
      "ĠBruce": 8686,
      "Ġstaying": 8687,
      "ĠLink": 8688,
      "ĠGulf": 8689,
      "ĠCit": 8690,
      "Ġdrives": 8691,
      "Ġdisturb": 8692,
      "Ġbias": 8693,
      "Ġcooper": 8694,
      "ĠAmong": 8695,
      "Ġinches": 8696,
      "Ġdust": 8697,
      "Ġhighlights": 8698,
      "ultane": 8699,
      "Ġsimultane": 8700,
      "Ġremarkable": 8701,
      "ĠPalestinians": 8702,
      "Ġwhereas": 8703,
      "Ġimplications": 8704,
      "ĠJonathan": 8705,
      "Ġstrategies": 8706,
      "ĠLeader": 8707,
      "Ġformation": 8708,
      "ĠRoss": 8709,
      "ĠIns": 8710,
      "raph": 8711,
      "Ġtail": 8712,
      "ĠCode": 8713,
      "ĠOrig": 8714,
      "ĠAng": 8715,
      "dney": 8716,
      "ĠSydney": 8717,
      "Ġtorture": 8718,
      "Ġuniversal": 8719,
      "Ġcategories": 8720,
      "ĠYOU": 8721,
      "Ġcontacted": 8722,
      "Ġsuperior": 8723,
      "Ġprepar": 8724,
      "Ġlunch": 8725,
      "Ġdisappear": 8726,
      "ammed": 8727,
      "Ġemerging": 8728,
      "ĠTed": 8729,
      "Ġfollowers": 8730,
      "ĠLas": 8731,
      "dated": 8732,
      "Ġcontrad": 8733,
      "Ġbirds": 8734,
      "ĠWW": 8735,
      "Ġsurf": 8736,
      "Ġtrillion": 8737,
      "Ġaccessible": 8738,
      "iest": 8739,
      "Ġphysically": 8740,
      "Ġassigned": 8741,
      "De": 8742,
      "door": 8743,
      "ĠNOT": 8744,
      "ashes": 8745,
      "Ġsmile": 8746,
      "Ġinfo": 8747,
      "rist": 8748,
      "Ġguidelines": 8749,
      "ective": 8750,
      "ĠCheck": 8751,
      "Ġdefeated": 8752,
      "Source": 8753,
      "fire": 8754,
      "aze": 8755,
      "Ġtrials": 8756,
      "Ġmanaging": 8757,
      "ĠMORE": 8758,
      "Ġministry": 8759,
      "Ġsemi": 8760,
      "Ġriding": 8761,
      "Ġwounded": 8762,
      "Ġindicates": 8763,
      "Ġcenturies": 8764,
      "annel": 8765,
      "Ġassass": 8766,
      "Ġgrade": 8767,
      "Ġtie": 8768,
      "ĠLiberal": 8769,
      "ĠAffairs": 8770,
      "ĠMoon": 8771,
      "Ġsalt": 8772,
      "::": 8773,
      "ifications": 8774,
      "Ġassign": 8775,
      "cience": 8776,
      "Ġpuzz": 8777,
      "mes": 8778,
      "html": 8779,
      "Ġperpet": 8780,
      "anny": 8781,
      "Ġgro": 8782,
      "ĠUlt": 8783,
      "Ġclothing": 8784,
      "Ġrelax": 8785,
      "ãĢ": 8786,
      "Ġtiss": 8787,
      "ĠRuby": 8788,
      "ĠMrs": 8789,
      "Ġfilter": 8790,
      "ĠNev": 8791,
      "Ġparticipation": 8792,
      "Ġoutrage": 8793,
      "cuse": 8794,
      "Ġcalm": 8795,
      "hent": 8796,
      "Ġauthent": 8797,
      "Ġsup": 8798,
      "800": 8799,
      "Ġencry": 8800,
      "ĠMagic": 8801,
      "Ġcompeting": 8802,
      "ĠPatri": 8803,
      "Ġmemories": 8804,
      "ĠCa": 8805,
      "Ġtheories": 8806,
      "Ġmeaningful": 8807,
      "ĠJenn": 8808,
      "Ġrecipe": 8809,
      "rical": 8810,
      "Ġaged": 8811,
      "Ġknee": 8812,
      "Ġtwist": 8813,
      "Ġunt": 8814,
      "Ġlapt": 8815,
      "third": 8816,
      "vertisements": 8817,
      "Ġdispute": 8818,
      "Ġpetition": 8819,
      "Ġdamaged": 8820,
      "Ġ1993": 8821,
      "ĠPrice": 8822,
      "ĠMoh": 8823,
      "rolled": 8824,
      "Ġdrone": 8825,
      "Ġhosted": 8826,
      "Ġsubstance": 8827,
      "Ġpromoting": 8828,
      "Ġopenly": 8829,
      "Ġmoon": 8830,
      "haust": 8831,
      "Ġexhaust": 8832,
      "Ġtoxic": 8833,
      "ĠChelsea": 8834,
      "ĠRam": 8835,
      "Ġ1950": 8836,
      "omin": 8837,
      "Ġinvestments": 8838,
      "comes": 8839,
      "Ġconsensus": 8840,
      "Ġsubscrib": 8841,
      "Ġ00": 8842,
      "Ġclinical": 8843,
      "ĠIndust": 8844,
      "ĠBrexit": 8845,
      "Ġfold": 8846,
      "essed": 8847,
      "Ġcream": 8848,
      "ustody": 8849,
      "Ġcustody": 8850,
      "Ġeligible": 8851,
      "ĠFe": 8852,
      "Ġlegally": 8853,
      "Ġmissions": 8854,
      "Ġendorse": 8855,
      "Ġbuff": 8856,
      "Ġstudying": 8857,
      "Ġeducational": 8858,
      "Ġaddresses": 8859,
      "ĠNig": 8860,
      "ĠCredit": 8861,
      "Ġcharity": 8862,
      "ĠDutch": 8863,
      "Ġdistingu": 8864,
      "yard": 8865,
      "ounced": 8866,
      "Ġsmell": 8867,
      "Ġroof": 8868,
      "Ġsynt": 8869,
      "Ġathletes": 8870,
      "ihad": 8871,
      "made": 8872,
      "neys": 8873,
      "stead": 8874,
      "Per": 8875,
      "ĠChildren": 8876,
      "ĠSteven": 8877,
      "Ġsuspects": 8878,
      "irlf": 8879,
      "ĠPay": 8880,
      "Ġbow": 8881,
      "Ġsin": 8882,
      "Ġdating": 8883,
      "ĠBase": 8884,
      "ĠManagement": 8885,
      "Ġpresentation": 8886,
      "ĠBelg": 8887,
      "arms": 8888,
      "ĠBrand": 8889,
      "Ġmanif": 8890,
      "gic": 8891,
      "Ġouts": 8892,
      "umber": 8893,
      "agram": 8894,
      "ĠInstagram": 8895,
      "Ġauto": 8896,
      "Ġenhance": 8897,
      "Ġtherapy": 8898,
      "ĠClick": 8899,
      "ĠBridge": 8900,
      "Ġtables": 8901,
      "ĠSwit": 8902,
      "Ġperceived": 8903,
      "Ġdefending": 8904,
      "Ġbacking": 8905,
      "Ġdiscussing": 8906,
      "Ġunderlying": 8907,
      "Ġracing": 8908,
      "Ġburden": 8909,
      "Ġbottle": 8910,
      "Ġ54": 8911,
      "Ġexpanding": 8912,
      "Ġpoison": 8913,
      "ĠDun": 8914,
      "Ġstops": 8915,
      "Ġbeings": 8916,
      "Ġdominant": 8917,
      "Ġpatch": 8918,
      "ĠLA": 8919,
      "ĠCorpor": 8920,
      "ĠMarsh": 8921,
      "ĠFestival": 8922,
      "Google": 8923,
      "56": 8924,
      "Ġpicking": 8925,
      "Ġspectrum": 8926,
      "held": 8927,
      "ĠHamilton": 8928,
      "ocolate": 8929,
      "apol": 8930,
      "Ġmanagers": 8931,
      "Ġtransaction": 8932,
      "Ġgathering": 8933,
      "boy": 8934,
      "Ġhopefully": 8935,
      "Ġmuscle": 8936,
      "ĠTH": 8937,
      "ĠGary": 8938,
      "Ġprovision": 8939,
      "Ġresort": 8940,
      "ĠLibya": 8941,
      "Ġrecruit": 8942,
      "Ġrevel": 8943,
      "ĠNob": 8944,
      "Ġexecution": 8945,
      "change": 8946,
      "zed": 8947,
      "Ġau": 8948,
      "ĠâĪĴ": 8949,
      "Ġprocedures": 8950,
      "eremy": 8951,
      "ĠBatman": 8952,
      "Ġcreatures": 8953,
      "ĠWales": 8954,
      "Ġarrival": 8955,
      "ĠThrough": 8956,
      "ĠTrade": 8957,
      "Ġpollution": 8958,
      "Ġcounterpart": 8959,
      "ĠCrime": 8960,
      "Ġopens": 8961,
      "Ġfoods": 8962,
      "Ġthorough": 8963,
      "Ġmemo": 8964,
      "ĠBerlin": 8965,
      "Ġpersu": 8966,
      "Ġorganic": 8967,
      "Ġrequirement": 8968,
      "ĠStation": 8969,
      "Ġconsent": 8970,
      "entagon": 8971,
      "ĠPentagon": 8972,
      "Ġtiming": 8973,
      "Ġshipping": 8974,
      "ĠMo": 8975,
      "ĠCommon": 8976,
      "Ġease": 8977,
      "athy": 8978,
      "Ġhorr": 8979,
      "Ġdiseases": 8980,
      "Ġindustries": 8981,
      "Ġjur": 8982,
      "named": 8983,
      "Ġjudgment": 8984,
      "Or": 8985,
      "Ġcapitalism": 8986,
      "ĠAssad": 8987,
      "Ġmice": 8988,
      "urrently": 8989,
      "Ġpunishment": 8990,
      "Ġdepos": 8991,
      "600": 8992,
      "ĠSean": 8993,
      "ĠPerson": 8994,
      "Ġlean": 8995,
      "ospitals": 8996,
      "Ġhospitals": 8997,
      "Ġtired": 8998,
      "ĠCA": 8999,
      "Ġdub": 9000,
      "Ġengineers": 9001,
      "ĠOakland": 9002,
      "licop": 9003,
      "Ġhelicop": 9004,
      "Cont": 9005,
      "Star": 9006,
      "ĠComey": 9007,
      "ĠHong": 9008,
      "Ġinsult": 9009,
      "Ġcoaching": 9010,
      "Ġpassage": 9011,
      "Ġanswered": 9012,
      "olph": 9013,
      "Ġintim": 9014,
      "esla": 9015,
      "Ġregulatory": 9016,
      "ictions": 9017,
      "Ġgraphics": 9018,
      "Ġstance": 9019,
      "Ġrational": 9020,
      "riends": 9021,
      "Ġtens": 9022,
      "Ġkitchen": 9023,
      "Ġ250": 9024,
      "Ġexplaining": 9025,
      "Ġbeating": 9026,
      "ĠMarx": 9027,
      "Ġrhetoric": 9028,
      "ĠLine": 9029,
      "Ġprotot": 9030,
      "och": 9031,
      "ĠiPad": 9032,
      "ĠYemen": 9033,
      "wan": 9034,
      "ĠBas": 9035,
      "Ġmodule": 9036,
      "SS": 9037,
      "Ġrepeat": 9038,
      "acco": 9039,
      "Ġpulling": 9040,
      "Are": 9041,
      "ae": 9042,
      "Ġcyber": 9043,
      "ĠMurray": 9044,
      "ĠBang": 9045,
      "Story": 9046,
      "Ġfundra": 9047,
      "Ġconvince": 9048,
      "Ġbrown": 9049,
      "osing": 9050,
      "Ġsearching": 9051,
      "Ġvariable": 9052,
      "Ġovercome": 9053,
      "Ġpermit": 9054,
      "Ġ99": 9055,
      "ĠTrib": 9056,
      "Ġhire": 9057,
      "Ġtrends": 9058,
      "Ġadviser": 9059,
      "ĠYeah": 9060,
      "nessee": 9061,
      "ĠTennessee": 9062,
      "Ġrebels": 9063,
      "Ġperiods": 9064,
      "Ġsixth": 9065,
      "Ġpreferred": 9066,
      "Ġsignature": 9067,
      "Ġpsychological": 9068,
      "ĠThompson": 9069,
      "Ġinteraction": 9070,
      "Ġeconomics": 9071,
      "upport": 9072,
      "Ġoutlets": 9073,
      "Ġsignals": 9074,
      "Ġbillions": 9075,
      "ĠUsing": 9076,
      "Ġlineup": 9077,
      "party": 9078,
      "ĠHead": 9079,
      "ĠExecutive": 9080,
      "ourse": 9081,
      "ĠCat": 9082,
      "Ġacknowledge": 9083,
      "ĠVis": 9084,
      "ĠHun": 9085,
      "ĠCapital": 9086,
      "ĠRussell": 9087,
      "Ġ1991": 9088,
      "law": 9089,
      "ĠKentucky": 9090,
      "case": 9091,
      "lined": 9092,
      "ĠCharlie": 9093,
      "Ġecho": 9094,
      "ule": 9095,
      "Ġbadly": 9096,
      "ĠHD": 9097,
      "Ġeggs": 9098,
      "Ġsentenced": 9099,
      "Ġsyn": 9100,
      "star": 9101,
      "Finally": 9102,
      "Ġcommander": 9103,
      "rator": 9104,
      "itol": 9105,
      "Ġeveryday": 9106,
      "ĠEmail": 9107,
      "Ġovert": 9108,
      "Ġrequiring": 9109,
      "57": 9110,
      "ĠMorgan": 9111,
      "attan": 9112,
      "Ġpartly": 9113,
      "Ġinvasion": 9114,
      "lando": 9115,
      "ĠStore": 9116,
      "ĠVideo": 9117,
      "Ġgenes": 9118,
      "Ġdiscount": 9119,
      "Ġremoval": 9120,
      "Ġtopics": 9121,
      "Ġprincipal": 9122,
      "Ġinquiry": 9123,
      "Ex": 9124,
      "ĠTour": 9125,
      "Ġamendment": 9126,
      "Ġconcepts": 9127,
      "Ġweakness": 9128,
      "Ġtons": 9129,
      "Ġautonom": 9130,
      "ĠRather": 9131,
      "Ġloves": 9132,
      "Ġtear": 9133,
      "dri": 9134,
      "Ġsetup": 9135,
      "Ġmath": 9136,
      "Earlier": 9137,
      "ĠBuff": 9138,
      "Ġsections": 9139,
      "riors": 9140,
      "Ġoccurs": 9141,
      "Ġcompensation": 9142,
      "Ġmigrants": 9143,
      "awa": 9144,
      "Ġacid": 9145,
      "ĠFinally": 9146,
      "Ġengineer": 9147,
      "Ġshoes": 9148,
      "ĠDelhi": 9149,
      "Ġattractive": 9150,
      "ĠJac": 9151,
      "Ġpatent": 9152,
      "ancial": 9153,
      "ylum": 9154,
      "Ġciting": 9155,
      "Ġ(\"": 9156,
      "Ġtweets": 9157,
      "orious": 9158,
      "Res": 9159,
      "Pr": 9160,
      "Ġposting": 9161,
      "reate": 9162,
      "irts": 9163,
      "Ġmarg": 9164,
      "Ġ56": 9165,
      "high": 9166,
      "Ġblockchain": 9167,
      "2013": 9168,
      "Ġstrengt": 9169,
      "Ġtalented": 9170,
      "ĠTherefore": 9171,
      "Ġnotable": 9172,
      "Ġmini": 9173,
      "Ġdeadline": 9174,
      "ĠCost": 9175,
      "Ġcarries": 9176,
      "Ġgenre": 9177,
      "ĠElizabeth": 9178,
      "vity": 9179,
      "ĠCook": 9180,
      "ran": 9181,
      "Ġapproaches": 9182,
      "Ġrolling": 9183,
      "Ġeliminate": 9184,
      "ua": 9185,
      "Ġanalysts": 9186,
      "da": 9187,
      "Ġsits": 9188,
      "ĠStory": 9189,
      "Ġinstances": 9190,
      "Ġpublishing": 9191,
      "bered": 9192,
      "low": 9193,
      "ĠBron": 9194,
      "Ġconce": 9195,
      "Ġincom": 9196,
      "Ġinequality": 9197,
      "lical": 9198,
      "Ġneighbors": 9199,
      "Ġstatist": 9200,
      "Ġbread": 9201,
      "Ġdramatically": 9202,
      "Ġsovere": 9203,
      "Ġfacilit": 9204,
      "ita": 9205,
      "power": 9206,
      "Ġroots": 9207,
      "Ġprize": 9208,
[...]
