{
  "version": "1.0",
  "truncation": null,
  "padding": null,
  "added_tokens": [
    {
      "id": 0,
      "content": "<unk>",
      "single_word": false,
      "lstrip": false,
      "rstrip": false,
      "normalized": false,
      "special": true
    },
    {
      "id": 1,
      "content": "<eos>",
      "single_word": false,
      "lstrip": false,
      "rstrip": false,
      "normalized": false,
      "special": true
    }
  ],
  "normalizer": null,
  "pre_tokenizer": {
    "type": "Whitespace"
  },
  "post_processor": {
    "type": "TemplateProcessing",
    "single": [
      {
        "Sequence": {
          "id": "A",
          "type_id": 0
        }
      },
      {
        "SpecialToken": {
          "id": "<eos>",
          "type_id": 0
        }
      }
    ],
    "pair": [
      {
        "Sequence": {
          "id": "A",
          "type_id": 0
        }
      },
      {
        "Sequence": {
          "id": "B",
          "type_id": 1
        }
      }
    ],
    "special_tokens": {
      "<eos>": {
        "id": "<eos>",
        "ids": [
          1
        ],
        "tokens": [
          "<eos>"
        ]
      }
    }
  },
  "decoder": null,
  "model": {
    "type": "BPE",
    "dropout": null,
    "unk_token": "<unk>",
    "continuing_subword_prefix": null,
    "end_of_word_suffix": null,
    "fuse_unk": false,
    "byte_fallback": false,
    "ignore_merges": false,
    "vocab": {
      "<unk>": 0,
      "<eos>": 1,
      "\u0000": 2,
      "\u0001": 3,
      "\u0003": 4,
      "\u0004": 5,
      "\u0005": 6,
      "\u0007": 7,
      "\b": 8,
      "\u000f": 9,
      "\u0010": 10,
      "\u0014": 11,
      "\u0015": 12,
      "\u0016": 13,
      "\u001a": 14,
      "\u001c": 15,
      "\u001d": 16,
      "\u001e": 17,
      "\u001f": 18,
      "!": 19,
      "\"": 20,
      "#": 21,
      "$": 22,
      "%": 23,
      "&": 24,
      "'": 25,
      "(": 26,
      ")": 27,
      "*": 28,
      "+": 29,
      ",": 30,
      "-": 31,
      ".": 32,
      "/": 33,
      "0": 34,
      "1": 35,
      "2": 36,
      "3": 37,
      "4": 38,
      "5": 39,
      "6": 40,
      "7": 41,
      "8": 42,
      "9": 43,
      ":": 44,
      ";": 45,
      "<": 46,
      "=": 47,
      ">": 48,
      "?": 49,
      "@": 50,
      "A": 51,
      "B": 52,
      "C": 53,
      "D": 54,
      "E": 55,
      "F": 56,
      "G": 57,
      "H": 58,
      "I": 59,
      "J": 60,
      "K": 61,
      "L": 62,
      "M": 63,
      "N": 64,
      "O": 65,
      "P": 66,
      "Q": 67,
      "R": 68,
      "S": 69,
      "T": 70,
      "U": 71,
      "V": 72,
      "W": 73,
      "X": 74,
      "Y": 75,
      "Z": 76,
      "[": 77,
      "\\": 78,
      "]": 79,
      "^": 80,
      "_": 81,
      "`": 82,
      "a": 83,
      "b": 84,
      "c": 85,
      "d": 86,
      "e": 87,
      "f": 88,
      "g": 89,
      "h": 90,
      "i": 91,
      "j": 92,
      "k": 93,
      "l": 94,
      "m": 95,
      "n": 96,
      "o": 97,
      "p": 98,
      "q": 99,
      "r": 100,
      "s": 101,
      "t": 102,
      "u": 103,
      "v": 104,
      "w": 105,
      "x": 106,
      "y": 107,
      "z": 108,
      "{": 109,
      "|": 110,
      "}": 111,
      "~": 112,
      "": 113,
      "": 114,
      "": 115,
      "": 116,
      "": 117,
      "": 118,
      "": 119,
      "": 120,
      "": 121,
      "": 122,
      "": 123,
      "": 124,
      "": 125,
      "": 126,
      "": 127,
      "": 128,
      "": 129,
      "": 130,
      "": 131,
      "": 132,
      "": 133,
      "": 134,
      "": 135,
      "": 136,
      "": 137,
      "": 138,
      "": 139,
      "": 140,
      "": 141,
      "": 142,
      "": 143,
      "¡": 144,
      "¢": 145,
      "£": 146,
      "¤": 147,
      "¥": 148,
      "¦": 149,
      "§": 150,
      "¨": 151,
      "©": 152,
      "ª": 153,
      "«": 154,
      "¬": 155,
      "­": 156,
      "®": 157,
      "¯": 158,
      "°": 159,
      "±": 160,
      "²": 161,
      "³": 162,
      "´": 163,
      "µ": 164,
      "¶": 165,
      "·": 166,
      "¸": 167,
      "¹": 168,
      "º": 169,
      "»": 170,
      "¼": 171,
      "½": 172,
      "¾": 173,
      "¿": 174,
      "À": 175,
      "Á": 176,
      "Â": 177,
      "Ã": 178,
      "Ä": 179,
      "Å": 180,
      "Æ": 181,
      "Ç": 182,
      "È": 183,
      "É": 184,
      "Ê": 185,
      "Ë": 186,
      "Ì": 187,
      "Í": 188,
      "Î": 189,
      "Ï": 190,
      "Ð": 191,
      "Ñ": 192,
      "Ò": 193,
      "Ó": 194,
      "Ô": 195,
      "Õ": 196,
      "Ö": 197,
      "×": 198,
      "Ø": 199,
      "Ù": 200,
      "Ú": 201,
      "Û": 202,
      "Ü": 203,
      "Ý": 204,
      "Þ": 205,
      "ß": 206,
      "à": 207,
      "á": 208,
      "â": 209,
      "ã": 210,
      "ä": 211,
      "å": 212,
      "æ": 213,
      "ç": 214,
      "è": 215,
      "é": 216,
      "ê": 217,
      "ë": 218,
      "ì": 219,
      "í": 220,
      "î": 221,
      "ï": 222,
      "ð": 223,
      "ñ": 224,
      "ò": 225,
      "ó": 226,
      "ô": 227,
      "õ": 228,
      "ö": 229,
      "÷": 230,
      "ø": 231,
      "ù": 232,
      "ú": 233,
      "û": 234,
      "ü": 235,
      "ý": 236,
      "þ": 237,
      "ÿ": 238,
      "Ā": 239,
      "ā": 240,
      "Ă": 241,
      "ă": 242,
      "ą": 243,
      "Ć": 244,
      "ć": 245,
      "Ĉ": 246,
      "ĉ": 247,
      "ċ": 248,
      "Č": 249,
      "č": 250,
      "ď": 251,
      "đ": 252,
      "Ē": 253,
      "ē": 254,
      "Ĕ": 255,
      "ĕ": 256,
      "Ė": 257,
      "ė": 258,
      "Ę": 259,
      "ę": 260,
      "Ě": 261,
      "ě": 262,
      "Ĝ": 263,
      "ĝ": 264,
      "ğ": 265,
      "Ġ": 266,
      "ġ": 267,
      "Ĥ": 268,
      "Ħ": 269,
      "ħ": 270,
      "Ĩ": 271,
      "ĩ": 272,
      "Ī": 273,
      "ī": 274,
      "Ĭ": 275,
      "ĭ": 276,
      "į": 277,
      "İ": 278,
      "ı": 279,
      "ĵ": 280,
      "ļ": 281,
      "Ł": 282,
      "ł": 283,
      "Ń": 284,
      "ń": 285,
      "Ň": 286,
      "ň": 287,
      "ŉ": 288,
      "Ŋ": 289,
      "ŋ": 290,
      "Ō": 291,
      "ō": 292,
      "Ŏ": 293,
      "ŏ": 294,
      "ő": 295,
      "Œ": 296,
      "œ": 297,
      "Ŕ": 298,
      "ŕ": 299,
      "Ř": 300,
      "ř": 301,
      "Ś": 302,
      "ś": 303,
      "Ŝ": 304,
      "ŝ": 305,
      "Ş": 306,
      "ş": 307,
      "Š": 308,
      "š": 309,
      "ţ": 310,
      "ť": 311,
      "ŧ": 312,
      "Ũ": 313,
      "ũ": 314,
      "Ū": 315,
      "ū": 316,
      "Ŭ": 317,
      "ŭ": 318,
      "Ů": 319,
      "ů": 320,
      "ű": 321,
      "ų": 322,
      "Ŵ": 323,
      "ŵ": 324,
      "Ŷ": 325,
      "ŷ": 326,
      "Ÿ": 327,
      "ź": 328,
      "Ż": 329,
      "ż": 330,
      "Ž": 331,
      "ž": 332,
      "ſ": 333,
      "ƀ": 334,
      "Ɔ": 335,
      "Ǝ": 336,
      "Ɛ": 337,
      "ƒ": 338,
      "ƕ": 339,
      "Ɩ": 340,
      "ƚ": 341,
      "ƥ": 342,
      "Ƨ": 343,
      "ư": 344,
      "Ƶ": 345,
      "Ʒ": 346,
      "ƿ": 347,
      "ǁ": 348,
      "ǎ": 349,
      "Ǐ": 350,
      "ǐ": 351,
      "ǒ": 352,
      "ǔ": 353,
      "Ǖ": 354,
      "ǖ": 355,
      "ǝ": 356,
      "ǟ": 357,
      "ǡ": 358,
      "Ǣ": 359,
      "ǣ": 360,
      "ǥ": 361,
      "ǧ": 362,
      "Ǫ": 363,
      "ǫ": 364,
      "ǭ": 365,
      "Ǵ": 366,
      "ǵ": 367,
      "Ƿ": 368,
      "ǹ": 369,
      "ǽ": 370,
      "ȗ": 371,
      "Ț": 372,
      "ț": 373,
      "Ȝ": 374,
      "ȝ": 375,
      "ȣ": 376,
      "Ȧ": 377,
      "ȧ": 378,
      "ȩ": 379,
      "ȫ": 380,
      "ȯ": 381,
      "ȱ": 382,
      "Ȳ": 383,
      "ȳ": 384,
      "Ȼ": 385,
      "ȼ": 386,
      "Ʌ": 387,
      "ɑ": 388,
      "ɒ": 389,
      "ɔ": 390,
      "ə": 391,
      "ɛ": 392,
      "ɣ": 393,
      "ɥ": 394,
      "ɧ": 395,
      "ɩ": 396,
      "ɪ": 397,
      "ɫ": 398,
      "ɭ": 399,
      "ɯ": 400,
      "ɱ": 401,
      "ɲ": 402,
      "ɳ": 403,
      "ɶ": 404,
      "ɹ": 405,
      "ʃ": 406,
      "ʅ": 407,
      "ʇ": 408,
      "ʊ": 409,
      "ʌ": 410,
      "ʍ": 411,
      "ʒ": 412,
      "ʘ": 413,
      "ʞ": 414,
      "ʠ": 415,
      "ʰ": 416,
      "ʲ": 417,
      "ʳ": 418,
      "ʷ": 419,
      "ʸ": 420,
      "ʹ": 421,
      "ʺ": 422,
      "ʻ": 423,
      "ʼ": 424,
      "ʽ": 425,
      "ʾ": 426,
      "ʿ": 427,
      "ˀ": 428,
      "ˆ": 429,
      "ˈ": 430,
      "ˉ": 431,
      "ˌ": 432,
      "ː": 433,
      "ˑ": 434,
      "˔": 435,
      "˕": 436,
      "˘": 437,
      "˙": 438,
      "˚": 439,
      "˛": 440,
      "˜": 441,
      "˝": 442,
      "ˡ": 443,
      "ˢ": 444,
      "ˣ": 445,
      "˭": 446,
      "˳": 447,
      "̀": 448,
      "́": 449,
      "̂": 450,
      "̃": 451,
      "̄": 452,
      "̅": 453,
      "̆": 454,
      "̇": 455,
      "̈": 456,
      "̉": 457,
      "̊": 458,
      "̋": 459,
      "̌": 460,
      "̍": 461,
      "̑": 462,
      "̓": 463,
      "̝": 464,
      "̠": 465,
      "̢": 466,
      "̣": 467,
      "̤": 468,
      "̥": 469,
      "̦": 470,
      "̧": 471,
      "̨": 472,
      "̩": 473,
      "̭": 474,
      "̯": 475,
      "̱": 476,
      "̲": 477,
      "̴": 478,
      "̵": 479,
      "̶": 480,
      "̷": 481,
      "̸": 482,
      "̾": 483,
      "́": 484,
      "͂": 485,
      "̓": 486,
      "̈́": 487,
      "ͅ": 488,
      "͆": 489,
      "͐": 490,
      "͒": 491,
      "͕": 492,
      "͜": 493,
      "͝": 494,
      "͞": 495,
      "͠": 496,
      "͡": 497,
      "ͣ": 498,
      "ͤ": 499,
      "ͥ": 500,
      "ͦ": 501,
      "ͧ": 502,
      "ͨ": 503,
      "ͩ": 504,
      "ͪ": 505,
      "ͬ": 506,
      "ͭ": 507,
      "ͮ": 508,
      "Ͱ": 509,
      "ʹ": 510,
      "͵": 511,
      ";": 512,
      "΄": 513,
      "΅": 514,
      "Ά": 515,
      "·": 516,
      "Έ": 517,
      "Ή": 518,
      "Ί": 519,
      "Ό": 520,
      "Ύ": 521,
      "Ώ": 522,
      "ΐ": 523,
      "Α": 524,
      "Β": 525,
      "Γ": 526,
      "Δ": 527,
      "Ε": 528,
      "Ζ": 529,
      "Η": 530,
      "Θ": 531,
      "Ι": 532,
      "Κ": 533,
      "Λ": 534,
      "Μ": 535,
      "Ν": 536,
      "Ξ": 537,
      "Ο": 538,
      "Π": 539,
      "Ρ": 540,
      "Σ": 541,
      "Τ": 542,
      "Υ": 543,
      "Φ": 544,
      "Χ": 545,
      "Ψ": 546,
      "Ω": 547,
      "Ϊ": 548,
      "ά": 549,
      "έ": 550,
      "ή": 551,
      "ί": 552,
      "ΰ": 553,
      "α": 554,
      "β": 555,
      "γ": 556,
      "δ": 557,
      "ε": 558,
      "ζ": 559,
      "η": 560,
      "θ": 561,
      "ι": 562,
      "κ": 563,
      "λ": 564,
      "μ": 565,
      "ν": 566,
      "ξ": 567,
      "ο": 568,
      "π": 569,
      "ρ": 570,
      "ς": 571,
      "σ": 572,
      "τ": 573,
      "υ": 574,
      "φ": 575,
      "χ": 576,
      "ψ": 577,
      "ω": 578,
      "ϊ": 579,
      "ϋ": 580,
      "ό": 581,
      "ύ": 582,
      "ώ": 583,
      "ϐ": 584,
      "ϑ": 585,
      "ϒ": 586,
      "ϕ": 587,
      "ϖ": 588,
      "ϗ": 589,
      "Ϙ": 590,
      "ϙ": 591,
      "Ϛ": 592,
      "ϛ": 593,
      "Ϝ": 594,
      "ϝ": 595,
      "Ϟ": 596,
      "ϟ": 597,
      "ϡ": 598,
      "ϥ": 599,
      "ϫ": 600,
      "ϯ": 601,
      "ϰ": 602,
      "ϱ": 603,
      "ϲ": 604,
      "ϴ": 605,
      "ϵ": 606,
      "϶": 607,
      "Ϲ": 608,
      "Ϻ": 609,
      "ϻ": 610,
      "Ͻ": 611,
      "Ђ": 612,
      "Є": 613,
      "І": 614,
      "Ј": 615,
      "Љ": 616,
      "Њ": 617,
      "Џ": 618,
      "А": 619,
      "Б": 620,
      "В": 621,
      "Г": 622,
      "Д": 623,
      "Е": 624,
      "Ж": 625,
      "З": 626,
      "И": 627,
      "Й": 628,
      "К": 629,
      "Л": 630,
      "М": 631,
      "Н": 632,
      "О": 633,
      "П": 634,
      "Р": 635,
      "С": 636,
      "Т": 637,
      "У": 638,
      "Ф": 639,
      "Х": 640,
      "Ц": 641,
      "Ч": 642,
      "Ш": 643,
      "Щ": 644,
      "Ъ": 645,
      "Ы": 646,
      "Ь": 647,
      "Э": 648,
      "Ю": 649,
      "Я": 650,
      "а": 651,
      "б": 652,
      "в": 653,
      "г": 654,
      "д": 655,
      "е": 656,
      "ж": 657,
      "з": 658,
      "и": 659,
      "й": 660,
      "к": 661,
      "л": 662,
      "м": 663,
      "н": 664,
      "о": 665,
      "п": 666,
      "р": 667,
      "с": 668,
      "т": 669,
      "у": 670,
      "ф": 671,
      "х": 672,
      "ц": 673,
      "ч": 674,
      "ш": 675,
      "щ": 676,
      "ъ": 677,
      "ы": 678,
      "ь": 679,
      "э": 680,
      "ю": 681,
      "я": 682,
      "ё": 683,
      "ђ": 684,
      "є": 685,
      "і": 686,
      "ј": 687,
      "ћ": 688,
      "ў": 689,
      "Ѣ": 690,
      "ѣ": 691,
      "Ѳ": 692,
      "ѳ": 693,
      "Ѵ": 694,
      "ѵ": 695,
      "җ": 696,
      "ҫ": 697,
      "ӑ": 698,
      "ӱ": 699,
      "Ԁ": 700,
      "Ԃ": 701,
      "Ԋ": 702,
      "Ա": 703,
      "Ե": 704,
      "Զ": 705,
      "Ը": 706,
      "Ի": 707,
      "Ն": 708,
      "Փ": 709,
      "ա": 710,
      "բ": 711,
      "գ": 712,
      "ե": 713,
      "զ": 714,
      "թ": 715,
      "ի": 716,
      "լ": 717,
      "խ": 718,
      "ծ": 719,
      "կ": 720,
      "հ": 721,
      "ղ": 722,
      "մ": 723,
      "ն": 724,
      "ո": 725,
      "չ": 726,
      "պ": 727,
      "ս": 728,
      "վ": 729,
      "տ": 730,
      "ր": 731,
      "ց": 732,
      "ւ": 733,
      "փ": 734,
      "ք": 735,
      "օ": 736,
      "և": 737,
      "֑": 738,
      "֒": 739,
      "֓": 740,
      "֔": 741,
      "֕": 742,
      "֖": 743,
      "֗": 744,
      "֘": 745,
      "֙": 746,
      "֚": 747,
      "֛": 748,
      "֜": 749,
      "֝": 750,
      "֞": 751,
      "֟": 752,
      "֠": 753,
      "֡": 754,
      "֢": 755,
      "֣": 756,
      "֤": 757,
      "֥": 758,
      "֦": 759,
      "֧": 760,
      "֨": 761,
      "֩": 762,
      "֫": 763,
      "֬": 764,
      "֭": 765,
      "֮": 766,
      "֯": 767,
      "ְ": 768,
      "ֱ": 769,
      "ֲ": 770,
      "ֳ": 771,
      "ִ": 772,
      "ֵ": 773,
      "ֶ": 774,
      "ַ": 775,
      "ָ": 776,
      "ֹ": 777,
      "ֺ": 778,
      "ֻ": 779,
      "ּ": 780,
      "ֽ": 781,
      "־": 782,
      "׀": 783,
      "ׁ": 784,
      "ׂ": 785,
      "׃": 786,
      "ׄ": 787,
      "ׇ": 788,
      "א": 789,
      "ב": 790,
      "ג": 791,
      "ד": 792,
      "ה": 793,
      "ו": 794,
      "ז": 795,
      "ח": 796,
      "ט": 797,
      "י": 798,
      "ך": 799,
      "כ": 800,
      "ל": 801,
      "ם": 802,
      "מ": 803,
      "ן": 804,
      "נ": 805,
      "ס": 806,
      "ע": 807,
      "ף": 808,
      "פ": 809,
      "ץ": 810,
      "צ": 811,
      "ק": 812,
      "ר": 813,
      "ש": 814,
      "ת": 815,
      "ױ": 816,
      "ײ": 817,
      "׳": 818,
      "״": 819,
      "،": 820,
      "؟": 821,
      "ء": 822,
      "آ": 823,
      "أ": 824,
      "ؤ": 825,
      "إ": 826,
      "ئ": 827,
      "ا": 828,
      "ب": 829,
      "ة": 830,
      "ت": 831,
      "ث": 832,
      "ج": 833,
      "ح": 834,
      "خ": 835,
      "د": 836,
      "ذ": 837,
      "ر": 838,
      "ز": 839,
      "س": 840,
      "ش": 841,
      "ص": 842,
      "ض": 843,
      "ط": 844,
      "ظ": 845,
      "ع": 846,
      "غ": 847,
      "ف": 848,
      "ق": 849,
      "ك": 850,
      "ل": 851,
      "م": 852,
      "ن": 853,
      "ه": 854,
      "و": 855,
      "ى": 856,
      "ي": 857,
      "ً": 858,
      "ٌ": 859,
      "َ": 860,
      "ُ": 861,
      "ِ": 862,
      "ّ": 863,
      "ْ": 864,
      "٘": 865,
      "٢": 866,
      "٥": 867,
      "٦": 868,
      "٧": 869,
      "ٱ": 870,
      "پ": 871,
      "چ": 872,
      "ڙ": 873,
      "ک": 874,
      "گ": 875,
      "ۃ": 876,
      "ی": 877,
      "ܐ": 878,
      "ܒ": 879,
      "ܓ": 880,
      "ܕ": 881,
      "ܗ": 882,
      "ܘ": 883,
      "ܙ": 884,
      "ܚ": 885,
      "ܛ": 886,
      "ܝ": 887,
      "ܠ": 888,
      "ܡ": 889,
      "ܢ": 890,
      "ܣ": 891,
      "ܤ": 892,
      "ܥ": 893,
      "ܦ": 894,
      "ܩ": 895,
      "ܪ": 896,
      "ܫ": 897,
      "ܬ": 898,
      "ܰ": 899,
      "ܳ": 900,
      "ܵ": 901,
      "ܿ": 902,
      "ࣨ": 903,
      "ट": 904,
      "ठ": 905,
      "न": 906,
      "ब": 907,
      "म": 908,
      "र": 909,
      "ल": 910,
      "व": 911,
      "स": 912,
      "ा": 913,
      "ि": 914,
      "ी": 915,
      "्": 916,
      "ढ़": 917,
      "ന": 918,
      "་": 919,
      "ཁ": 920,
      "ག": 921,
      "ང": 922,
      "ཆ": 923,
      "ཇ": 924,
      "ཉ": 925,
      "ཎ": 926,
      "ད": 927,
      "ན": 928,
      "པ": 929,
      "ཕ": 930,
      "བ": 931,
      "མ": 932,
      "ཚ": 933,
      "ཛ": 934,
      "འ": 935,
      "ར": 936,
      "ལ": 937,
      "ས": 938,
      "ཧ": 939,
      "ཨ": 940,
      "ཱ": 941,
      "ི": 942,
      "ུ": 943,
      "ེ": 944,
      "ོ": 945,
      "ཾ": 946,
      "ྃ": 947,
      "ྐ": 948,
      "ྒ": 949,
      "ྟ": 950,
      "ྨ": 951,
      "ྭ": 952,
      "ྱ": 953,
      "ྲ": 954,
      "ྷ": 955,
      "Ⴤ": 956,
      "Ꮋ": 957,
      "Ꮩ": 958,
      "ᐯ": 959,
      "ᐱ": 960,
      "ᒥ": 961,
      "ᒪ": 962,
      "ᕼ": 963,
      "ᖤ": 964,
      "ᗜ": 965,
      "ᚠ": 966,
      "ᚢ": 967,
      "ᚤ": 968,
      "ᚦ": 969,
      "ᚨ": 970,
      "ᚩ": 971,
      "ᚭ": 972,
      "ᚮ": 973,
      "ᚱ": 974,
      "ᚳ": 975,
      "ᚴ": 976,
      "ᚷ": 977,
      "ᚺ": 978,
      "ᚻ": 979,
      "ᚼ": 980,
      "ᚾ": 981,
      "ᚿ": 982,
      "ᛁ": 983,
      "ᛂ": 984,
      "ᛅ": 985,
      "ᛆ": 986,
      "ᛉ": 987,
      "ᛋ": 988,
      "ᛌ": 989,
      "ᛍ": 990,
      "ᛏ": 991,
      "ᛐ": 992,
      "ᛑ": 993,
      "ᛒ": 994,
      "ᛖ": 995,
      "ᛗ": 996,
      "ᛘ": 997,
      "ᛚ": 998,
      "ᛞ": 999,
      "ᛟ": 1000,
      "ᛦ": 1001,
      "᛫": 1002,
      "᛬": 1003,
      "᠅": 1004,
      "ᤦ": 1005,
      "ᴊ": 1006,
      "ᴐ": 1007,
      "ᴗ": 1008,
      "ᴜ": 1009,
      "ᴣ": 1010,
      "ᴬ": 1011,
      "ᴰ": 1012,
      "ᴱ": 1013,
      "ᴴ": 1014,
      "ᴵ": 1015,
      "ᴸ": 1016,
      "ᴹ": 1017,
      "ᴺ": 1018,
      "ᴼ": 1019,
      "ᴿ": 1020,
      "ᵀ": 1021,
      "ᵁ": 1022,
      "ᵂ": 1023,
      "ᵃ": 1024,
      "ᵅ": 1025,
      "ᵆ": 1026,
      "ᵇ": 1027,
      "ᵈ": 1028,
      "ᵉ": 1029,
      "ᵊ": 1030,
      "ᵍ": 1031,
      "ᵏ": 1032,
      "ᵐ": 1033,
      "ᵒ": 1034,
      "ᵖ": 1035,
      "ᵗ": 1036,
      "ᵘ": 1037,
      "ᵛ": 1038,
      "ᵞ": 1039,
      "ᵢ": 1040,
      "ᵣ": 1041,
      "ᵥ": 1042,
      "ᵬ": 1043,
      "ᵭ": 1044,
      "ᵹ": 1045,
      "ᶙ": 1046,
      "ᶜ": 1047,
      "ᶠ": 1048,
      "ᶻ": 1049,
      "ᷗ": 1050,
      "ᷛ": 1051,
      "ḁ": 1052,
      "ḃ": 1053,
      "ḅ": 1054,
      "Ḋ": 1055,
      "ḋ": 1056,
      "Ḍ": 1057,
      "ḍ": 1058,
      "Ḏ": 1059,
      "ḏ": 1060,
      "ḗ": 1061,
      "ḙ": 1062,
      "ḟ": 1063,
      "Ḡ": 1064,
      "ḡ": 1065,
      "Ḣ": 1066,
      "ḣ": 1067,
      "Ḥ": 1068,
      "ḥ": 1069,
      "ḯ": 1070,
      "Ḳ": 1071,
      "ḳ": 1072,
      "Ḵ": 1073,
      "ḵ": 1074,
      "Ḷ": 1075,
      "ḷ": 1076,
      "ḻ": 1077,
      "ḿ": 1078,
      "ṁ": 1079,
      "ṃ": 1080,
      "Ṅ": 1081,
      "ṅ": 1082,
      "Ṇ": 1083,
      "ṇ": 1084,
      "ṉ": 1085,
      "Ṓ": 1086,
      "ṓ": 1087,
      "ṕ": 1088,
      "ṗ": 1089,
      "ṙ": 1090,
      "Ṛ": 1091,
      "ṛ": 1092,
      "Ṡ": 1093,
      "ṡ": 1094,
      "Ṣ": 1095,
      "ṣ": 1096,
      "ṥ": 1097,
      "ṫ": 1098,
      "Ṭ": 1099,
      "ṭ": 1100,
      "ṯ": 1101,
      "ṳ": 1102,
      "ṵ": 1103,
      "ṷ": 1104,
      "Ṽ": 1105,
      "ṽ": 1106,
      "ẃ": 1107,
      "ẅ": 1108,
      "ẇ": 1109,
      "ẋ": 1110,
      "Ẍ": 1111,
      "ẍ": 1112,
      "ẏ": 1113,
      "Ẓ": 1114,
      "ẓ": 1115,
      "ẖ": 1116,
      "Ạ": 1117,
      "ạ": 1118,
      "ả": 1119,
      "ậ": 1120,
      "ắ": 1121,
      "ẹ": 1122,
      "Ẻ": 1123,
      "ẻ": 1124,
      "Ẽ": 1125,
      "ẽ": 1126,
      "ị": 1127,
      "ọ": 1128,
      "ụ": 1129,
      "ừ": 1130,
      "ữ": 1131,
      "Ỳ": 1132,
      "ỳ": 1133,
      "Ỹ": 1134,
      "ỹ": 1135,
      "ἀ": 1136,
      "ἁ": 1137,
      "ἂ": 1138,
      "ἃ": 1139,
      "ἄ": 1140,
      "ἅ": 1141,
      "ἆ": 1142,
      "ἇ": 1143,
      "Ἀ": 1144,
      "Ἁ": 1145,
      "Ἂ": 1146,
      "Ἃ": 1147,
      "Ἄ": 1148,
      "Ἅ": 1149,
      "Ἆ": 1150,
      "ἐ": 1151,
      "ἑ": 1152,
      "ἒ": 1153,
      "ἓ": 1154,
      "ἔ": 1155,
      "ἕ": 1156,
      "Ἐ": 1157,
      "Ἑ": 1158,
      "Ἒ": 1159,
      "Ἓ": 1160,
      "Ἔ": 1161,
      "Ἕ": 1162,
      "ἠ": 1163,
      "ἡ": 1164,
      "ἢ": 1165,
      "ἣ": 1166,
      "ἤ": 1167,
      "ἥ": 1168,
      "ἦ": 1169,
      "ἧ": 1170,
      "Ἠ": 1171,
      "Ἡ": 1172,
      "Ἢ": 1173,
      "Ἣ": 1174,
      "Ἤ": 1175,
      "Ἥ": 1176,
      "Ἦ": 1177,
      "Ἧ": 1178,
      "ἰ": 1179,
      "ἱ": 1180,
      "ἲ": 1181,
      "ἳ": 1182,
      "ἴ": 1183,
      "ἵ": 1184,
      "ἶ": 1185,
      "ἷ": 1186,
      "Ἰ": 1187,
      "Ἱ": 1188,
      "Ἲ": 1189,
      "Ἳ": 1190,
      "Ἴ": 1191,
      "Ἵ": 1192,
      "Ἶ": 1193,
      "Ἷ": 1194,
      "ὀ": 1195,
      "ὁ": 1196,
      "ὂ": 1197,
      "ὃ": 1198,
      "ὄ": 1199,
      "ὅ": 1200,
      "Ὀ": 1201,
      "Ὁ": 1202,
      "Ὂ": 1203,
      "Ὃ": 1204,
      "Ὄ": 1205,
      "Ὅ": 1206,
      "ὐ": 1207,
      "ὑ": 1208,
      "ὒ": 1209,
      "ὓ": 1210,
      "ὔ": 1211,
      "ὕ": 1212,
      "ὖ": 1213,
      "ὗ": 1214,
      "Ὑ": 1215,
      "Ὕ": 1216,
      "Ὗ": 1217,
      "ὠ": 1218,
      "ὡ": 1219,
      "ὢ": 1220,
      "ὣ": 1221,
      "ὤ": 1222,
      "ὥ": 1223,
      "ὦ": 1224,
      "ὧ": 1225,
      "Ὠ": 1226,
      "Ὡ": 1227,
      "Ὢ": 1228,
      "Ὣ": 1229,
      "Ὤ": 1230,
      "Ὥ": 1231,
      "Ὦ": 1232,
      "Ὧ": 1233,
      "ὰ": 1234,
      "ά": 1235,
      "ὲ": 1236,
      "έ": 1237,
      "ὴ": 1238,
      "ή": 1239,
      "ὶ": 1240,
      "ί": 1241,
      "ὸ": 1242,
      "ό": 1243,
      "ὺ": 1244,
      "ύ": 1245,
      "ὼ": 1246,
      "ώ": 1247,
      "ᾀ": 1248,
      "ᾂ": 1249,
      "ᾄ": 1250,
      "ᾅ": 1251,
      "ᾆ": 1252,
      "ᾇ": 1253,
      "ᾐ": 1254,
      "ᾑ": 1255,
      "ᾒ": 1256,
      "ᾓ": 1257,
      "ᾔ": 1258,
      "ᾕ": 1259,
      "ᾖ": 1260,
      "ᾗ": 1261,
      "ᾠ": 1262,
      "ᾡ": 1263,
      "ᾣ": 1264,
      "ᾤ": 1265,
      "ᾧ": 1266,
      "ᾨ": 1267,
      "ᾬ": 1268,
      "ᾭ": 1269,
      "ᾰ": 1270,
      "ᾱ": 1271,
      "ᾲ": 1272,
      "ᾳ": 1273,
      "ᾴ": 1274,
      "ᾶ": 1275,
      "ᾷ": 1276,
      "Ά": 1277,
      "᾽": 1278,
      "᾿": 1279,
      "῀": 1280,
      "ῂ": 1281,
      "ῃ": 1282,
      "ῄ": 1283,
      "ῆ": 1284,
      "ῇ": 1285,
      "Ὲ": 1286,
      "Έ": 1287,
      "Ὴ": 1288,
      "Ή": 1289,
      "ῌ": 1290,
      "῍": 1291,
      "῎": 1292,
      "῏": 1293,
      "ῐ": 1294,
      "ῑ": 1295,
      "ῒ": 1296,
      "ΐ": 1297,
      "ῖ": 1298,
      "ῗ": 1299,
      "Ῑ": 1300,
      "Ὶ": 1301,
      "Ί": 1302,
      "῝": 1303,
      "῞": 1304,
      "῟": 1305,
      "ῠ": 1306,
      "ῡ": 1307,
      "ῢ": 1308,
      "ΰ": 1309,
      "ῤ": 1310,
      "ῥ": 1311,
      "ῦ": 1312,
      "ῧ": 1313,
      "Ὺ": 1314,
      "Ύ": 1315,
      "Ῥ": 1316,
      "῭": 1317,
      "΅": 1318,
      "ῲ": 1319,
      "ῳ": 1320,
      "ῴ": 1321,
      "ῶ": 1322,
      "ῷ": 1323,
      "Ό": 1324,
      "ῼ": 1325,
      "´": 1326,
      "῾": 1327,
      "‍": 1328,
      "‎": 1329,
      "‏": 1330,
      "‐": 1331,
      "‑": 1332,
      "‒": 1333,
      "–": 1334,
      "—": 1335,
      "―": 1336,
      "‖": 1337,
      "‗": 1338,
      "‘": 1339,
      "’": 1340,
      "‚": 1341,
      "‛": 1342,
      "“": 1343,
      "”": 1344,
      "„": 1345,
      "‟": 1346,
      "†": 1347,
      "‡": 1348,
      "•": 1349,
      "‥": 1350,
      "…": 1351,
      "‧": 1352,
      "‪": 1353,
      "‫": 1354,
      "‬": 1355,
      "‭": 1356,
      "‮": 1357,
      "‰": 1358,
      "′": 1359,
      "″": 1360,
      "‴": 1361,
      "‵": 1362,
      "‸": 1363,
      "‹": 1364,
      "›": 1365,
      "※": 1366,
      "‾": 1367,
      "‿": 1368,
      "⁁": 1369,
      "⁂": 1370,
      "⁄": 1371,
      "⁊": 1372,
      "⁎": 1373,
      "⁐": 1374,
      "⁓": 1375,
      "⁔": 1376,
      "⁘": 1377,
      "⁙": 1378,
      "⁝": 1379,
      "⁞": 1380,
      "⁠": 1381,
      "⁮": 1382,
      "⁰": 1383,
      "ⁱ": 1384,
      "⁴": 1385,
      "⁵": 1386,
      "⁶": 1387,
      "⁷": 1388,
      "⁸": 1389,
      "⁹": 1390,
      "⁻": 1391,
      "⁾": 1392,
      "ⁿ": 1393,
      "₀": 1394,
      "₁": 1395,
      "₂": 1396,
      "₃": 1397,
      "₄": 1398,
      "₅": 1399,
      "₆": 1400,
      "₇": 1401,
      "₈": 1402,
      "₉": 1403,
      "ₐ": 1404,
      "ₒ": 1405,
      "ₓ": 1406,
      "ₘ": 1407,
      "ₜ": 1408,
      "€": 1409,
      "₰": 1410,
      "₵": 1411,
      "⃨": 1412,
      "℀": 1413,
      "℅": 1414,
      "℈": 1415,
      "ℓ": 1416,
      "℔": 1417,
      "℞": 1418,
      "℟": 1419,
      "™": 1420,
      "℣": 1421,
      "℥": 1422,
      "ℨ": 1423,
      "ℳ": 1424,
      "⅁": 1425,
      "⅄": 1426,
      "⅌": 1427,
      "⅐": 1428,
      "⅑": 1429,
      "⅒": 1430,
      "⅓": 1431,
      "⅔": 1432,
      "⅕": 1433,
      "⅖": 1434,
      "⅗": 1435,
      "⅘": 1436,
      "⅙": 1437,
      "⅚": 1438,
      "⅛": 1439,
      "⅜": 1440,
      "⅝": 1441,
      "⅞": 1442,
      "⅟": 1443,
      "Ⅰ": 1444,
      "Ⅴ": 1445,
      "Ⅹ": 1446,
      "Ⅼ": 1447,
      "Ⅽ": 1448,
      "Ⅾ": 1449,
      "ⅿ": 1450,
      "ↀ": 1451,
      "ↁ": 1452,
      "ↂ": 1453,
      "Ↄ": 1454,
      "ↄ": 1455,
      "ↆ": 1456,
      "ↇ": 1457,
      "ↈ": 1458,
      "←": 1459,
      "↑": 1460,
      "→": 1461,
      "↓": 1462,
      "↙": 1463,
      "↰": 1464,
      "↷": 1465,
      "↿": 1466,
      "⇄": 1467,
      "⇌": 1468,
      "∂": 1469,
      "∋": 1470,
      "∑": 1471,
      "−": 1472,
      "∓": 1473,
      "∕": 1474,
      "∘": 1475,
      "√": 1476,
      "∛": 1477,
      "∜": 1478,
      "∝": 1479,
      "∞": 1480,
      "∟": 1481,
      "∠": 1482,
      "∥": 1483,
      "∧": 1484,
      "∨": 1485,
      "∩": 1486,
      "∪": 1487,
      "∫": 1488,
      "∬": 1489,
      "∴": 1490,
      "∵": 1491,
      "∶": 1492,
      "∷": 1493,
      "∹": 1494,
      "∺": 1495,
      "∽": 1496,
      "∾": 1497,
      "≅": 1498,
      "≈": 1499,
      "≍": 1500,
      "≎": 1501,
      "≏": 1502,
      "≐": 1503,
      "≚": 1504,
      "≠": 1505,
      "≡": 1506,
      "≢": 1507,
      "⊂": 1508,
      "⊃": 1509,
      "⊏": 1510,
      "⊐": 1511,
      "⊔": 1512,
      "⊕": 1513,
      "⊖": 1514,
      "⊙": 1515,
      "⊜": 1516,
      "⊝": 1517,
      "⊞": 1518,
      "⊤": 1519,
      "⊥": 1520,
      "⊼": 1521,
      "⋀": 1522,
      "⋂": 1523,
      "⋃": 1524,
      "⋅": 1525,
      "⋮": 1526,
      "⋯": 1527,
      "⌃": 1528,
      "⌅": 1529,
      "⌒": 1530,
      "⌓": 1531,
      "⌗": 1532,
      "⌠": 1533,
      "⌡": 1534,
      "〈": 1535,
      "〉": 1536,
      "⌶": 1537,
      "⎛": 1538,
      "⎜": 1539,
      "⎝": 1540,
      "⎞": 1541,
      "⎟": 1542,
      "⎠": 1543,
      "⎧": 1544,
      "⎨": 1545,
      "⎩": 1546,
      "⎪": 1547,
      "⎫": 1548,
      "⎬": 1549,
      "⎭": 1550,
      "⎮": 1551,
      "⎵": 1552,
      "⎿": 1553,
      "⏊": 1554,
      "⏌": 1555,
      "⏑": 1556,
      "⏒": 1557,
      "⏓": 1558,
      "⏔": 1559,
      "⏕": 1560,
      "⏖": 1561,
      "⏗": 1562,
      "⏘": 1563,
      "⏝": 1564,
      "⏞": 1565,
      "⏟": 1566,
      "①": 1567,
      "②": 1568,
      "③": 1569,
      "④": 1570,
      "⑤": 1571,
      "⑥": 1572,
      "⒜": 1573,
      "⒝": 1574,
      "⒞": 1575,
      "⒟": 1576,
      "⒠": 1577,
      "ⓐ": 1578,
      "⓵": 1579,
      "─": 1580,
      "━": 1581,
      "│": 1582,
      "┃": 1583,
      "┌": 1584,
      "┏": 1585,
      "┐": 1586,
      "┓": 1587,
      "└": 1588,
      "┗": 1589,
      "┘": 1590,
      "┚": 1591,
      "┛": 1592,
      "├": 1593,
      "┣": 1594,
      "┤": 1595,
      "┫": 1596,
      "┬": 1597,
      "┯": 1598,
      "┰": 1599,
      "┴": 1600,
      "┷": 1601,
      "┸": 1602,
      "┻": 1603,
      "┼": 1604,
      "╂": 1605,
      "╋": 1606,
      "═": 1607,
      "║": 1608,
      "╒": 1609,
      "╔": 1610,
      "╕": 1611,
      "╗": 1612,
      "╘": 1613,
      "╚": 1614,
      "╛": 1615,
      "╝": 1616,
      "╞": 1617,
      "╟": 1618,
      "╠": 1619,
      "╡": 1620,
      "╢": 1621,
      "╣": 1622,
      "╤": 1623,
      "╥": 1624,
      "╦": 1625,
      "╧": 1626,
      "╨": 1627,
      "╪": 1628,
      "╫": 1629,
      "╬": 1630,
      "╭": 1631,
      "╮": 1632,
      "╯": 1633,
      "╰": 1634,
      "╱": 1635,
      "╲": 1636,
      "╳": 1637,
      "╸": 1638,
      "╺": 1639,
      "▂": 1640,
      "█": 1641,
      "▌": 1642,
      "▎": 1643,
      "▐": 1644,
      "▔": 1645,
      "▕": 1646,
      "■": 1647,
      "□": 1648,
      "▢": 1649,
      "▤": 1650,
      "▨": 1651,
      "▪": 1652,
      "▭": 1653,
      "▮": 1654,
      "▱": 1655,
      "▲": 1656,
      "△": 1657,
      "▶": 1658,
      "►": 1659,
      "▼": 1660,
      "▽": 1661,
      "◀": 1662,
      "◆": 1663,
      "◇": 1664,
      "◉": 1665,
      "◊": 1666,
      "○": 1667,
      "◍": 1668,
      "●": 1669,
      "◖": 1670,
      "◠": 1671,
      "◡": 1672,
      "◬": 1673,
      "◯": 1674,
      "★": 1675,
      "☉": 1676,
      "☊": 1677,
      "☋": 1678,
      "☌": 1679,
      "☍": 1680,
      "☓": 1681,
      "☘": 1682,
      "☙": 1683,
      "☚": 1684,
      "☛": 1685,
      "☜": 1686,
      "☞": 1687,
      "☥": 1688,
      "☧": 1689,
      "☨": 1690,
      "☩": 1691,
      "☰": 1692,
      "☱": 1693,
      "☲": 1694,
      "☳": 1695,
      "☴": 1696,
      "☵": 1697,
      "☶": 1698,
      "☷": 1699,
      "☼": 1700,
      "☽": 1701,
      "☾": 1702,
      "☿": 1703,
      "♀": 1704,
      "♁": 1705,
      "♂": 1706,
      "♃": 1707,
      "♄": 1708,
      "♅": 1709,
      "♆": 1710,
      "♇": 1711,
      "♈": 1712,
      "♉": 1713,
      "♊": 1714,
      "♋": 1715,
      "♌": 1716,
      "♍": 1717,
      "♎": 1718,
      "♏": 1719,
      "♐": 1720,
      "♑": 1721,
      "♒": 1722,
      "♓": 1723,
      "♔": 1724,
      "♕": 1725,
      "♖": 1726,
      "♗": 1727,
      "♘": 1728,
      "♙": 1729,
      "♚": 1730,
      "♛": 1731,
      "♜": 1732,
      "♝": 1733,
      "♞": 1734,
      "♟": 1735,
      "♠": 1736,
      "♡": 1737,
      "♢": 1738,
      "♣": 1739,
      "♥": 1740,
      "♦": 1741,
      "♩": 1742,
      "♪": 1743,
      "♭": 1744,
      "♮": 1745,
      "♯": 1746,
      "⚀": 1747,
      "⚁": 1748,
      "⚂": 1749,
      "⚃": 1750,
      "⚄": 1751,
      "⚅": 1752,
      "⚊": 1753,
      "⚋": 1754,
      "⚌": 1755,
      "⚍": 1756,
      "⚎": 1757,
      "⚏": 1758,
      "⚐": 1759,
      "⚔": 1760,
      "⚪": 1761,
      "⚫": 1762,
      "⚬": 1763,
      "⚲": 1764,
      "⚳": 1765,
      "⚴": 1766,
      "⚵": 1767,
      "⚶": 1768,
      "⚹": 1769,
      "⛀": 1770,
      "⛁": 1771,
      "⛂": 1772,
      "⛃": 1773,
      "⛢": 1774,
      "⛳": 1775,
      "✓": 1776,
      "✕": 1777,
      "✙": 1778,
      "✝": 1779,
      "✟": 1780,
      "✠": 1781,
      "✡": 1782,
      "✩": 1783,
      "✱": 1784,
      "✲": 1785,
      "✴": 1786,
      "✶": 1787,
      "✿": 1788,
      "❀": 1789,
      "❌": 1790,
      "❦": 1791,
      "❧": 1792,
      "❯": 1793,
      "➔": 1794,
      "⟂": 1795,
      "⟙": 1796,
      "⠁": 1797,
      "⠄": 1798,
      "⦠": 1799,
      "⦻": 1800,
      "⦾": 1801,
      "⦿": 1802,
      "⧧": 1803,
      "⧫": 1804,
      "⧸": 1805,
      "⧼": 1806,
      "⨀": 1807,
      "⨁": 1808,
      "⩀": 1809,
      "⩋": 1810,
      "⩡": 1811,
      "⪌": 1812,
      "⪥": 1813,
      "⫍": 1814,
      "⫎": 1815,
      "⫛": 1816,
      "⫨": 1817,
      "⫶": 1818,
      "⬆": 1819,
      "⬜": 1820,
      "⬯": 1821,
      "⭘": 1822,
      "Ɑ": 1823,
      "Ⲁ": 1824,
      "ⲁ": 1825,
      "Ⲃ": 1826,
      "Ⲉ": 1827,
      "ⲏ": 1828,
      "Ⲓ": 1829,
      "ⲓ": 1830,
      "ⲕ": 1831,
      "ⲙ": 1832,
      "Ⲛ": 1833,
      "ⲛ": 1834,
      "ⲟ": 1835,
      "Ⲡ": 1836,
      "ⲧ": 1837,
      "Ⲫ": 1838,
      "Ⲭ": 1839,
      "Ⲯ": 1840,
      "⳨": 1841,
      "⸗": 1842,
      "⸧": 1843,
      "⸪": 1844,
      "⸫": 1845,
      "⸲": 1846,
      "⸴": 1847,
      "⸸": 1848,
      "⸺": 1849,
      "⸻": 1850,
      "、": 1851,
      "。": 1852,
      "〃": 1853,
      "〔": 1854,
      "〕": 1855,
      "ひ": 1856,
      "ア": 1857,
      "イ": 1858,
      "エ": 1859,
      "カ": 1860,
      "ガ": 1861,
      "グ": 1862,
      "ジ": 1863,
      "ス": 1864,
      "ゼ": 1865,
      "ソ": 1866,
      "ダ": 1867,
      "チ": 1868,
      "ッ": 1869,
      "ト": 1870,
      "ナ": 1871,
      "パ": 1872,
      "プ": 1873,
      "ベ": 1874,
      "マ": 1875,
      "ャ": 1876,
      "ン": 1877,
      "・": 1878,
      "ー": 1879,
      "㇀": 1880,
      "㇁": 1881,
      "㇏": 1882,
      "㇐": 1883,
      "㇑": 1884,
      "㇒": 1885,
      "㇔": 1886,
      "㇚": 1887,
      "䷞": 1888,
      "一": 1889,
      "丁": 1890,
      "七": 1891,
      "三": 1892,
      "上": 1893,
      "下": 1894,
      "不": 1895,
      "且": 1896,
      "丕": 1897,
      "世": 1898,
      "丘": 1899,
      "丞": 1900,
      "両": 1901,
      "中": 1902,
      "丸": 1903,
      "主": 1904,
      "乃": 1905,
      "久": 1906,
      "之": 1907,
      "乎": 1908,
      "乘": 1909,
      "九": 1910,
      "也": 1911,
      "乾": 1912,
      "亂": 1913,
      "了": 1914,
      "予": 1915,
      "事": 1916,
      "二": 1917,
      "于": 1918,
      "云": 1919,
      "五": 1920,
      "井": 1921,
      "亞": 1922,
      "亢": 1923,
      "交": 1924,
      "亦": 1925,
      "享": 1926,
      "京": 1927,
      "亭": 1928,
      "亶": 1929,
      "人": 1930,
      "什": 1931,
      "仁": 1932,
      "仇": 1933,
      "今": 1934,
      "仍": 1935,
      "他": 1936,
      "代": 1937,
      "令": 1938,
      "以": 1939,
      "仲": 1940,
      "任": 1941,
      "伊": 1942,
      "伋": 1943,
      "伏": 1944,
      "伯": 1945,
      "伸": 1946,
      "似": 1947,
      "伽": 1948,
      "但": 1949,
      "住": 1950,
      "何": 1951,
      "佛": 1952,
      "作": 1953,
      "佩": 1954,
      "使": 1955,
      "侃": 1956,
      "來": 1957,
      "侈": 1958,
      "例": 1959,
      "侍": 1960,
      "侏": 1961,
      "侗": 1962,
      "依": 1963,
      "侯": 1964,
      "侵": 1965,
      "係": 1966,
      "俗": 1967,
      "信": 1968,
      "修": 1969,
      "倘": 1970,
      "候": 1971,
      "值": 1972,
      "偃": 1973,
      "假": 1974,
      "偕": 1975,
      "做": 1976,
      "停": 1977,
      "健": 1978,
      "偪": 1979,
      "偶": 1980,
      "備": 1981,
      "傳": 1982,
      "傷": 1983,
      "僎": 1984,
      "僕": 1985,
      "僚": 1986,
      "儀": 1987,
      "儒": 1988,
      "儻": 1989,
      "允": 1990,
      "元": 1991,
      "充": 1992,
      "先": 1993,
      "光": 1994,
      "克": 1995,
      "免": 1996,
      "兒": 1997,
      "兗": 1998,
      "入": 1999,
      "內": 2000,
      "全": 2001,
      "兩": 2002,
      "八": 2003,
      "公": 2004,
      "六": 2005,
      "共": 2006,
      "兵": 2007,
      "其": 2008,
      "具": 2009,
      "典": 2010,
      "兼": 2011,
      "内": 2012,
      "冉": 2013,
      "冕": 2014,
      "冤": 2015,
      "冶": 2016,
      "冷": 2017,
      "准": 2018,
      "凌": 2019,
      "凡": 2020,
      "出": 2021,
      "分": 2022,
      "切": 2023,
      "列": 2024,
      "初": 2025,
      "別": 2026,
      "利": 2027,
      "到": 2028,
      "刲": 2029,
      "制": 2030,
      "刷": 2031,
      "刻": 2032,
      "則": 2033,
      "剋": 2034,
      "前": 2035,
      "剎": 2036,
      "劉": 2037,
      "劍": 2038,
      "力": 2039,
      "功": 2040,
      "加": 2041,
      "助": 2042,
      "勉": 2043,
      "勒": 2044,
      "務": 2045,
      "勝": 2046,
      "勢": 2047,
      "勤": 2048,
      "勸": 2049,
      "勾": 2050,
      "勿": 2051,
      "包": 2052,
      "化": 2053,
      "北": 2054,
      "匡": 2055,
      "匯": 2056,
      "匿": 2057,
      "十": 2058,
      "千": 2059,
      "卅": 2060,
      "升": 2061,
      "卍": 2062,
      "卐": 2063,
      "卒": 2064,
      "南": 2065,
      "博": 2066,
      "卜": 2067,
      "卞": 2068,
      "卧": 2069,
      "卯": 2070,
      "印": 2071,
      "危": 2072,
      "即": 2073,
      "卷": 2074,
      "卹": 2075,
      "卿": 2076,
      "厚": 2077,
      "原": 2078,
      "厤": 2079,
      "厲": 2080,
      "去": 2081,
      "參": 2082,
      "又": 2083,
      "及": 2084,
      "友": 2085,
      "反": 2086,
      "叔": 2087,
      "受": 2088,
      "叢": 2089,
      "口": 2090,
      "古": 2091,
      "句": 2092,
      "叭": 2093,
      "可": 2094,
      "史": 2095,
      "右": 2096,
      "司": 2097,
      "各": 2098,
      "合": 2099,
      "吉": 2100,
      "同": 2101,
      "名": 2102,
      "后": 2103,
      "吏": 2104,
      "向": 2105,
      "君": 2106,
      "吠": 2107,
      "否": 2108,
      "吳": 2109,
      "吽": 2110,
      "吾": 2111,
      "告": 2112,
      "呢": 2113,
      "周": 2114,
      "味": 2115,
      "呷": 2116,
      "呼": 2117,
      "命": 2118,
      "和": 2119,
      "咸": 2120,
      "哀": 2121,
      "品": 2122,
      "哆": 2123,
      "哉": 2124,
      "員": 2125,
      "哨": 2126,
      "哪": 2127,
      "哲": 2128,
      "唐": 2129,
      "唫": 2130,
      "唵": 2131,
      "商": 2132,
      "問": 2133,
      "啟": 2134,
      "善": 2135,
      "喇": 2136,
      "喚": 2137,
      "單": 2138,
      "嗚": 2139,
      "嘉": 2140,
      "嘗": 2141,
      "嘴": 2142,
      "器": 2143,
      "噲": 2144,
      "嚤": 2145,
      "嚴": 2146,
      "四": 2147,
      "回": 2148,
      "因": 2149,
      "固": 2150,
      "國": 2151,
      "圖": 2152,
      "土": 2153,
      "在": 2154,
      "地": 2155,
      "圻": 2156,
      "均": 2157,
      "坐": 2158,
      "坡": 2159,
      "坪": 2160,
      "坭": 2161,
      "垣": 2162,
      "垻": 2163,
      "城": 2164,
      "域": 2165,
      "埠": 2166,
      "基": 2167,
      "堂": 2168,
      "堅": 2169,
      "報": 2170,
      "塔": 2171,
      "塲": 2172,
      "墜": 2173,
      "增": 2174,
      "墨": 2175,
      "墩": 2176,
      "墳": 2177,
      "壁": 2178,
      "壓": 2179,
      "壤": 2180,
      "壩": 2181,
      "士": 2182,
      "壬": 2183,
      "壺": 2184,
      "壽": 2185,
      "夀": 2186,
      "夏": 2187,
      "夕": 2188,
      "外": 2189,
      "多": 2190,
      "夜": 2191,
      "夥": 2192,
      "大": 2193,
      "天": 2194,
      "太": 2195,
      "夫": 2196,
      "夷": 2197,
      "夾": 2198,
      "奇": 2199,
      "奈": 2200,
      "奉": 2201,
      "奕": 2202,
      "女": 2203,
      "奴": 2204,
      "奸": 2205,
      "好": 2206,
      "如": 2207,
      "妄": 2208,
      "妙": 2209,
      "妥": 2210,
      "妹": 2211,
      "妻": 2212,
      "始": 2213,
      "姓": 2214,
      "委": 2215,
      "姚": 2216,
      "威": 2217,
      "娶": 2218,
      "嬰": 2219,
      "子": 2220,
      "孔": 2221,
      "字": 2222,
      "存": 2223,
      "孝": 2224,
      "孟": 2225,
      "季": 2226,
      "孫": 2227,
      "學": 2228,
      "孺": 2229,
      "宇": 2230,
      "守": 2231,
      "安": 2232,
      "宋": 2233,
      "完": 2234,
      "宏": 2235,
      "宓": 2236,
      "宗": 2237,
      "官": 2238,
      "定": 2239,
      "宜": 2240,
      "客": 2241,
      "宣": 2242,
      "室": 2243,
      "宮": 2244,
      "宰": 2245,
      "害": 2246,
      "家": 2247,
      "容": 2248,
      "宿": 2249,
      "寅": 2250,
      "密": 2251,
      "寇": 2252,
      "寉": 2253,
      "富": 2254,
      "寐": 2255,
      "寕": 2256,
      "察": 2257,
      "實": 2258,
      "寰": 2259,
      "寵": 2260,
      "寶": 2261,
      "寺": 2262,
      "封": 2263,
      "射": 2264,
      "將": 2265,
      "專": 2266,
      "尉": 2267,
      "尊": 2268,
      "小": 2269,
      "少": 2270,
      "尚": 2271,
      "尹": 2272,
      "尺": 2273,
      "尼": 2274,
      "尾": 2275,
      "居": 2276,
      "屢": 2277,
      "層": 2278,
      "屬": 2279,
      "山": 2280,
      "屺": 2281,
      "岡": 2282,
      "岷": 2283,
      "峨": 2284,
      "峰": 2285,
      "島": 2286,
      "峻": 2287,
      "崇": 2288,
      "崖": 2289,
      "嶓": 2290,
      "嶲": 2291,
      "嶺": 2292,
      "川": 2293,
      "州": 2294,
      "工": 2295,
      "左": 2296,
      "巫": 2297,
      "已": 2298,
      "巴": 2299,
      "巽": 2300,
      "市": 2301,
      "帖": 2302,
      "帛": 2303,
      "帝": 2304,
      "師": 2305,
      "帶": 2306,
      "常": 2307,
      "平": 2308,
      "年": 2309,
      "幵": 2310,
      "并": 2311,
      "幸": 2312,
      "幹": 2313,
      "幾": 2314,
      "庄": 2315,
      "序": 2316,
      "店": 2317,
      "府": 2318,
      "度": 2319,
      "庭": 2320,
      "庵": 2321,
      "庶": 2322,
      "康": 2323,
      "庸": 2324,
      "廉": 2325,
      "廟": 2326,
      "廡": 2327,
      "廣": 2328,
      "延": 2329,
      "廷": 2330,
      "建": 2331,
      "廾": 2332,
      "廿": 2333,
      "弁": 2334,
      "式": 2335,
      "弓": 2336,
      "引": 2337,
      "弟": 2338,
      "張": 2339,
      "強": 2340,
      "彌": 2341,
      "彙": 2342,
      "彝": 2343,
      "形": 2344,
      "彭": 2345,
      "彼": 2346,
      "往": 2347,
      "待": 2348,
      "律": 2349,
      "後": 2350,
      "徐": 2351,
      "徒": 2352,
      "得": 2353,
      "從": 2354,
      "御": 2355,
      "復": 2356,
      "循": 2357,
      "徳": 2358,
      "徵": 2359,
      "德": 2360,
      "徼": 2361,
      "心": 2362,
      "必": 2363,
      "忌": 2364,
      "志": 2365,
      "忘": 2366,
      "忠": 2367,
      "快": 2368,
      "忻": 2369,
      "怒": 2370,
      "思": 2371,
      "性": 2372,
      "怱": 2373,
      "恆": 2374,
      "恐": 2375,
      "恒": 2376,
      "恕": 2377,
      "恨": 2378,
      "恩": 2379,
      "恭": 2380,
      "息": 2381,
      "悉": 2382,
      "悟": 2383,
      "患": 2384,
      "悲": 2385,
      "悼": 2386,
      "情": 2387,
      "惕": 2388,
      "惟": 2389,
      "惠": 2390,
      "惡": 2391,
      "想": 2392,
      "惹": 2393,
      "愍": 2394,
      "意": 2395,
      "愚": 2396,
      "愛": 2397,
      "感": 2398,
      "慈": 2399,
      "態": 2400,
      "慎": 2401,
      "慕": 2402,
      "慧": 2403,
      "慰": 2404,
      "慶": 2405,
      "憲": 2406,
      "應": 2407,
      "懷": 2408,
      "懼": 2409,
      "懿": 2410,
      "戀": 2411,
      "戈": 2412,
      "戎": 2413,
      "成": 2414,
      "我": 2415,
      "或": 2416,
      "戴": 2417,
      "戶": 2418,
      "所": 2419,
      "手": 2420,
      "才": 2421,
      "打": 2422,
      "扶": 2423,
      "批": 2424,
      "承": 2425,
      "技": 2426,
      "抗": 2427,
      "折": 2428,
      "抵": 2429,
      "拉": 2430,
      "拓": 2431,
      "括": 2432,
      "拱": 2433,
      "拷": 2434,
      "指": 2435,
      "按": 2436,
      "振": 2437,
      "捨": 2438,
      "捷": 2439,
      "授": 2440,
      "掌": 2441,
      "掣": 2442,
      "接": 2443,
      "措": 2444,
      "插": 2445,
      "換": 2446,
      "揭": 2447,
      "損": 2448,
      "摩": 2449,
      "撫": 2450,
      "播": 2451,
      "撰": 2452,
      "擾": 2453,
      "攝": 2454,
      "收": 2455,
      "攻": 2456,
      "放": 2457,
      "故": 2458,
      "救": 2459,
      "教": 2460,
      "敝": 2461,
      "敢": 2462,
      "散": 2463,
      "敬": 2464,
      "敵": 2465,
      "數": 2466,
      "斂": 2467,
      "斃": 2468,
      "文": 2469,
      "斗": 2470,
      "料": 2471,
      "斯": 2472,
      "新": 2473,
      "方": 2474,
      "於": 2475,
      "施": 2476,
      "旂": 2477,
      "旅": 2478,
      "旋": 2479,
      "旗": 2480,
      "既": 2481,
      "日": 2482,
      "旦": 2483,
      "旨": 2484,
      "早": 2485,
      "旺": 2486,
      "昆": 2487,
      "昇": 2488,
      "昌": 2489,
      "明": 2490,
      "易": 2491,
      "星": 2492,
      "映": 2493,
      "春": 2494,
      "昭": 2495,
      "是": 2496,
      "昺": 2497,
      "時": 2498,
      "晉": 2499,
      "晌": 2500,
      "晏": 2501,
      "晚": 2502,
      "晢": 2503,
      "普": 2504,
      "景": 2505,
      "智": 2506,
      "暗": 2507,
      "曉": 2508,
      "曰": 2509,
      "書": 2510,
      "曹": 2511,
      "曾": 2512,
      "最": 2513,
      "會": 2514,
      "月": 2515,
      "有": 2516,
      "服": 2517,
      "望": 2518,
      "朝": 2519,
      "期": 2520,
      "木": 2521,
      "未": 2522,
      "本": 2523,
      "朱": 2524,
      "朶": 2525,
      "李": 2526,
      "村": 2527,
      "杜": 2528,
      "束": 2529,
      "東": 2530,
      "松": 2531,
      "板": 2532,
      "析": 2533,
      "林": 2534,
      "果": 2535,
      "柔": 2536,
      "柱": 2537,
      "柳": 2538,
      "柴": 2539,
      "栖": 2540,
      "校": 2541,
      "栢": 2542,
      "根": 2543,
      "格": 2544,
      "桂": 2545,
      "案": 2546,
      "梁": 2547,
      "梅": 2548,
      "梓": 2549,
      "條": 2550,
      "梢": 2551,
      "棋": 2552,
      "棖": 2553,
      "棟": 2554,
      "棹": 2555,
      "楊": 2556,
      "楠": 2557,
      "業": 2558,
      "極": 2559,
      "楷": 2560,
      "榕": 2561,
      "榮": 2562,
      "樂": 2563,
      "樊": 2564,
      "樣": 2565,
      "横": 2566,
      "樹": 2567,
      "橋": 2568,
      "機": 2569,
      "橫": 2570,
      "欖": 2571,
      "次": 2572,
      "欣": 2573,
      "欬": 2574,
      "欺": 2575,
      "歆": 2576,
      "歐": 2577,
      "歛": 2578,
      "止": 2579,
      "正": 2580,
      "此": 2581,
      "步": 2582,
      "武": 2583,
      "歲": 2584,
      "歷": 2585,
      "歸": 2586,
      "死": 2587,
      "殊": 2588,
      "殤": 2589,
      "殺": 2590,
      "殿": 2591,
      "毋": 2592,
      "母": 2593,
      "毎": 2594,
      "每": 2595,
      "比": 2596,
      "毛": 2597,
      "氏": 2598,
      "民": 2599,
      "水": 2600,
      "永": 2601,
      "求": 2602,
      "汎": 2603,
      "汝": 2604,
      "江": 2605,
      "池": 2606,
      "汪": 2607,
      "汲": 2608,
      "沅": 2609,
      "沉": 2610,
      "沖": 2611,
      "沙": 2612,
      "沛": 2613,
      "河": 2614,
      "治": 2615,
      "沿": 2616,
      "法": 2617,
      "波": 2618,
      "泥": 2619,
      "泰": 2620,
      "洋": 2621,
      "洗": 2622,
      "洛": 2623,
      "洞": 2624,
      "津": 2625,
      "洪": 2626,
      "洱": 2627,
      "洲": 2628,
      "活": 2629,
      "洽": 2630,
      "派": 2631,
      "流": 2632,
      "海": 2633,
      "消": 2634,
      "淨": 2635,
      "淫": 2636,
      "深": 2637,
      "淳": 2638,
      "淵": 2639,
      "淸": 2640,
      "清": 2641,
      "減": 2642,
      "渠": 2643,
      "渡": 2644,
      "港": 2645,
      "渴": 2646,
      "游": 2647,
      "渾": 2648,
      "湘": 2649,
      "湯": 2650,
      "溝": 2651,
      "溪": 2652,
      "溫": 2653,
      "滄": 2654,
      "滅": 2655,
      "滇": 2656,
      "滋": 2657,
      "漆": 2658,
      "漢": 2659,
      "潔": 2660,
      "潞": 2661,
      "潭": 2662,
      "澂": 2663,
      "澗": 2664,
      "澤": 2665,
      "澹": 2666,
      "濂": 2667,
      "濱": 2668,
      "瀾": 2669,
      "火": 2670,
      "災": 2671,
      "為": 2672,
      "烏": 2673,
      "烹": 2674,
      "無": 2675,
      "然": 2676,
      "照": 2677,
      "熙": 2678,
      "熱": 2679,
      "燄": 2680,
      "燈": 2681,
      "燒": 2682,
      "燕": 2683,
      "營": 2684,
      "爭": 2685,
      "爲": 2686,
      "父": 2687,
      "爾": 2688,
      "版": 2689,
      "牛": 2690,
      "牟": 2691,
      "牢": 2692,
      "牧": 2693,
      "物": 2694,
      "特": 2695,
      "犬": 2696,
      "犯": 2697,
      "狂": 2698,
      "狃": 2699,
      "狄": 2700,
      "獄": 2701,
      "獅": 2702,
      "獨": 2703,
      "獻": 2704,
      "玀": 2705,
      "玄": 2706,
      "玉": 2707,
      "王": 2708,
      "班": 2709,
      "現": 2710,
      "琁": 2711,
      "球": 2712,
      "理": 2713,
      "琉": 2714,
      "琳": 2715,
      "琴": 2716,
      "瑀": 2717,
      "瑗": 2718,
      "璃": 2719,
      "璩": 2720,
      "瓦": 2721,
      "甄": 2722,
      "甘": 2723,
      "生": 2724,
      "產": 2725,
      "用": 2726,
      "甫": 2727,
      "甯": 2728,
      "田": 2729,
      "由": 2730,
      "甲": 2731,
      "申": 2732,
      "男": 2733,
      "甸": 2734,
      "町": 2735,
      "界": 2736,
      "畏": 2737,
      "略": 2738,
      "番": 2739,
      "畫": 2740,
      "異": 2741,
      "當": 2742,
      "疆": 2743,
      "疏": 2744,
      "疾": 2745,
      "病": 2746,
      "登": 2747,
      "發": 2748,
      "白": 2749,
      "百": 2750,
      "的": 2751,
      "皆": 2752,
      "皇": 2753,
      "皋": 2754,
      "皙": 2755,
      "皤": 2756,
      "皮": 2757,
      "盛": 2758,
      "盡": 2759,
      "盪": 2760,
      "目": 2761,
      "直": 2762,
      "相": 2763,
      "省": 2764,
      "眉": 2765,
      "看": 2766,
      "真": 2767,
      "眾": 2768,
      "督": 2769,
      "睦": 2770,
      "睾": 2771,
      "瞻": 2772,
      "瞿": 2773,
      "矣": 2774,
      "知": 2775,
      "石": 2776,
      "破": 2777,
      "碑": 2778,
      "磉": 2779,
      "磧": 2780,
      "礒": 2781,
      "礱": 2782,
      "社": 2783,
      "祀": 2784,
      "祈": 2785,
      "祖": 2786,
      "神": 2787,
      "祠": 2788,
      "祥": 2789,
      "祺": 2790,
      "祿": 2791,
      "禁": 2792,
      "福": 2793,
      "禮": 2794,
      "禹": 2795,
      "禽": 2796,
      "秀": 2797,
      "私": 2798,
      "秋": 2799,
      "科": 2800,
      "秦": 2801,
      "程": 2802,
      "種": 2803,
      "稱": 2804,
      "穀": 2805,
      "穆": 2806,
      "穌": 2807,
      "穎": 2808,
      "穰": 2809,
      "空": 2810,
      "窩": 2811,
      "窮": 2812,
      "立": 2813,
      "站": 2814,
      "章": 2815,
      "端": 2816,
      "竹": 2817,
      "第": 2818,
      "筆": 2819,
      "等": 2820,
      "策": 2821,
      "箭": 2822,
      "節": 2823,
      "篇": 2824,
      "籍": 2825,
      "米": 2826,
      "粗": 2827,
      "粵": 2828,
      "粻": 2829,
      "精": 2830,
      "糧": 2831,
      "系": 2832,
      "紀": 2833,
      "約": 2834,
      "紇": 2835,
      "納": 2836,
      "紐": 2837,
      "級": 2838,
      "素": 2839,
      "索": 2840,
      "終": 2841,
      "結": 2842,
      "絞": 2843,
      "給": 2844,
      "統": 2845,
      "經": 2846,
      "網": 2847,
      "緣": 2848,
      "緯": 2849,
      "緻": 2850,
      "縚": 2851,
      "縣": 2852,
      "縱": 2853,
      "縵": 2854,
      "總": 2855,
      "繆": 2856,
      "繇": 2857,
      "繫": 2858,
      "纂": 2859,
      "續": 2860,
      "罔": 2861,
      "罕": 2862,
      "罪": 2863,
      "置": 2864,
      "罰": 2865,
      "罵": 2866,
      "羅": 2867,
      "羊": 2868,
      "美": 2869,
      "羔": 2870,
      "群": 2871,
      "義": 2872,
      "羲": 2873,
      "羽": 2874,
      "翁": 2875,
      "翟": 2876,
      "翼": 2877,
      "老": 2878,
      "考": 2879,
      "者": 2880,
      "而": 2881,
      "耐": 2882,
      "耕": 2883,
      "耳": 2884,
      "耶": 2885,
      "聖": 2886,
      "聞": 2887,
      "聲": 2888,
      "職": 2889,
      "聽": 2890,
      "肅": 2891,
      "肉": 2892,
      "肩": 2893,
      "背": 2894,
      "能": 2895,
      "脖": 2896,
      "脩": 2897,
      "腊": 2898,
      "膽": 2899,
      "臣": 2900,
      "臥": 2901,
      "臨": 2902,
      "自": 2903,
      "臭": 2904,
      "至": 2905,
      "致": 2906,
      "臺": 2907,
      "與": 2908,
      "興": 2909,
      "舖": 2910,
      "舟": 2911,
      "般": 2912,
      "船": 2913,
      "良": 2914,
      "色": 2915,
      "艸": 2916,
      "芝": 2917,
      "花": 2918,
      "芻": 2919,
      "苑": 2920,
      "若": 2921,
      "苦": 2922,
      "英": 2923,
      "范": 2924,
      "茢": 2925,
      "茲": 2926,
      "茶": 2927,
      "荀": 2928,
      "草": 2929,
      "荒": 2930,
      "莊": 2931,
      "莫": 2932,
      "菜": 2933,
      "菩": 2934,
      "華": 2935,
      "菴": 2936,
      "萊": 2937,
      "萬": 2938,
      "落": 2939,
      "葉": 2940,
      "著": 2941,
      "葛": 2942,
      "葢": 2943,
      "蒙": 2944,
      "蒧": 2945,
      "蒲": 2946,
      "蒼": 2947,
      "蓋": 2948,
      "蓬": 2949,
      "蓮": 2950,
      "蓺": 2951,
      "蔑": 2952,
      "蔡": 2953,
      "蔬": 2954,
      "蕪": 2955,
      "蕭": 2956,
      "薛": 2957,
      "薩": 2958,
      "藍": 2959,
      "藏": 2960,
      "藐": 2961,
      "藝": 2962,
      "藥": 2963,
      "藩": 2964,
      "蘧": 2965,
      "蘭": 2966,
      "虎": 2967,
      "虔": 2968,
      "處": 2969,
      "虙": 2970,
      "虛": 2971,
      "虞": 2972,
      "虫": 2973,
      "蛉": 2974,
      "蛾": 2975,
      "蜀": 2976,
      "蜻": 2977,
      "蝻": 2978,
      "融": 2979,
      "螺": 2980,
      "蟬": 2981,
      "蟻": 2982,
      "蠻": 2983,
      "衆": 2984,
      "行": 2985,
      "衍": 2986,
      "街": 2987,
      "衙": 2988,
      "衛": 2989,
      "衣": 2990,
      "表": 2991,
      "袁": 2992,
      "袓": 2993,
      "被": 2994,
      "裏": 2995,
      "裕": 2996,
      "裘": 2997,
      "補": 2998,
      "裡": 2999,
      "裨": 3000,
      "製": 3001,
      "襄": 3002,
      "西": 3003,
      "要": 3004,
      "見": 3005,
      "規": 3006,
      "視": 3007,
      "親": 3008,
      "覺": 3009,
      "覽": 3010,
      "觀": 3011,
      "角": 3012,
      "解": 3013,
      "言": 3014,
      "訓": 3015,
      "記": 3016,
      "許": 3017,
      "註": 3018,
      "詁": 3019,
      "詈": 3020,
      "詣": 3021,
      "試": 3022,
      "詩": 3023,
      "該": 3024,
      "詳": 3025,
      "語": 3026,
      "誣": 3027,
      "誤": 3028,
      "說": 3029,
      "誰": 3030,
      "課": 3031,
      "請": 3032,
      "論": 3033,
      "諭": 3034,
      "諸": 3035,
      "謁": 3036,
      "謂": 3037,
      "謄": 3038,
      "謊": 3039,
      "謗": 3040,
      "講": 3041,
      "證": 3042,
      "譜": 3043,
      "譯": 3044,
      "護": 3045,
      "讀": 3046,
      "讎": 3047,
      "讓": 3048,
      "谷": 3049,
      "豈": 3050,
      "豐": 3051,
      "象": 3052,
      "豢": 3053,
      "貞": 3054,
      "負": 3055,
      "財": 3056,
      "貢": 3057,
      "貧": 3058,
      "貨": 3059,
      "貪": 3060,
      "貴": 3061,
      "買": 3062,
      "費": 3063,
      "貼": 3064,
      "貿": 3065,
      "賂": 3066,
      "賄": 3067,
      "賈": 3068,
      "賊": 3069,
      "賓": 3070,
      "賜": 3071,
      "賢": 3072,
      "賣": 3073,
      "賤": 3074,
      "賴": 3075,
      "贛": 3076,
      "赤": 3077,
      "起": 3078,
      "越": 3079,
      "趙": 3080,
      "距": 3081,
      "路": 3082,
      "跳": 3083,
      "蹄": 3084,
      "身": 3085,
      "躬": 3086,
      "車": 3087,
      "軍": 3088,
      "軟": 3089,
      "輯": 3090,
      "輿": 3091,
      "轉": 3092,
      "辛": 3093,
      "辦": 3094,
      "辨": 3095,
      "辯": 3096,
      "辰": 3097,
      "辱": 3098,
      "農": 3099,
      "迂": 3100,
      "近": 3101,
      "迦": 3102,
      "述": 3103,
      "迷": 3104,
      "追": 3105,
      "送": 3106,
      "适": 3107,
      "逆": 3108,
      "這": 3109,
      "通": 3110,
      "造": 3111,
      "連": 3112,
      "進": 3113,
      "逵": 3114,
      "逸": 3115,
      "逹": 3116,
      "遂": 3117,
      "遇": 3118,
      "遊": 3119,
      "遍": 3120,
      "過": 3121,
      "道": 3122,
      "達": 3123,
      "遙": 3124,
      "遜": 3125,
      "遠": 3126,
      "適": 3127,
      "遲": 3128,
      "遵": 3129,
      "選": 3130,
      "遺": 3131,
      "還": 3132,
      "邊": 3133,
      "邕": 3134,
      "邢": 3135,
      "那": 3136,
      "邦": 3137,
      "邱": 3138,
      "郈": 3139,
      "郡": 3140,
      "郢": 3141,
      "郭": 3142,
      "郯": 3143,
      "郰": 3144,
      "都": 3145,
      "鄉": 3146,
      "鄒": 3147,
      "鄔": 3148,
      "鄡": 3149,
      "鄧": 3150,
      "鄭": 3151,
      "鄱": 3152,
      "鄹": 3153,
      "醫": 3154,
      "釀": 3155,
      "釋": 3156,
      "里": 3157,
      "重": 3158,
      "野": 3159,
      "量": 3160,
      "釐": 3161,
      "金": 3162,
      "鉤": 3163,
      "銀": 3164,
      "鋪": 3165,
      "錄": 3166,
      "錫": 3167,
      "錯": 3168,
      "鍇": 3169,
      "鍊": 3170,
      "鎮": 3171,
      "鏡": 3172,
      "鐫": 3173,
      "鑑": 3174,
      "鑪": 3175,
      "長": 3176,
      "門": 3177,
      "閂": 3178,
      "開": 3179,
      "間": 3180,
      "閔": 3181,
      "閻": 3182,
      "關": 3183,
      "阬": 3184,
      "阮": 3185,
      "防": 3186,
      "阻": 3187,
      "阿": 3188,
      "陀": 3189,
      "附": 3190,
      "陋": 3191,
      "陜": 3192,
      "陞": 3193,
      "院": 3194,
      "除": 3195,
      "陬": 3196,
      "陰": 3197,
      "陳": 3198,
      "陶": 3199,
      "陸": 3200,
      "陽": 3201,
      "隆": 3202,
      "隋": 3203,
      "際": 3204,
      "隨": 3205,
      "險": 3206,
      "隻": 3207,
      "雄": 3208,
      "雅": 3209,
      "集": 3210,
      "雍": 3211,
      "雕": 3212,
      "雖": 3213,
      "雚": 3214,
      "雜": 3215,
      "雞": 3216,
      "離": 3217,
      "難": 3218,
      "雲": 3219,
      "零": 3220,
      "雷": 3221,
      "電": 3222,
      "霖": 3223,
      "霞": 3224,
      "霸": 3225,
      "靈": 3226,
      "靑": 3227,
      "青": 3228,
      "靖": 3229,
      "非": 3230,
      "靡": 3231,
      "面": 3232,
      "革": 3233,
      "鞫": 3234,
      "韋": 3235,
      "音": 3236,
      "韻": 3237,
      "頂": 3238,
      "順": 3239,
      "須": 3240,
      "頌": 3241,
      "領": 3242,
      "頤": 3243,
      "頭": 3244,
      "顏": 3245,
      "顒": 3246,
      "顓": 3247,
      "顗": 3248,
      "願": 3249,
      "類": 3250,
      "顥": 3251,
      "顧": 3252,
      "顯": 3253,
      "風": 3254,
      "飛": 3255,
      "食": 3256,
      "飯": 3257,
      "飲": 3258,
      "餉": 3259,
      "養": 3260,
      "餓": 3261,
      "餕": 3262,
      "餘": 3263,
      "饋": 3264,
      "饌": 3265,
      "饗": 3266,
      "首": 3267,
      "香": 3268,
      "馬": 3269,
      "駐": 3270,
      "駙": 3271,
      "駟": 3272,
      "騎": 3273,
      "騫": 3274,
      "驕": 3275,
      "驛": 3276,
      "體": 3277,
      "高": 3278,
      "鬧": 3279,
      "鬬": 3280,
      "魏": 3281,
      "魚": 3282,
      "魯": 3283,
      "魴": 3284,
      "鮒": 3285,
      "鯉": 3286,
      "鱣": 3287,
      "鳥": 3288,
      "鳳": 3289,
      "鳴": 3290,
      "鴉": 3291,
      "鴨": 3292,
      "鷄": 3293,
      "鹿": 3294,
      "麗": 3295,
      "麼": 3296,
      "黃": 3297,
      "黄": 3298,
      "黍": 3299,
      "黑": 3300,
      "點": 3301,
      "黨": 3302,
      "鼓": 3303,
      "齊": 3304,
      "齋": 3305,
      "齒": 3306,
      "齡": 3307,
      "龍": 3308,
      "龜": 3309,
      "ꝉ": 3310,
      "ꝏ": 3311,
      "Ꝑ": 3312,
      "ꝑ": 3313,
      "ꝓ": 3314,
      "ꝕ": 3315,
      "Ꝝ": 3316,
      "ꝟ": 3317,
      "ꝥ": 3318,
      "ꝫ": 3319,
      "Ꝭ": 3320,
      "ꝭ": 3321,
      "ꝰ": 3322,
      "ꝶ": 3323,
      "Ꝺ": 3324,
      "ꝺ": 3325,
      "Ꝼ": 3326,
      "ꝼ": 3327,
      "Ᵹ": 3328,
      "ꞃ": 3329,
      "ꞅ": 3330,
      "Ꞇ": 3331,
      "ꞇ": 3332,
      "ꟼ": 3333,
      "ꟽ": 3334,
      "益": 3335,
      "神": 3336,
      "社": 3337,
      "者": 3338,
      "ﬀ": 3339,
      "ﬁ": 3340,
      "ﬂ": 3341,
      "ﬃ": 3342,
      "ﬄ": 3343,
      "ﬅ": 3344,
      "ﬡ": 3345,
      "ﬣ": 3346,
      "ﬤ": 3347,
      "ﬥ": 3348,
      "ﬦ": 3349,
      "ﬨ": 3350,
      "שׁ": 3351,
      "שׂ": 3352,
      "בּ": 3353,
      "גּ": 3354,
      "וּ": 3355,
      "יּ": 3356,
      "כּ": 3357,
      "פּ": 3358,
      "וֹ": 3359,
      "ﭘ": 3360,
      "︶": 3361,
      "︷": 3362,
      "ﺍ": 3363,
      "ﺎ": 3364,
      "ﺏ": 3365,
      "ﺑ": 3366,
      "ﺕ": 3367,
      "ﺖ": 3368,
      "ﺗ": 3369,
      "ﺘ": 3370,
      "ﺙ": 3371,
      "ﺛ": 3372,
      "ﺜ": 3373,
      "ﺝ": 3374,
      "ﺡ": 3375,
      "ﺣ": 3376,
      "ﺥ": 3377,
      "ﺨ": 3378,
      "ﺩ": 3379,
      "ﺪ": 3380,
      "ﺫ": 3381,
      "ﺭ": 3382,
      "ﺮ": 3383,
      "ﺯ": 3384,
      "ﺰ": 3385,
      "ﺳ": 3386,
      "ﺴ": 3387,
      "ﺸ": 3388,
      "ﻊ": 3389,
      "ﻎ": 3390,
      "ﻒ": 3391,
      "ﻛ": 3392,
      "ﻜ": 3393,
      "ﻝ": 3394,
      "ﻟ": 3395,
      "ﻢ": 3396,
      "ﻣ": 3397,
      "ﻥ": 3398,
      "ﻦ": 3399,
      "ﻧ": 3400,
      "ﻨ": 3401,
      "ﻩ": 3402,
      "ﻪ": 3403,
      "ﻭ": 3404,
      "ﻮ": 3405,
      "ﻱ": 3406,
      "ﻳ": 3407,
      "﻿": 3408,
      "！": 3409,
      "＊": 3410,
      "＋": 3411,
      "，": 3412,
      "－": 3413,
      "：": 3414,
      "；": 3415,
      "＜": 3416,
      "＝": 3417,
      "＞": 3418,
      "Ｔ": 3419,
      "Ｖ": 3420,
      "�": 3421,
      "𐅵": 3422,
      "𓎆": 3423,
      "𝔷": 3424,
      "𝝘": 3425,
      "𝝩": 3426,
      "🂡": 3427,
      "🂢": 3428,
      "🂣": 3429,
      "🂤": 3430,
      "🂥": 3431,
      "🂦": 3432,
      "🂧": 3433,
      "🂨": 3434,
      "🂩": 3435,
      "🂪": 3436,
      "🂫": 3437,
      "🂭": 3438,
      "🂮": 3439,
      "🂱": 3440,
      "🂲": 3441,
      "🂳": 3442,
      "🂴": 3443,
      "🂵": 3444,
      "🂶": 3445,
      "🂷": 3446,
      "🂸": 3447,
      "🂹": 3448,
      "🂺": 3449,
      "🂻": 3450,
      "🂽": 3451,
      "🂾": 3452,
      "🃁": 3453,
      "🃂": 3454,
      "🃃": 3455,
      "🃄": 3456,
      "🃅": 3457,
      "🃆": 3458,
      "🃇": 3459,
      "🃈": 3460,
      "🃉": 3461,
      "🃊": 3462,
      "🃋": 3463,
      "🃍": 3464,
      "🃎": 3465,
      "🃑": 3466,
      "🃒": 3467,
      "🃓": 3468,
      "🃔": 3469,
      "🃕": 3470,
      "🃖": 3471,
      "🃗": 3472,
      "🃘": 3473,
      "🃙": 3474,
      "🃚": 3475,
      "🃛": 3476,
      "🃝": 3477,
      "🃞": 3478,
      "🌚": 3479,
      "🌛": 3480,
      "🌜": 3481,
      "🌝": 3482,
      "👉": 3483,
      "🖙": 3484,
      "🖛": 3485,
      "🜚": 3486,
      "🜨": 3487,
      "𡨴": 3488,
      "th": 3489,
      "the": 3490,
      "in": 3491,
      "an": 3492,
      "er": 3493,
      "on": 3494,
      "re": 3495,
      "en": 3496,
      "at": 3497,
      "ou": 3498,
      "ed": 3499,
      "of": 3500,
      "is": 3501,
      "and": 3502,
      "to": 3503,
      "as": 3504,
      "or": 3505,
      "es": 3506,
      "ar": 3507,
      "ing": 3508,
      "al": 3509,
      "it": 3510,
      "he": 3511,
      "le": 3512,
      "st": 3513,
      "ch": 3514,
      "se": 3515,
      "om": 3516,
      "be": 3517,
      "ad": 3518,
      "wh": 3519,
      "ly": 3520,
      "no": 3521,
      "ion": 3522,
      "ll": 3523,
      "ce": 3524,
      "ent": 3525,
      "wi": 3526,
      "ve": 3527,
      "im": 3528,
      "that": 3529,
      "ld": 3530,
      "id": 3531,
      "gh": 3532,
      "for": 3533,
      "was": 3534,
      "ro": 3535,
      "ver": 3536,
      "ut": 3537,
      "ir": 3538,
      "li": 3539,
      "am": 3540,
      "his": 3541,
      "ay": 3542,
      "ri": 3543,
      "ow": 3544,
      "with": 3545,
      "ter": 3546,
      "ac": 3547,
      "un": 3548,
      "--": 3549,
      "all": 3550,
      "ic": 3551,
      "you": 3552,
      "her": 3553,
      "ur": 3554,
      "ha": 3555,
      "de": 3556,
      "su": 3557,
      "not": 3558,
      "ght": 3559,
      "et": 3560,
      "The": 3561,
      "ab": 3562,
      "ther": 3563,
      "had": 3564,
      "ag": 3565,
      "ain": 3566,
      "lo": 3567,
      "we": 3568,
      "us": 3569,
      "are": 3570,
      "con": 3571,
      "mo": 3572,
      "whi": 3573,
      "so": 3574,
      "ne": 3575,
      "ere": 3576,
      "po": 3577,
      "by": 3578,
      "pe": 3579,
      "ct": 3580,
      "sh": 3581,
      "ould": 3582,
      "me": 3583,
      "one": 3584,
      "fe": 3585,
      "ke": 3586,
      "ess": 3587,
      "il": 3588,
      "fr": 3589,
      "our": 3590,
      "nd": 3591,
      "which": 3592,
      "com": 3593,
      "out": 3594,
      "ul": 3595,
      "ation": 3596,
      "est": 3597,
      "res": 3598,
      "od": 3599,
      "per": 3600,
      "him": 3601,
      "qu": 3602,
      "man": 3603,
      "ex": 3604,
      "have": 3605,
      "but": 3606,
      "up": 3607,
      "from": 3608,
      "ap": 3609,
      "tr": 3610,
      "if": 3611,
      "sa": 3612,
      "te": 3613,
      "my": 3614,
      "ard": 3615,
      "this": 3616,
      "ant": 3617,
      "go": 3618,
      "ous": 3619,
      "were": 3620,
      "pl": 3621,
      "she": 3622,
      "art": 3623,
      "they": 3624,
      "fo": 3625,
      "who": 3626,
      "ate": 3627,
      "end": 3628,
      "ill": 3629,
      "do": 3630,
      "co": 3631,
      "ind": 3632,
      "now": 3633,
      "pro": 3634,
      "ust": 3635,
      "ome": 3636,
      ".\"": 3637,
      "ist": 3638,
      "ge": 3639,
      "their": 3640,
      "ong": 3641,
      "ers": 3642,
      "ast": 3643,
      "wor": 3644,
      "ame": 3645,
      "them": 3646,
      "ish": 3647,
      "very": 3648,
      "sel": 3649,
      "ra": 3650,
      "ment": 3651,
      "ound": 3652,
      "ight": 3653,
      "op": 3654,
      "pr": 3655,
      "ig": 3656,
      "ity": 3657,
      "ok": 3658,
      "der": 3659,
      "He": 3660,
      "red": 3661,
      "been": 3662,
      ",\"": 3663,
      "bo": 3664,
      "um": 3665,
      "ak": 3666,
      "other": 3667,
      "ive": 3668,
      "would": 3669,
      "ough": 3670,
      "there": 3671,
      "au": 3672,
      "ven": 3673,
      "said": 3674,
      "thing": 3675,
      "ie": 3676,
      "way": 3677,
      "ol": 3678,
      "em": 3679,
      "fa": 3680,
      "ci": 3681,
      "will": 3682,
      "some": 3683,
      "ence": 3684,
      "own": 3685,
      "ck": 3686,
      "reat": 3687,
      "ure": 3688,
      "ass": 3689,
      "It": 3690,
      "any": 3691,
      "ry": 3692,
      "ine": 3693,
      "oun": 3694,
      "able": 3695,
      "af": 3696,
      "itt": 3697,
      "Th": 3698,
      "tim": 3699,
      "when": 3700,
      "its": 3701,
      "ance": 3702,
      "ort": 3703,
      "self": 3704,
      "act": 3705,
      "ack": 3706,
      "cl": 3707,
      "more": 3708,
      "ear": 3709,
      "can": 3710,
      "el": 3711,
      "ho": 3712,
      "pos": 3713,
      "fore": 3714,
      "wo": 3715,
      "ies": 3716,
      "ans": 3717,
      "has": 3718,
      "ved": 3719,
      "ach": 3720,
      "age": 3721,
      "ake": 3722,
      "pt": 3723,
      "pres": 3724,
      "pre": 3725,
      "into": 3726,
      "dis": 3727,
      "bl": 3728,
      "here": 3729,
      "tain": 3730,
      "day": 3731,
      "ide": 3732,
      "gr": 3733,
      "know": 3734,
      "ally": 3735,
      "what": 3736,
      "ade": 3737,
      "than": 3738,
      "ite": 3739,
      "Wh": 3740,
      "ber": 3741,
      "over": 3742,
      "ep": 3743,
      "In": 3744,
      "ful": 3745,
      "ves": 3746,
      "sp": 3747,
      "could": 3748,
      "And": 3749,
      "part": 3750,
      "br": 3751,
      "gl": 3752,
      "ree": 3753,
      "urn": 3754,
      "ought": 3755,
      "time": 3756,
      "your": 3757,
      "ary": 3758,
      "row": 3759,
      "ions": 3760,
      "But": 3761,
      "ble": 3762,
      "ire": 3763,
      "ot": 3764,
      "str": 3765,
      "great": 3766,
      "ated": 3767,
      "upon": 3768,
      "int": 3769,
      "ice": 3770,
      "men": 3771,
      "si": 3772,
      "ty": 3773,
      "like": 3774,
      "Mr": 3775,
      "then": 3776,
      "ue": 3777,
      "most": 3778,
      "ple": 3779,
      "only": 3780,
      "ord": 3781,
      "fer": 3782,
      "ving": 3783,
      "pp": 3784,
      "ang": 3785,
      "about": 3786,
      "ittle": 3787,
      "ace": 3788,
      "fl": 3789,
      "after": 3790,
      "should": 3791,
      "ob": 3792,
      "see": 3793,
      "hand": 3794,
      "fir": 3795,
      "ud": 3796,
      "again": 3797,
      "form": 3798,
      "long": 3799,
      "little": 3800,
      "ose": 3801,
      "did": 3802,
      "ever": 3803,
      "Ch": 3804,
      "?\"": 3805,
      "spe": 3806,
      "two": 3807,
      "uch": 3808,
      "may": 3809,
      "made": 3810,
      "ser": 3811,
      "ink": 3812,
      "son": 3813,
      "say": 3814,
      "where": 3815,
      "des": 3816,
      "read": 3817,
      "sto": 3818,
      "mon": 3819,
      "ret": 3820,
      "well": 3821,
      "coun": 3822,
      "ward": 3823,
      "how": 3824,
      "look": 3825,
      "off": 3826,
      "sc": 3827,
      "ren": 3828,
      "come": 3829,
      "mar": 3830,
      "----": 3831,
      "under": 3832,
      "ious": 3833,
      "la": 3834,
      "less": 3835,
      "before": 3836,
      "these": 3837,
      "such": 3838,
      "old": 3839,
      "ness": 3840,
      "hi": 3841,
      "let": 3842,
      "good": 3843,
      "came": 3844,
      "must": 3845,
      "ise": 3846,
      "ath": 3847,
      "We": 3848,
      "att": 3849,
      "ign": 3850,
      "first": 3851,
      "much": 3852,
      "18": 3853,
      "new": 3854,
      "ER": 3855,
      "arm": 3856,
      "down": 3857,
      "llow": 3858,
      "inter": 3859,
      "ted": 3860,
      "light": 3861,
      "every": 3862,
      "thr": 3863,
      "ave": 3864,
      "bet": 3865,
      "ction": 3866,
      "ces": 3867,
      "ition": 3868,
      "ked": 3869,
      "even": 3870,
      "land": 3871,
      "orn": 3872,
      "ps": 3873,
      "St": 3874,
      "ater": 3875,
      "right": 3876,
      "av": 3877,
      "cc": 3878,
      "ild": 3879,
      "ef": 3880,
      "pass": 3881,
      "year": 3882,
      "tor": 3883,
      "She": 3884,
      "ey": 3885,
      "ings": 3886,
      "led": 3887,
      "ten": 3888,
      "never": 3889,
      "work": 3890,
      "!\"": 3891,
      "iv": 3892,
      "iss": 3893,
      "ian": 3894,
      "..": 3895,
      "mer": 3896,
      "ener": 3897,
      "went": 3898,
      "ced": 3899,
      "ily": 3900,
      "those": 3901,
      "du": 3902,
      "ick": 3903,
      "call": 3904,
      "many": 3905,
      "being": 3906,
      "je": 3907,
      "ried": 3908,
      "cour": 3909,
      "ations": 3910,
      "cer": 3911,
      "ts": 3912,
      "clo": 3913,
      "port": 3914,
      "through": 3915,
      "ouse": 3916,
      "might": 3917,
      "get": 3918,
      "ev": 3919,
      "think": 3920,
      "back": 3921,
      "ase": 3922,
      "cons": 3923,
      "found": 3924,
      "life": 3925,
      "ph": 3926,
      "ft": 3927,
      "sm": 3928,
      "ied": 3929,
      "head": 3930,
      "seem": 3931,
      "himself": 3932,
      "atter": 3933,
      "lic": 3934,
      "gi": 3935,
      "just": 3936,
      "You": 3937,
      "min": 3938,
      "This": 3939,
      "cont": 3940,
      "try": 3941,
      "cted": 3942,
      "ss": 3943,
      "ered": 3944,
      "word": 3945,
      "though": 3946,
      "thought": 3947,
      "shall": 3948,
      "cau": 3949,
      "car": 3950,
      "cr": 3951,
      "air": 3952,
      "ical": 3953,
      "same": 3954,
      "too": 3955,
      "make": 3956,
      "They": 3957,
      "There": 3958,
      "wr": 3959,
      "TH": 3960,
      "ens": 3961,
      "nat": 3962,
      "present": 3963,
      "und": 3964,
      "without": 3965,
      "reg": 3966,
      "fri": 3967,
      "night": 3968,
      "ond": 3969,
      "comp": 3970,
      "sub": 3971,
      "place": 3972,
      "ress": 3973,
      "les": 3974,
      "last": 3975,
      "appe": 3976,
      "ub": 3977,
      "gu": 3978,
      "dist": 3979,
      "ran": 3980,
      "ith": 3981,
      "king": 3982,
      "side": 3983,
      "while": 3984,
      "ia": 3985,
      "No": 3986,
      "bro": 3987,
      "put": 3988,
      "beg": 3989,
      "ip": 3990,
      "iz": 3991,
      "comm": 3992,
      "ished": 3993,
      "ng": 3994,
      "ared": 3995,
      "ople": 3996,
      "ars": 3997,
      "set": 3998,
      "unt": 3999,
      "stand": 4000,
      "ower": 4001,
      "house": 4002,
      "tak": 4003,
      "press": 4004,
      "med": 4005,
      "vo": 4006,
      "tem": 4007,
      "wom": 4008,
      "den": 4009,
      "still": 4010,
      "dif": 4011,
      "cess": 4012,
      "ks": 4013,
      "cent": 4014,
      "cause": 4015,
      "tell": 4016,
      "En": 4017,
      "sur": 4018,
      "away": 4019,
      "take": 4020,
      "col": 4021,
      "00": 4022,
      "turn": 4023,
      "people": 4024,
      "ial": 4025,
      "lt": 4026,
      "cle": 4027,
      "ors": 4028,
      "lie": 4029,
      "rem": 4030,
      "friend": 4031,
      "ner": 4032,
      "ened": 4033,
      "ull": 4034,
      "also": 4035,
      "pri": 4036,
      "char": 4037,
      "nor": 4038,
      "ject": 4039,
      "follow": 4040,
      "aw": 4041,
      "lar": 4042,
      "point": 4043,
      "ates": 4044,
      "face": 4045,
      "par": 4046,
      "bre": 4047,
      "used": 4048,
      "ile": 4049,
      "jo": 4050,
      "young": 4051,
      "RE": 4052,
      "val": 4053,
      "use": 4054,
      "heart": 4055,
      "child": 4056,
      "three": 4057,
      "ways": 4058,
      "ited": 4059,
      "fect": 4060,
      "years": 4061,
      "ince": 4062,
      "AL": 4063,
      "far": 4064,
      "eyes": 4065,
      "TER": 4066,
      "reas": 4067,
      "If": 4068,
      ".,": 4069,
      "cho": 4070,
      "bu": 4071,
      "ters": 4072,
      "cap": 4073,
      "add": 4074,
      "gener": 4075,
      "God": 4076,
      "fort": 4077,
      "fic": 4078,
      "An": 4079,
      "What": 4080,
      "room": 4081,
      "yet": 4082,
      "As": 4083,
      "Engl": 4084,
      "fin": 4085,
      "vis": 4086,
      "His": 4087,
      "near": 4088,
      "occ": 4089,
      "bod": 4090,
      "bed": 4091,
      "ning": 4092,
      "another": 4093,
      "hal": 4094,
      "ON": 4095,
      "cept": 4096,
      "mem": 4097,
      "cond": 4098,
      "against": 4099,
      "left": 4100,
      "once": 4101,
      "low": 4102,
      "ste": 4103,
      "kind": 4104,
      "give": 4105,
      "ently": 4106,
      "eng": 4107,
      "LE": 4108,
      "vers": 4109,
      "II": 4110,
      "To": 4111,
      "ular": 4112,
      "high": 4113,
      "ton": 4114,
      "ash": 4115,
      "AN": 4116,
      "ments": 4117,
      "ark": 4118,
      "ween": 4119,
      "certain": 4120,
      "love": 4121,
      "got": 4122,
      "each": 4123,
      "ult": 4124,
      "pa": 4125,
      "cy": 4126,
      "mind": 4127,
      "find": 4128,
      "When": 4129,
      "IN": 4130,
      "nothing": 4131,
      "ped": 4132,
      "ents": 4133,
      "happ": 4134,
      "ting": 4135,
      "few": 4136,
      "stru": 4137,
      "pur": 4138,
      "che": 4139,
      "Ar": 4140,
      "aut": 4141,
      "For": 4142,
      "rest": 4143,
      "father": 4144,
      "At": 4145,
      "world": 4146,
      "want": 4147,
      "tri": 4148,
      "took": 4149,
      "ail": 4150,
      "water": 4151,
      "between": 4152,
      "That": 4153,
      "augh": 4154,
      "ls": 4155,
      "called": 4156,
      "don": 4157,
      "ins": 4158,
      "ys": 4159,
      "ged": 4160,
      "rep": 4161,
      "17": 4162,
      "Then": 4163,
      "sol": 4164,
      "atch": 4165,
      "fact": 4166,
      "ange": 4167,
      "person": 4168,
      "Jo": 4169,
      "On": 4170,
      "saw": 4171,
      "vent": 4172,
      "ru": 4173,
      "name": 4174,
      "ures": 4175,
      "tal": 4176,
      "So": 4177,
      "sent": 4178,
      "wn": 4179,
      "THE": 4180,
      "order": 4181,
      "always": 4182,
      "ons": 4183,
      "serv": 4184,
      "war": 4185,
      "qui": 4186,
      "ene": 4187,
      "return": 4188,
      "als": 4189,
      "things": 4190,
      "ither": 4191,
      "acc": 4192,
      "country": 4193,
      "quest": 4194,
      "ush": 4195,
      "mom": 4196,
      "half": 4197,
      "ier": 4198,
      "care": 4199,
      "cover": 4200,
      "cu": 4201,
      "ew": 4202,
      "bit": 4203,
      "ready": 4204,
      ".”": 4205,
      "fam": 4206,
      "seen": 4207,
      "whole": 4208,
      "feel": 4209,
      "among": 4210,
      "course": 4211,
      "possi": 4212,
      "small": 4213,
      "num": 4214,
      "ma": 4215,
      "ised": 4216,
      "body": 4217,
      "sy": 4218,
      "Mar": 4219,
      "Be": 4220,
      "Fr": 4221,
      "ating": 4222,
      "ross": 4223,
      "Se": 4224,
      "sk": 4225,
      "round": 4226,
      "pose": 4227,
      "Mrs": 4228,
      "rown": 4229,
      "having": 4230,
      "iness": 4231,
      "won": 4232,
      "lad": 4233,
      "ended": 4234,
      "wa": 4235,
      "soon": 4236,
      "selves": 4237,
      "both": 4238,
      "rew": 4239,
      "spo": 4240,
      "home": 4241,
      "thy": 4242,
      "answ": 4243,
      "wards": 4244,
      "16": 4245,
      "sat": 4246,
      "aking": 4247,
      "whom": 4248,
      "uring": 4249,
      "aster": 4250,
      "pleas": 4251,
      "because": 4252,
      "mother": 4253,
      "sure": 4254,
      "cor": 4255,
      "done": 4256,
      "sou": 4257,
      "vi": 4258,
      "ext": 4259,
      "peri": 4260,
      "ship": 4261,
      "hel": 4262,
      "ale": 4263,
      "vol": 4264,
      "show": 4265,
      "consid": 4266,
      "pect": 4267,
      "15": 4268,
      "days": 4269,
      "tory": 4270,
      "looked": 4271,
      "power": 4272,
      "four": 4273,
      "cut": 4274,
      "hour": 4275,
      "),": 4276,
      "cal": 4277,
      "ca": 4278,
      "fre": 4279,
      "ities": 4280,
      "Chr": 4281,
      "told": 4282,
      "woman": 4283,
      "moment": 4284,
      "heard": 4285,
      "Br": 4286,
      "wind": 4287,
      "sil": 4288,
      "hold": 4289,
      "gg": 4290,
      "ants": 4291,
      "dr": 4292,
      "seemed": 4293,
      "going": 4294,
      "gir": 4295,
      ",--": 4296,
      "large": 4297,
      "ained": 4298,
      "lay": 4299,
      "cri": 4300,
      "ual": 4301,
      "Pr": 4302,
      "rel": 4303,
      "hard": 4304,
      "suf": 4305,
      "hor": 4306,
      "however": 4307,
      "dou": 4308,
      "ches": 4309,
      "10": 4310,
      "bar": 4311,
      "CH": 4312,
      "law": 4313,
      "better": 4314,
      "matter": 4315,
      "os": 4316,
      "asked": 4317,
      "cei": 4318,
      ".'": 4319,
      "sup": 4320,
      "inde": 4321,
      "Al": 4322,
      "belie": 4323,
      "ages": 4324,
      "interest": 4325,
      "taken": 4326,
      "sim": 4327,
      "gether": 4328,
      "spir": 4329,
      "ably": 4330,
      "given": 4331,
      ".--": 4332,
      "inc": 4333,
      "ately": 4334,
      "play": 4335,
      "together": 4336,
      "known": 4337,
      "inst": 4338,
      "app": 4339,
      "12": 4340,
      "lied": 4341,
      "sum": 4342,
      "fully": 4343,
      "ove": 4344,
      "dra": 4345,
      "ele": 4346,
      "sing": 4347,
      "words": 4348,
      "plac": 4349,
      "ict": 4350,
      "ield": 4351,
      "AR": 4352,
      "hands": 4353,
      "ned": 4354,
      "Lord": 4355,
      "Christ": 4356,
      "fair": 4357,
      "enough": 4358,
      "ont": 4359,
      "almost": 4360,
      "differ": 4361,
      "knew": 4362,
      "contin": 4363,
      "quite": 4364,
      "does": 4365,
      "xt": 4366,
      "adv": 4367,
      "ety": 4368,
      "thor": 4369,
      "posed": 4370,
      "sever": 4371,
      "ii": 4372,
      "open": 4373,
      "19": 4374,
      "conf": 4375,
      "Re": 4376,
      "beaut": 4377,
      "aim": 4378,
      "thus": 4379,
      "ory": 4380,
      "ung": 4381,
      "--------": 4382,
      "door": 4383,
      "ye": 4384,
      "ese": 4385,
      "hu": 4386,
      "ined": 4387,
      "mil": 4388,
      "best": 4389,
      "hn": 4390,
      "sha": 4391,
      "pain": 4392,
      "ustr": 4393,
      "ling": 4394,
      "How": 4395,
      "Ro": 4396,
      "until": 4397,
      "ceed": 4398,
      "fall": 4399,
      "cur": 4400,
      "gave": 4401,
      "position": 4402,
      "ze": 4403,
      "book": 4404,
      "ird": 4405,
      "something": 4406,
      "di": 4407,
      "sho": 4408,
      "igh": 4409,
      "dire": 4410,
      "urch": 4411,
      "gent": 4412,
      "De": 4413,
      ".]": 4414,
      "ances": 4415,
      ",”": 4416,
      "ley": 4417,
      "ather": 4418,
      "bus": 4419,
      "keep": 4420,
      "ison": 4421,
      "morn": 4422,
      "bur": 4423,
      "ute": 4424,
      "brought": 4425,
      "amp": 4426,
      "whose": 4427,
      "death": 4428,
      "haps": 4429,
      "bes": 4430,
      "possible": 4431,
      "sen": 4432,
      "full": 4433,
      "EN": 4434,
      "gra": 4435,
      "ched": 4436,
      "reach": 4437,
      "ream": 4438,
      "Miss": 4439,
      "Un": 4440,
      "ank": 4441,
      "John": 4442,
      "others": 4443,
      "ident": 4444,
      "hon": 4445,
      "que": 4446,
      "tru": 4447,
      "white": 4448,
      "My": 4449,
      "prom": 4450,
      "themselves": 4451,
      "necess": 4452,
      "itu": 4453,
      "var": 4454,
      "14": 4455,
      "blo": 4456,
      "Bo": 4457,
      "need": 4458,
      "morning": 4459,
      "case": 4460,
      "real": 4461,
      "whe": 4462,
      "met": 4463,
      "wal": 4464,
      "lit": 4465,
      "ery": 4466,
      "mean": 4467,
      "ief": 4468,
      "All": 4469,
      "OR": 4470,
      "aring": 4471,
      "cir": 4472,
      "13": 4473,
      "ken": 4474,
      "Ind": 4475,
      "ided": 4476,
      "ground": 4477,
      "often": 4478,
      "ific": 4479,
      "cannot": 4480,
      "poor": 4481,
      "charac": 4482,
      "undred": 4483,
      "ix": 4484,
      "feet": 4485,
      "Con": 4486,
      "wood": 4487,
      "oud": 4488,
      "till": 4489,
      "turned": 4490,
      "iew": 4491,
      "plain": 4492,
      "oney": 4493,
      "road": 4494,
      "ALL": 4495,
      "eas": 4496,
      "doub": 4497,
      "ides": 4498,
      "gy": 4499,
      "gre": 4500,
      "rather": 4501,
      "sun": 4502,
      "reason": 4503,
      "ask": 4504,
      "Oh": 4505,
      "Her": 4506,
      "state": 4507,
      "hundred": 4508,
      "ines": 4509,
      "since": 4510,
      "mis": 4511,
      "fire": 4512,
      "ians": 4513,
      ",'": 4514,
      "next": 4515,
      "ister": 4516,
      "LET": 4517,
      "town": 4518,
      "ets": 4519,
      "strong": 4520,
      "REE": 4521,
      "Com": 4522,
      "dark": 4523,
      "tom": 4524,
      "Sir": 4525,
      "produ": 4526,
      "With": 4527,
      "Do": 4528,
      "Le": 4529,
      "Of": 4530,
      "felt": 4531,
      "English": 4532,
      "ref": 4533,
      "ism": 4534,
      "above": 4535,
      "New": 4536,
      "began": 4537,
      "ired": 4538,
      "six": 4539,
      "ug": 4540,
      "true": 4541,
      "ceived": 4542,
      "ublic": 4543,
      "anger": 4544,
      "swe": 4545,
      "leg": 4546,
      "King": 4547,
      "run": 4548,
      "consider": 4549,
      "claim": 4550,
      "passed": 4551,
      "By": 4552,
      "adm": 4553,
      "SM": 4554,
      "says": 4555,
      "LETTER": 4556,
      "view": 4557,
      "soci": 4558,
      "count": 4559,
      "laugh": 4560,
      "lig": 4561,
      "ative": 4562,
      "Is": 4563,
      "myself": 4564,
      "wife": 4565,
      "{~": 4566,
      "~}": 4567,
      "Nor": 4568,
      "ution": 4569,
      "Now": 4570,
      "stood": 4571,
      "ster": 4572,
      "voice": 4573,
      "stri": 4574,
      "ient": 4575,
      "GREE": 4576,
      "outh": 4577,
      "second": 4578,
      "children": 4579,
      "iting": 4580,
      "member": 4581,
      "lect": 4582,
      "pped": 4583,
      "offic": 4584,
      "Well": 4585,
      "GREEK": 4586,
      "appear": 4587,
      "subject": 4588,
      "speak": 4589,
      "iled": 4590,
      "trans": 4591,
      "along": 4592,
      "pat": 4593,
      "short": 4594,
      "express": 4595,
      "Po": 4596,
      "held": 4597,
      "city": 4598,
      "Yes": 4599,
      "character": 4600,
      "ann": 4601,
      "line": 4602,
      "girl": 4603,
      "band": 4604,
      "arch": 4605,
      "means": 4606,
      ").": 4607,
      "boy": 4608,
      "ctor": 4609,
      "allow": 4610,
      "five": 4611,
      "ah": 4612,
      "sign": 4613,
      "continu": 4614,
      "SMALL": 4615,
      "pen": 4616,
      "hope": 4617,
      "ST": 4618,
      "general": 4619,
      "sess": 4620,
      "Amer": 4621,
      "plo": 4622,
      "fac": 4623,
      "iful": 4624,
      "succ": 4625,
      "money": 4626,
      "prin": 4627,
      "ames": 4628,
      "chief": 4629,
      "imes": 4630,
      "supp": 4631,
      "either": 4632,
      "az": 4633,
      "rench": 4634,
      "mor": 4635,
      "AP": 4636,
      "tempt": 4637,
      "dear": 4638,
      "during": 4639,
      "OF": 4640,
      "number": 4641,
      "question": 4642,
      "times": 4643,
      "Mo": 4644,
      "coming": 4645,
      "moun": 4646,
      "Americ": 4647,
      "close": 4648,
      "gentle": 4649,
      "ich": 4650,
      "sec": 4651,
      "div": 4652,
      "lear": 4653,
      "doubt": 4654,
      "ility": 4655,
      "believe": 4656,
      "within": 4657,
      "herself": 4658,
      "dest": 4659,
      "cus": 4660,
      "Ill": 4661,
      "dec": 4662,
      "One": 4663,
      "perhaps": 4664,
      "ane": 4665,
      "lead": 4666,
      "dri": 4667,
      "dom": 4668,
      "pret": 4669,
      "Par": 4670,
      "une": 4671,
      "Col": 4672,
      "ff": 4673,
      "hear": 4674,
      "aven": 4675,
      "ural": 4676,
      "anything": 4677,
      "fur": 4678,
      "jud": 4679,
      "hind": 4680,
      "sed": 4681,
      "meet": 4682,
      "wish": 4683,
      "illed": 4684,
      "proper": 4685,
      "black": 4686,
      "least": 4687,
      "mark": 4688,
      "covered": 4689,
      "human": 4690,
      "Pro": 4691,
      "Ger": 4692,
      "nature": 4693,
      "itself": 4694,
      "import": 4695,
      "arri": 4696,
      "success": 4697,
      "step": 4698,
      "ards": 4699,
      "alone": 4700,
      "gone": 4701,
      "appro": 4702,
      "dden": 4703,
      "ousand": 4704,
      "prof": 4705,
      "som": 4706,
      "Go": 4707,
      "effect": 4708,
      "wonder": 4709,
      "several": 4710,
      "sle": 4711,
      "indeed": 4712,
      "yed": 4713,
      "miss": 4714,
      "England": 4715,
      "possess": 4716,
      "already": 4717,
      "deep": 4718,
      "tained": 4719,
      "Will": 4720,
      "ones": 4721,
      "sea": 4722,
      "pal": 4723,
      "itted": 4724,
      "looking": 4725,
      "thousand": 4726,
      "bri": 4727,
      "note": 4728,
      "earth": 4729,
      "brother": 4730,
      "20": 4731,
      "therefore": 4732,
      "aged": 4733,
      "French": 4734,
      "ili": 4735,
      "sudden": 4736,
      "qual": 4737,
      "dead": 4738,
      "start": 4739,
      "author": 4740,
      "women": 4741,
      "public": 4742,
      "usu": 4743,
      "chool": 4744,
      "live": 4745,
      "dro": 4746,
      "command": 4747,
      "mot": 4748,
      "ists": 4749,
      "ris": 4750,
      "formed": 4751,
      "remain": 4752,
      "cried": 4753,
      "field": 4754,
      "ured": 4755,
      "spr": 4756,
      "thou": 4757,
      "ford": 4758,
      "comple": 4759,
      "watch": 4760,
      "arms": 4761,
      "letter": 4762,
      "prob": 4763,
      "aren": 4764,
      "anim": 4765,
      "Why": 4766,
      "Ma": 4767,
      "spirit": 4768,
      "respect": 4769,
      "ature": 4770,
      "ats": 4771,
      "Illustr": 4772,
      "mid": 4773,
      "common": 4774,
      "manner": 4775,
      "Af": 4776,
      "fav": 4777,
      "different": 4778,
      "leave": 4779,
      "ible": 4780,
      "gover": 4781,
      "clear": 4782,
      "pie": 4783,
      "ury": 4784,
      "mus": 4785,
      "AT": 4786,
      "stud": 4787,
      "became": 4788,
      "enter": 4789,
      "sound": 4790,
      "lled": 4791,
      "resu": 4792,
      "medi": 4793,
      "free": 4794,
      "ger": 4795,
      "ries": 4796,
      "wall": 4797,
      "ths": 4798,
      "friends": 4799,
      "~}{~": 4800,
      "aint": 4801,
      "become": 4802,
      "exam": 4803,
      "flo": 4804,
      "ying": 4805,
      "Pe": 4806,
      "help": 4807,
      "stead": 4808,
      "ES": 4809,
      "idence": 4810,
      "nment": 4811,
      "making": 4812,
      "por": 4813,
      "gar": 4814,
      "tern": 4815,
      "foot": 4816,
      "partic": 4817,
      "bring": 4818,
      "diffic": 4819,
      "whether": 4820,
      "tract": 4821,
      "occas": 4822,
      "Co": 4823,
      "fig": 4824,
      "replied": 4825,
      "Fo": 4826,
      "fellow": 4827,
      "rid": 4828,
      "25": 4829,
      "vil": 4830,
      "move": 4831,
      "wenty": 4832,
      "family": 4833,
      "ized": 4834,
      "regard": 4835,
      "except": 4836,
      "understand": 4837,
      "const": 4838,
      "lady": 4839,
      "flu": 4840,
      "appeared": 4841,
      "etimes": 4842,
      "uck": 4843,
      "cot": 4844,
      "gen": 4845,
      "fast": 4846,
      "list": 4847,
      "sold": 4848,
      "grow": 4849,
      "gold": 4850,
      "ending": 4851,
      "sal": 4852,
      "wel": 4853,
      "princi": 4854,
      "vic": 4855,
      "beautiful": 4856,
      "horse": 4857,
      "aid": 4858,
      "har": 4859,
      "pers": 4860,
      "mere": 4861,
      "fear": 4862,
      "fell": 4863,
      "After": 4864,
      "ime": 4865,
      "object": 4866,
      "lost": 4867,
      "answered": 4868,
      "cious": 4869,
      "tra": 4870,
      "why": 4871,
      "behind": 4872,
      "dem": 4873,
      "pract": 4874,
      "hy": 4875,
      "bey": 4876,
      "Ho": 4877,
      "comes": 4878,
      "....": 4879,
      "descri": 4880,
      "gn": 4881,
      "perfect": 4882,
      "io": 4883,
      "wise": 4884,
      "necessary": 4885,
      "fine": 4886,
      "cks": 4887,
      "orig": 4888,
      "kept": 4889,
      "received": 4890,
      "lea": 4891,
      "following": 4892,
      "business": 4893,
      "towards": 4894,
      "truth": 4895,
      "decl": 4896,
      "sor": 4897,
      "utter": 4898,
      "inv": 4899,
      "circ": 4900,
      "ention": 4901,
      "twenty": 4902,
      "ms": 4903,
      "These": 4904,
      "draw": 4905,
      "ording": 4906,
      "ago": 4907,
      "ows": 4908,
      "plan": 4909,
      "ament": 4910,
      "stre": 4911,
      "ham": 4912,
      "akes": 4913,
      "speci": 4914,
      "bers": 4915,
      "Ge": 4916,
      "wild": 4917,
      "mag": 4918,
      "remember": 4919,
      "blood": 4920,
      "quar": 4921,
      "Not": 4922,
      "school": 4923,
      "Li": 4924,
      "ney": 4925,
      "cast": 4926,
      "sequ": 4927,
      "inal": 4928,
      "around": 4929,
      "Char": 4930,
      "rious": 4931,
      "force": 4932,
      "compan": 4933,
      "master": 4934,
      "early": 4935,
      "uc": 4936,
      "ek": 4937,
      "exc": 4938,
      "account": 4939,
      "sight": 4940,
      "Car": 4941,
      "table": 4942,
      "sl": 4943,
      "din": 4944,
      "sort": 4945,
      "Illustration": 4946,
      "Per": 4947,
      "pon": 4948,
      "exist": 4949,
      "cross": 4950,
      "trou": 4951,
      "seems": 4952,
      "pay": 4953,
      "Lond": 4954,
      "river": 4955,
      "prov": 4956,
      "attle": 4957,
      "anged": 4958,
      "treat": 4959,
      "rap": 4960,
      "Cap": 4961,
      "Or": 4962,
      "test": 4963,
      "main": 4964,
      "Sp": 4965,
      "hur": 4966,
      "IL": 4967,
      "cold": 4968,
      "Dr": 4969,
      "post": 4970,
      "London": 4971,
      "sir": 4972,
      "Let": 4973,
      "begin": 4974,
      "really": 4975,
      "else": 4976,
      "24": 4977,
      "bra": 4978,
      "From": 4979,
      "ination": 4980,
      "quick": 4981,
      "past": 4982,
      "bor": 4983,
      "vel": 4984,
      "suffer": 4985,
      "cell": 4986,
      "itions": 4987,
      "30": 4988,
      "returned": 4989,
      "dress": 4990,
      "class": 4991,
      "ledge": 4992,
      "ges": 4993,
      "sem": 4994,
      "iment": 4995,
      "IS": 4996,
      "tro": 4997,
      "ius": 4998,
      "joy": 4999,
      "bad": 5000,
      "ax": 5001,
      "followed": 5002,
      "offer": 5003,
      "relig": 5004,
      "bly": 5005,
      "church": 5006,
      "ount": 5007,
      "change": 5008,
      "CHAP": 5009,
      "faith": 5010,
      "ually": 5011,
      "evening": 5012,
      "hus": 5013,
      "story": 5014,
      "answer": 5015,
      "natural": 5016,
      "later": 5017,
      "ences": 5018,
      "satis": 5019,
      "pend": 5020,
      "daugh": 5021,
      "occasion": 5022,
      "late": 5023,
      ".)": 5024,
      "AND": 5025,
      "cient": 5026,
      "Here": 5027,
      "Gr": 5028,
      "dut": 5029,
      "mist": 5030,
      "tle": 5031,
      "Brit": 5032,
      "rup": 5033,
      "fif": 5034,
      "hill": 5035,
      "lies": 5036,
      "soul": 5037,
      "cked": 5038,
      "itude": 5039,
      "ring": 5040,
      "thee": 5041,
      "carried": 5042,
      "miles": 5043,
      "happy": 5044,
      "tains": 5045,
      "represent": 5046,
      "placed": 5047,
      "front": 5048,
      "cas": 5049,
      "lim": 5050,
      "--\"": 5051,
      "eye": 5052,
      "wit": 5053,
      "sometimes": 5054,
      "forth": 5055,
      "def": 5056,
      "owers": 5057,
      "ony": 5058,
      "antly": 5059,
      "pu": 5060,
      "CHAPTER": 5061,
      "prison": 5062,
      "Don": 5063,
      "obser": 5064,
      "23": 5065,
      "ordin": 5066,
      "oft": 5067,
      "mur": 5068,
      "vill": 5069,
      "lab": 5070,
      "pet": 5071,
      "iously": 5072,
      "taking": 5073,
      "teen": 5074,
      "rich": 5075,
      "Fran": 5076,
      "eight": 5077,
      "party": 5078,
      "termin": 5079,
      "idea": 5080,
      "ga": 5081,
      "26": 5082,
      "Lo": 5083,
      "espe": 5084,
      "ics": 5085,
      "break": 5086,
      "pict": 5087,
      "nation": 5088,
      "build": 5089,
      "log": 5090,
      "11": 5091,
      "fan": 5092,
      "tre": 5093,
      "deal": 5094,
      "entire": 5095,
      "tou": 5096,
      "Ed": 5097,
      "particular": 5098,
      "org": 5099,
      "nearly": 5100,
      "ital": 5101,
      "leng": 5102,
      "quiet": 5103,
      "path": 5104,
      "angu": 5105,
      "Gener": 5106,
      "Some": 5107,
      "inct": 5108,
      "hum": 5109,
      "stone": 5110,
      "sense": 5111,
      "stem": 5112,
      "bert": 5113,
      "IC": 5114,
      "27": 5115,
      "continued": 5116,
      "rope": 5117,
      "husband": 5118,
      "na": 5119,
      "across": 5120,
      "ives": 5121,
      "ples": 5122,
      "former": 5123,
      "iam": 5124,
      "strange": 5125,
      "Me": 5126,
      "moved": 5127,
      "28": 5128,
      "Har": 5129,
      "burn": 5130,
      "ric": 5131,
      "further": 5132,
      "\u0000\u0000": 5133,
      "scar": 5134,
      "opin": 5135,
      "000": 5136,
      "itting": 5137,
      "Bar": 5138,
      "fle": 5139,
      "itten": 5140,
      "pul": 5141,
      "top": 5142,
      "yal": 5143,
      "pray": 5144,
      "ours": 5145,
      "company": 5146,
      "reached": 5147,
      "immedi": 5148,
      "uni": 5149,
      "purpose": 5150,
      "tend": 5151,
      "latter": 5152,
      "acqu": 5153,
      "heav": 5154,
      "cord": 5155,
      "Em": 5156,
      "alth": 5157,
      "shad": 5158,
      "Ex": 5159,
      "OM": 5160,
      "ilt": 5161,
      "sac": 5162,
      "terri": 5163,
      "carry": 5164,
      "concer": 5165,
      "smo": 5166,
      "See": 5167,
      "peace": 5168,
      "May": 5169,
      "forward": 5170,
      "amed": 5171,
      "longer": 5172,
      "hours": 5173,
      "action": 5174,
      "bled": 5175,
      "incl": 5176,
      "OU": 5177,
      "rose": 5178,
      "danger": 5179,
      "riage": 5180,
      "bear": 5181,
      "attempt": 5182,
      "Ad": 5183,
      "29": 5184,
      "ady": 5185,
      "priv": 5186,
      ".[": 5187,
      "General": 5188,
      "hair": 5189,
      "direct": 5190,
      "ert": 5191,
      "circum": 5192,
      "ler": 5193,
      "according": 5194,
      "imag": 5195,
      "influ": 5196,
      "habit": 5197,
      "secret": 5198,
      "Tr": 5199,
      "added": 5200,
      "court": 5201,
      "occup": 5202,
      "quired": 5203,
      "abl": 5204,
      "cre": 5205,
      "standing": 5206,
      "bird": 5207,
      "period": 5208,
      "tail": 5209,
      "grand": 5210,
      "ny": 5211,
      "rend": 5212,
      "claimed": 5213,
      "stren": 5214,
      "sleep": 5215,
      "III": 5216,
      "sw": 5217,
      "worth": 5218,
      "history": 5219,
      "proceed": 5220,
      "writ": 5221,
      "ices": 5222,
      "Can": 5223,
      "corn": 5224,
      "bound": 5225,
      "squ": 5226,
      "slow": 5227,
      "bs": 5228,
      "length": 5229,
      "ina": 5230,
      "thir": 5231,
      "surpr": 5232,
      "utes": 5233,
      "grap": 5234,
      "experi": 5235,
      "lying": 5236,
      "IT": 5237,
      "daughter": 5238,
      "emplo": 5239,
      "bot": 5240,
      "appoint": 5241,
      "velo": 5242,
      "big": 5243,
      "suffic": 5244,
      "ops": 5245,
      "mine": 5246,
      "creat": 5247,
      "feeling": 5248,
      "atic": 5249,
      "mouth": 5250,
      "spect": 5251,
      "cing": 5252,
      "France": 5253,
      "beyond": 5254,
      "irt": 5255,
      "talk": 5256,
      "mention": 5257,
      "ork": 5258,
      "glad": 5259,
      "Eu": 5260,
      "cry": 5261,
      "ING": 5262,
      "Qu": 5263,
      "Ju": 5264,
      "sym": 5265,
      "ified": 5266,
      "everything": 5267,
      "Am": 5268,
      "fight": 5269,
      "ously": 5270,
      "nar": 5271,
      "States": 5272,
      "Rom": 5273,
      "army": 5274,
      "dog": 5275,
      "sweet": 5276,
      "usion": 5277,
      "laid": 5278,
      "probably": 5279,
      "reco": 5280,
      "trave": 5281,
      "service": 5282,
      "iers": 5283,
      "parts": 5284,
      "knowledge": 5285,
      "streng": 5286,
      "died": 5287,
      "conne": 5288,
      "ingly": 5289,
      "stra": 5290,
      "spoke": 5291,
      "EL": 5292,
      "ggest": 5293,
      "although": 5294,
      "orge": 5295,
      "ceive": 5296,
      "dream": 5297,
      "oper": 5298,
      "jour": 5299,
      "a_": 5300,
      "especi": 5301,
      "ils": 5302,
      "polit": 5303,
      "tel": 5304,
      "suggest": 5305,
      "instru": 5306,
      "Bl": 5307,
      "complete": 5308,
      "Man": 5309,
      "written": 5310,
      "stay": 5311,
      "acy": 5312,
      "dle": 5313,
      "trust": 5314,
      "ben": 5315,
      "contr": 5316,
      "liber": 5317,
      "AM": 5318,
      "suddenly": 5319,
      "fresh": 5320,
      "bell": 5321,
      "living": 5322,
      "──": 5323,
      "bow": 5324,
      "race": 5325,
      "entered": 5326,
      "hood": 5327,
      "shi": 5328,
      "crow": 5329,
      "colle": 5330,
      "Christian": 5331,
      "pected": 5332,
      "delight": 5333,
      "belong": 5334,
      "distance": 5335,
      "Pl": 5336,
      "Mad": 5337,
      "Hen": 5338,
      "meas": 5339,
      "repe": 5340,
      "trees": 5341,
      "ends": 5342,
      "DW": 5343,
      "firm": 5344,
      "unity": 5345,
      "enemy": 5346,
      "neigh": 5347,
      "dev": 5348,
      "pretty": 5349,
      "saying": 5350,
      "Sh": 5351,
      "suppose": 5352,
      "boys": 5353,
      "portion": 5354,
      "circumst": 5355,
      "gard": 5356,
      "pi": 5357,
      "...": 5358,
      "attack": 5359,
      "American": 5360,
      "ban": 5361,
      "iling": 5362,
      "range": 5363,
      "Who": 5364,
      "cul": 5365,
      "establ": 5366,
      "bright": 5367,
      "Church": 5368,
      "lling": 5369,
      "ribut": 5370,
      "ivid": 5371,
      "attention": 5372,
      "boat": 5373,
      "mit": 5374,
      "greater": 5375,
      "pleasure": 5376,
      "ased": 5377,
      "occur": 5378,
      "board": 5379,
      "Captain": 5380,
      "Lady": 5381,
      "50": 5382,
      "loved": 5383,
      "none": 5384,
      "important": 5385,
      "ption": 5386,
      "paper": 5387,
      "William": 5388,
      "ded": 5389,
      "arent": 5390,
      "doing": 5391,
      "ror": 5392,
      "Gover": 5393,
      "condu": 5394,
      "prev": 5395,
      "==": 5396,
      "ixed": 5397,
      "especially": 5398,
      "ib": 5399,
      "Where": 5400,
      "system": 5401,
      "uel": 5402,
      "opened": 5403,
      "usual": 5404,
      "frequ": 5405,
      "slight": 5406,
      "gain": 5407,
      "approach": 5408,
      "lord": 5409,
      "green": 5410,
      "Du": 5411,
      "phi": 5412,
      "tors": 5413,
      "German": 5414,
      "born": 5415,
      "neither": 5416,
      "anced": 5417,
      "ordinary": 5418,
      "?”": 5419,
      "ushed": 5420,
      "gun": 5421,
      "heaven": 5422,
      "lands": 5423,
      "anx": 5424,
      "various": 5425,
      "ron": 5426,
      "difficult": 5427,
      "certainly": 5428,
      "cop": 5429,
      "toward": 5430,
      "IV": 5431,
      "ering": 5432,
      "organ": 5433,
      "super": 5434,
      "ency": 5435,
      "ging": 5436,
      "ening": 5437,
      "accept": 5438,
      "wound": 5439,
      "warm": 5440,
      "mal": 5441,
      "tori": 5442,
      "Europe": 5443,
      "langu": 5444,
      "comfort": 5445,
      "aul": 5446,
      "tree": 5447,
      "appearance": 5448,
      "van": 5449,
      "teach": 5450,
      "lived": 5451,
      "da": 5452,
      "determin": 5453,
      "mission": 5454,
      "consequ": 5455,
      "yes": 5456,
      "ising": 5457,
      "nest": 5458,
      "government": 5459,
      "third": 5460,
      "York": 5461,
      "recogn": 5462,
      "moder": 5463,
      "ference": 5464,
      "gentleman": 5465,
      "lip": 5466,
      "persons": 5467,
      "concl": 5468,
      "Gree": 5469,
      "sla": 5470,
      "marked": 5471,
      "filled": 5472,
      "ouses": 5473,
      "expected": 5474,
      "fortun": 5475,
      "equ": 5476,
      "generally": 5477,
      "chance": 5478,
      "idge": 5479,
      "pit": 5480,
      "Ab": 5481,
      "pot": 5482,
      "hors": 5483,
      "ively": 5484,
      "places": 5485,
      "lief": 5486,
      "resol": 5487,
      "ager": 5488,
      "piece": 5489,
      "seven": 5490,
      "hast": 5491,
      "opinion": 5492,
      "duty": 5493,
      "support": 5494,
      "remained": 5495,
      "demand": 5496,
      "blue": 5497,
      "George": 5498,
      "broken": 5499,
      "makes": 5500,
      "Mon": 5501,
      "motion": 5502,
      "desp": 5503,
      "XX": 5504,
      "noon": 5505,
      "ION": 5506,
      "glass": 5507,
      "evil": 5508,
      "window": 5509,
      "die": 5510,
      "separ": 5511,
      "lin": 5512,
      "Mary": 5513,
      "OL": 5514,
      "ator": 5515,
      "condition": 5516,
      "scarce": 5517,
      "itary": 5518,
      "ically": 5519,
      "ply": 5520,
      "depart": 5521,
      "soft": 5522,
      "fut": 5523,
      "battle": 5524,
      "British": 5525,
      "lot": 5526,
      "atever": 5527,
      "ED": 5528,
      "lips": 5529,
      "giving": 5530,
      "chair": 5531,
      "poet": 5532,
      "office": 5533,
      "prove": 5534,
      "affe": 5535,
      "tee": 5536,
      "40": 5537,
      "cience": 5538,
      "wide": 5539,
      "Que": 5540,
      "strength": 5541,
      "tried": 5542,
      "easy": 5543,
      "prote": 5544,
      "lines": 5545,
      "report": 5546,
      "minutes": 5547,
      "horses": 5548,
      "fish": 5549,
      "sin": 5550,
      "_S": 5551,
      "ues": 5552,
      "raised": 5553,
      "conv": 5554,
      "drew": 5555,
      "gri": 5556,
      "conscious": 5557,
      "heavy": 5558,
      "remark": 5559,
      "ishment": 5560,
      "Tom": 5561,
      "Paris": 5562,
      "grace": 5563,
      "phe": 5564,
      "viol": 5565,
      "rock": 5566,
      "months": 5567,
      "ilar": 5568,
      "guard": 5569,
      "Gu": 5570,
      "affair": 5571,
      "thod": 5572,
      "Ber": 5573,
      "weak": 5574,
      "immediately": 5575,
      "train": 5576,
      "thick": 5577,
      "didn": 5578,
      "books": 5579,
      "below": 5580,
      "Pres": 5581,
      "mass": 5582,
      "sister": 5583,
      "fat": 5584,
      "influence": 5585,
      "assu": 5586,
      "ior": 5587,
      "alt": 5588,
      "22": 5589,
      "result": 5590,
      "afterwards": 5591,
      "north": 5592,
      "AS": 5593,
      "vari": 5594,
      "thern": 5595,
      "hop": 5596,
      "OT": 5597,
      "ses": 5598,
      "god": 5599,
      "expect": 5600,
      "single": 5601,
      "century": 5602,
      "iron": 5603,
      "desire": 5604,
      "charge": 5605,
      "isted": 5606,
      "formation": 5607,
      "wrong": 5608,
      "cost": 5609,
      "?'": 5610,
      "wanted": 5611,
      ".=": 5612,
      "agree": 5613,
      "letters": 5614,
      "prep": 5615,
      "develo": 5616,
      "ech": 5617,
      "mater": 5618,
      "beauty": 5619,
      "pond": 5620,
      "impress": 5621,
      "favour": 5622,
      "gress": 5623,
      "mad": 5624,
      "jest": 5625,
      "forms": 5626,
      "works": 5627,
      "spring": 5628,
      "trouble": 5629,
      "jor": 5630,
      "36": 5631,
      "convers": 5632,
      "compl": 5633,
      "allowed": 5634,
      "Ital": 5635,
      "week": 5636,
      "Cor": 5637,
      "exclaimed": 5638,
      "sole": 5639,
      "furn": 5640,
      "Lu": 5641,
      "hardly": 5642,
      "save": 5643,
      "camp": 5644,
      "suc": 5645,
      "famili": 5646,
      "Foot": 5647,
      "ancient": 5648,
      "dy": 5649,
      "ctions": 5650,
      "advant": 5651,
      "houses": 5652,
      "ball": 5653,
      "alter": 5654,
      "Jack": 5655,
      "hung": 5656,
      "mas": 5657,
      "aded": 5658,
      "stream": 5659,
      "exact": 5660,
      "succeed": 5661,
      "seas": 5662,
      "ussi": 5663,
      "rapid": 5664,
      "send": 5665,
      "eks": 5666,
      "bid": 5667,
      "ote": 5668,
      "----------------": 5669,
      "ision": 5670,
      "safe": 5671,
      "loss": 5672,
      "changed": 5673,
      "ns": 5674,
      "vessel": 5675,
      "visit": 5676,
      "35": 5677,
      "ense": 5678,
      "186": 5679,
      "spl": 5680,
      "passion": 5681,
      "gin": 5682,
      "presence": 5683,
      "situ": 5684,
      "mill": 5685,
      "itution": 5686,
      "ta": 5687,
      "pun": 5688,
      "grave": 5689,
      "whis": 5690,
      "fun": 5691,
      "noble": 5692,
      "Thus": 5693,
      "yourself": 5694,
      "Cl": 5695,
      "bour": 5696,
      "Scot": 5697,
      "youth": 5698,
      "aces": 5699,
      "comb": 5700,
      "deg": 5701,
      "food": 5702,
      "rent": 5703,
      "liz": 5704,
      "net": 5705,
      "host": 5706,
      "rote": 5707,
      "eat": 5708,
      "future": 5709,
      "win": 5710,
      "address": 5711,
      "verse": 5712,
      "fing": 5713,
      "liter": 5714,
      "impossible": 5715,
      "paid": 5716,
      "wed": 5717,
      "bling": 5718,
      "onel": 5719,
      "instead": 5720,
      "sett": 5721,
      "getting": 5722,
      "pound": 5723,
      "fool": 5724,
      "easily": 5725,
      "intro": 5726,
      "Ne": 5727,
      "Henry": 5728,
      "hot": 5729,
      "RO": 5730,
      "moral": 5731,
      "beginning": 5732,
      "Indian": 5733,
      "deli": 5734,
      "individ": 5735,
      "oted": 5736,
      "shot": 5737,
      "Fe": 5738,
      "ae": 5739,
      "ining": 5740,
      "temper": 5741,
      "itable": 5742,
      "IG": 5743,
      "clock": 5744,
      "arrived": 5745,
      "sion": 5746,
      "simple": 5747,
      "street": 5748,
      "happened": 5749,
      "ching": 5750,
      "silence": 5751,
      "introdu": 5752,
      "shar": 5753,
      "ali": 5754,
      "somewhat": 5755,
      "pursu": 5756,
      "commun": 5757,
      "entirely": 5758,
      "loso": 5759,
      "closed": 5760,
      "cases": 5761,
      "ni": 5762,
      "wrote": 5763,
      "Ste": 5764,
      "direction": 5765,
      "deed": 5766,
      "south": 5767,
      "drawn": 5768,
      "mir": 5769,
      "House": 5770,
      "smile": 5771,
      "West": 5772,
      "figure": 5773,
      "37": 5774,
      "Yet": 5775,
      "aste": 5776,
      "proved": 5777,
      "struck": 5778,
      "34": 5779,
      "State": 5780,
      "Footnote": 5781,
      "ald": 5782,
      "married": 5783,
      "drink": 5784,
      ":--": 5785,
      "bles": 5786,
      "Charles": 5787,
      "itation": 5788,
      "ulty": 5789,
      "mort": 5790,
      "Every": 5791,
      "admir": 5792,
      "liar": 5793,
      "cil": 5794,
      "thinking": 5795,
      "meant": 5796,
      "profess": 5797,
      "west": 5798,
      "courage": 5799,
      "prevent": 5800,
      "rough": 5801,
      "hat": 5802,
      "Our": 5803,
      "village": 5804,
      "iden": 5805,
      "seeing": 5806,
      "considered": 5807,
      "Ah": 5808,
      "ize": 5809,
      "fol": 5810,
      "thes": 5811,
      "pleasant": 5812,
      "ume": 5813,
      "Lou": 5814,
      "tic": 5815,
      "honour": 5816,
      "arr": 5817,
      "merely": 5818,
      "susp": 5819,
      "regular": 5820,
      "ape": 5821,
      "built": 5822,
      "__": 5823,
      "fash": 5824,
      "gall": 5825,
      "oured": 5826,
      "knows": 5827,
      "lower": 5828,
      "design": 5829,
      "whatever": 5830,
      "antic": 5831,
      "ises": 5832,
      "similar": 5833,
      "walk": 5834,
      "ming": 5835,
      "circumstances": 5836,
      "len": 5837,
      "throw": 5838,
      "learned": 5839,
      "mach": 5840,
      "bank": 5841,
      "fit": 5842,
      "music": 5843,
      "United": 5844,
      "cts": 5845,
      "aled": 5846,
      "summer": 5847,
      "ites": 5848,
      "owing": 5849,
      "North": 5850,
      "kne": 5851,
      "38": 5852,
      "dinner": 5853,
      "imp": 5854,
      "ding": 5855,
      "walked": 5856,
      "Aug": 5857,
      "lice": 5858,
      "rain": 5859,
      "tone": 5860,
      "print": 5861,
      "exp": 5862,
      "sick": 5863,
      "aries": 5864,
      "spot": 5865,
      "slowly": 5866,
      "sty": 5867,
      "equal": 5868,
      "respond": 5869,
      "trem": 5870,
      "fraid": 5871,
      "personal": 5872,
      "uses": 5873,
      "subst": 5874,
      "increas": 5875,
      "Span": 5876,
      "thoughts": 5877,
      "produced": 5878,
      "due": 5879,
      "straight": 5880,
      "cra": 5881,
      "bran": 5882,
      "aught": 5883,
      "material": 5884,
      "box": 5885,
      "experience": 5886,
      "grad": 5887,
      "fied": 5888,
      "broad": 5889,
      "bless": 5890,
      "original": 5891,
      "expression": 5892,
      "caught": 5893,
      "ump": 5894,
      "ingu": 5895,
      "officers": 5896,
      "culiar": 5897,
      "uit": 5898,
      "publ": 5899,
      "cloud": 5900,
      "worthy": 5901,
      "avo": 5902,
      "educ": 5903,
      "ience": 5904,
      "society": 5905,
      "priest": 5906,
      "South": 5907,
      "appre": 5908,
      "artic": 5909,
      "James": 5910,
      "amb": 5911,
      "issu": 5912,
      "Great": 5913,
      "orders": 5914,
      "started": 5915,
      "destro": 5916,
      "scarcely": 5917,
      "uded": 5918,
      "cou": 5919,
      "sad": 5920,
      "observed": 5921,
      "language": 5922,
      "afraid": 5923,
      "fashion": 5924,
      "value": 5925,
      "peculiar": 5926,
      "unders": 5927,
      "La": 5928,
      "Phi": 5929,
      "learn": 5930,
      "sail": 5931,
      "plant": 5932,
      "wait": 5933,
      "reme": 5934,
      "ishop": 5935,
      "gate": 5936,
      "39": 5937,
      "Queen": 5938,
      "greatest": 5939,
      "girls": 5940,
      "forgot": 5941,
      "process": 5942,
      "opport": 5943,
      "pread": 5944,
      "pure": 5945,
      "fal": 5946,
      "taining": 5947,
      "!'": 5948,
      "stor": 5949,
      "leaving": 5950,
      "thirty": 5951,
      "airs": 5952,
      "hall": 5953,
      "lu": 5954,
      "apparent": 5955,
      "gro": 5956,
      "!”": 5957,
      "Prince": 5958,
      "Good": 5959,
      "origin": 5960,
      "cit": 5961,
      "bel": 5962,
      "scene": 5963,
      "winter": 5964,
      "ral": 5965,
      "aff": 5966,
      "nal": 5967,
      "Jes": 5968,
      "SE": 5969,
      "doctor": 5970,
      "_C": 5971,
      "farm": 5972,
      "fortune": 5973,
      "capt": 5974,
      "Rich": 5975,
      "deser": 5976,
      "ferred": 5977,
      "phys": 5978,
      "AC": 5979,
      "surround": 5980,
      "absol": 5981,
      "usually": 5982,
      "Indians": 5983,
      "uous": 5984,
      "supposed": 5985,
      "hero": 5986,
      "tears": 5987,
      "walls": 5988,
      "quis": 5989,
      "Ph": 5990,
      "steps": 5991,
      "snow": 5992,
      "leaves": 5993,
      "sufficient": 5994,
      "preser": 5995,
      "showed": 5996,
      "quickly": 5997,
      "gives": 5998,
      "virt": 5999,
      "rate": 6000,
      "ishing": 6001,
      "custom": 6002,
      "DE": 6003,
      "21": 6004,
      "een": 6005,
      "sn": 6006,
      "appears": 6007,
      "flowers": 6008,
      "indic": 6009,
      "Their": 6010,
      "bon": 6011,
      "key": 6012,
      "write": 6013,
      "Thom": 6014,
      "exe": 6015,
      "method": 6016,
      "distingu": 6017,
      "tender": 6018,
      "hath": 6019,
      "unto": 6020,
      "desc": 6021,
      "graph": 6022,
      "mn": 6023,
      "chap": 6024,
      "lives": 6025,
      "dim": 6026,
      "middle": 6027,
      "exer": 6028,
      "ington": 6029,
      "numer": 6030,
      "uary": 6031,
      "grew": 6032,
      "sens": 6033,
      "Just": 6034,
      "shown": 6035,
      "stopped": 6036,
      "discovered": 6037,
      "apt": 6038,
      "obli": 6039,
      "outside": 6040,
      "64": 6041,
      "considerable": 6042,
      "iding": 6043,
      "narrow": 6044,
      "cab": 6045,
      "dry": 6046,
      "etc": 6047,
      "iced": 6048,
      "Roman": 6049,
      "187": 6050,
      "goes": 6051,
      "garden": 6052,
      "Rev": 6053,
      "188": 6054,
      "killed": 6055,
      "spread": 6056,
      "thin": 6057,
      "excell": 6058,
      "philoso": 6059,
      "likely": 6060,
      "assist": 6061,
      "ander": 6062,
      "justice": 6063,
      "mess": 6064,
      "laughed": 6065,
      "existence": 6066,
      "forest": 6067,
      "passing": 6068,
      "ende": 6069,
      "rise": 6070,
      "marriage": 6071,
      "soldiers": 6072,
      "curious": 6073,
      "itch": 6074,
      "thro": 6075,
      "fixed": 6076,
      "finite": 6077,
      "glo": 6078,
      "oppos": 6079,
      "record": 6080,
      "mentioned": 6081,
      "mountain": 6082,
      "troops": 6083,
      "picture": 6084,
      "ague": 6085,
      "ached": 6086,
      "modern": 6087,
      "Come": 6088,
      "America": 6089,
      "189": 6090,
      "bread": 6091,
      "apo": 6092,
      "TO": 6093,
      "cise": 6094,
      "crit": 6095,
      "property": 6096,
      "pressed": 6097,
      "Rome": 6098,
      "determined": 6099,
      "trad": 6100,
      "broke": 6101,
      "grat": 6102,
      "twel": 6103,
      "sky": 6104,
      "using": 6105,
      "Cour": 6106,
      "cape": 6107,
      "dread": 6108,
      "religion": 6109,
      "Father": 6110,
      "ore": 6111,
      "ships": 6112,
      "zz": 6113,
      "non": 6114,
      "Sy": 6115,
      "waiting": 6116,
      "special": 6117,
      "tellig": 6118,
      "rail": 6119,
      "uff": 6120,
      "distinct": 6121,
      "ENT": 6122,
      "Your": 6123,
      "gment": 6124,
      "private": 6125,
      "journey": 6126,
      "kes": 6127,
      "bility": 6128,
      "ots": 6129,
      "While": 6130,
      "content": 6131,
      "song": 6132,
      "fifty": 6133,
      "ti": 6134,
      "prepared": 6135,
      "speaking": 6136,
      "dep": 6137,
      "interesting": 6138,
      "laws": 6139,
      "Ear": 6140,
      "eager": 6141,
      "study": 6142,
      "edge": 6143,
      "Such": 6144,
      "authority": 6145,
      "quire": 6146,
      "ell": 6147,
      "ability": 6148,
      "Gre": 6149,
      "absolute": 6150,
      "Paul": 6151,
      "notice": 6152,
      "names": 6153,
      "floor": 6154,
      "confess": 6155,
      "rank": 6156,
      "tow": 6157,
      "cher": 6158,
      "swi": 6159,
      "grou": 6160,
      "itive": 6161,
      "War": 6162,
      "Mor": 6163,
      "unless": 6164,
      "afternoon": 6165,
      "conce": 6166,
      "native": 6167,
      "ordered": 6168,
      "cket": 6169,
      "oth": 6170,
      "eneath": 6171,
      "ables": 6172,
      "sitting": 6173,
      "ays": 6174,
      "sand": 6175,
      "pop": 6176,
      "ears": 6177,
      "breath": 6178,
      "Dav": 6179,
      "zen": 6180,
      "lor": 6181,
      "_A": 6182,
      "alle": 6183,
      "doll": 6184,
      "scri": 6185,
      "decided": 6186,
      "raise": 6187,
      "writing": 6188,
      "Ser": 6189,
      "foreign": 6190,
      "reed": 6191,
      "ITH": 6192,
      "forget": 6193,
      "favor": 6194,
      "contro": 6195,
      "species": 6196,
      "sides": 6197,
      "clim": 6198,
      "building": 6199,
      "surface": 6200,
      "news": 6201,
      "RI": 6202,
      "sul": 6203,
      "reading": 6204,
      "ignor": 6205,
      "lean": 6206,
      "religious": 6207,
      "Even": 6208,
      "extreme": 6209,
      "declared": 6210,
      "asp": 6211,
      "passage": 6212,
      "istic": 6213,
      "pping": 6214,
      "twi": 6215,
      "moon": 6216,
      "conversation": 6217,
      "shore": 6218,
      "iff": 6219,
      "pull": 6220,
      "alo": 6221,
      "Sun": 6222,
      "kiss": 6223,
      "Min": 6224,
      "shout": 6225,
      "advantage": 6226,
      "revol": 6227,
      "Coun": 6228,
      "bitter": 6229,
      "Government": 6230,
      "logy": 6231,
      "perfectly": 6232,
      "receive": 6233,
      "appointed": 6234,
      "intellig": 6235,
      "August": 6236,
      "armed": 6237,
      "conduct": 6238,
      "uten": 6239,
      "beside": 6240,
      "meeting": 6241,
      "escape": 6242,
      "murder": 6243,
      "silver": 6244,
      "ease": 6245,
      "whisper": 6246,
      "vain": 6247,
      "Cha": 6248,
      "possession": 6249,
      "bal": 6250,
      "execut": 6251,
      "ston": 6252,
      "degree": 6253,
      "silent": 6254,
      "afford": 6255,
      "cler": 6256,
      "difficulty": 6257,
      "Duke": 6258,
      "isto": 6259,
      "athe": 6260,
      "tood": 6261,
      "rad": 6262,
      "depend": 6263,
      "_The": 6264,
      "ium": 6265,
      "believed": 6266,
      "mber": 6267,
      "umph": 6268,
      "cand": 6269,
      "height": 6270,
      "wished": 6271,
      "amber": 6272,
      "minute": 6273,
      "attract": 6274,
      "cult": 6275,
      "bridge": 6276,
      "repeated": 6277,
      "coast": 6278,
      "tit": 6279,
      "morrow": 6280,
      "played": 6281,
      "bing": 6282,
      "rupt": 6283,
      "progress": 6284,
      "lif": 6285,
      "\u0000\u0000\u0000\u0000": 6286,
      "offered": 6287,
      "month": 6288,
      "brown": 6289,
      "communic": 6290,
      "detail": 6291,
      "minis": 6292,
      "members": 6293,
      "pan": 6294,
      "\"'": 6295,
      "witness": 6296,
      "peror": 6297,
      "45": 6298,
      "bul": 6299,
      "fail": 6300,
      "understood": 6301,
      "iles": 6302,
      "hol": 6303,
      "ladies": 6304,
      "stro": 6305,
      "please": 6306,
      "evidence": 6307,
      "speech": 6308,
      "pleased": 6309,
      "beat": 6310,
      "Dan": 6311,
      "neck": 6312,
      "rul": 6313,
      "sible": 6314,
      "promise": 6315,
      "hang": 6316,
      "feat": 6317,
      "ram": 6318,
      "search": 6319,
      "fles": 6320,
      "game": 6321,
      "island": 6322,
      "star": 6323,
      "185": 6324,
      "officer": 6325,
      "higher": 6326,
      "sit": 6327,
      "simply": 6328,
      "s_": 6329,
      "reck": 6330,
      "obtained": 6331,
      "discus": 6332,
      "wine": 6333,
      "_P": 6334,
      "aval": 6335,
      "example": 6336,
      "enn": 6337,
      "VI": 6338,
      "apart": 6339,
      "Russi": 6340,
      "beneath": 6341,
      "animal": 6342,
      "rows": 6343,
      "forced": 6344,
      "Old": 6345,
      "required": 6346,
      "rule": 6347,
      "sacri": 6348,
      "crowd": 6349,
      "rig": 6350,
      "kill": 6351,
      "Peter": 6352,
      "heads": 6353,
      "turning": 6354,
      "cred": 6355,
      "frequently": 6356,
      "fee": 6357,
      "drawing": 6358,
      "aston": 6359,
      "twelve": 6360,
      "weight": 6361,
      "joined": 6362,
      "asc": 6363,
      "reply": 6364,
      "captain": 6365,
      "GE": 6366,
      "corner": 6367,
      "hes": 6368,
      "aby": 6369,
      "rub": 6370,
      "AD": 6371,
      "aver": 6372,
      "neg": 6373,
      "dam": 6374,
      "Fig": 6375,
      "amount": 6376,
      "ains": 6377,
      "political": 6378,
      "fice": 6379,
      "yellow": 6380,
      "PH": 6381,
      "sell": 6382,
      "running": 6383,
      "Greek": 6384,
      "Mer": 6385,
      "arily": 6386,
      "Sam": 6387,
      "agon": 6388,
      "crown": 6389,
      "honest": 6390,
      "Bur": 6391,
      "matters": 6392,
      "va": 6393,
      "pale": 6394,
      "colour": 6395,
      "del": 6396,
      "pieces": 6397,
      "corre": 6398,
      "phy": 6399,
      "ires": 6400,
      "Cr": 6401,
      "fallen": 6402,
      "engaged": 6403,
      "iments": 6404,
      "calm": 6405,
      "Sm": 6406,
      "happiness": 6407,
      "Colonel": 6408,
      "terrible": 6409,
      "ama": 6410,
      "fold": 6411,
      "Jew": 6412,
      "east": 6413,
      "chan": 6414,
      "bir": 6415,
      "cles": 6416,
      "birds": 6417,
      "stret": 6418,
      "inj": 6419,
      "meaning": 6420,
      "Hu": 6421,
      "33": 6422,
      "Ri": 6423,
      "opportunity": 6424,
      "AU": 6425,
      "caused": 6426,
      "popular": 6427,
      "opposite": 6428,
      "iently": 6429,
      "stock": 6430,
      "steam": 6431,
      "fro": 6432,
      "ourselves": 6433,
      "bas": 6434,
      "cup": 6435,
      "ker": 6436,
      "instance": 6437,
      "clean": 6438,
      "idently": 6439,
      "serious": 6440,
      "rare": 6441,
      "adop": 6442,
      "bill": 6443,
      "extra": 6444,
      "sake": 6445,
      "IR": 6446,
      "space": 6447,
      "iii": 6448,
      "quir": 6449,
      "named": 6450,
      "resist": 6451,
      "individual": 6452,
      "tin": 6453,
      "cat": 6454,
      "intended": 6455,
      "Ha": 6456,
      "iant": 6457,
      "lan": 6458,
      "grass": 6459,
      "station": 6460,
      "thrown": 6461,
      "animals": 6462,
      "stop": 6463,
      "abs": 6464,
      "48": 6465,
      "olly": 6466,
      "health": 6467,
      "deliver": 6468,
      "ception": 6469,
      "splend": 6470,
      "observ": 6471,
      "described": 6472,
      "owed": 6473,
      "expl": 6474,
      "lected": 6475,
      "takes": 6476,
      "magn": 6477,
      "argu": 6478,
      "Ben": 6479,
      "trade": 6480,
      "quarter": 6481,
      "seat": 6482,
      "bold": 6483,
      "Thomas": 6484,
      "Jud": 6485,
      "spoken": 6486,
      "importance": 6487,
      "constru": 6488,
      "Frank": 6489,
      "inf": 6490,
      "Did": 6491,
      "honor": 6492,
      "male": 6493,
      "Two": 6494,
      "cro": 6495,
      "ET": 6496,
      "thered": 6497,
      "WITH": 6498,
      "spent": 6499,
      "190": 6500,
      "yer": 6501,
      "fright": 6502,
      "memory": 6503,
      "employed": 6504,
      "ville": 6505,
      "ounced": 6506,
      "touch": 6507,
      "surprise": 6508,
      "Perhaps": 6509,
      "pol": 6510,
      "fancy": 6511,
      "speed": 6512,
      "deb": 6513,
      "46": 6514,
      "cam": 6515,
      "upper": 6516,
      "fill": 6517,
      "charm": 6518,
      "proof": 6519,
      "ato": 6520,
      "holding": 6521,
      "ners": 6522,
      "Louis": 6523,
      "Jan": 6524,
      "itor": 6525,
      "47": 6526,
      "cial": 6527,
      "points": 6528,
      "size": 6529,
      "iction": 6530,
      "illustr": 6531,
      "forty": 6532,
      "tong": 6533,
      "develop": 6534,
      "spite": 6535,
      "military": 6536,
      "mountains": 6537,
      "jesty": 6538,
      "Never": 6539,
      "working": 6540,
      "vision": 6541,
      "reign": 6542,
      "xx": 6543,
      "prepar": 6544,
      "aters": 6545,
      "tur": 6546,
      "situation": 6547,
      "arrange": 6548,
      "royal": 6549,
      "trying": 6550,
      "wear": 6551,
      "Je": 6552,
      "greatly": 6553,
      "grant": 6554,
      "vast": 6555,
      "fare": 6556,
      "published": 6557,
      "eld": 6558,
      "benef": 6559,
      "affection": 6560,
      "finally": 6561,
      "false": 6562,
      "social": 6563,
      "cruel": 6564,
      "shut": 6565,
      "willing": 6566,
      "finished": 6567,
      "maid": 6568,
      "looks": 6569,
      "proud": 6570,
      "thorough": 6571,
      "Const": 6572,
      "occupied": 6573,
      "threat": 6574,
      "fier": 6575,
      "heat": 6576,
      "square": 6577,
      "Jer": 6578,
      "emp": 6579,
      "quant": 6580,
      "Ver": 6581,
      "burst": 6582,
      "familiar": 6583,
      "aced": 6584,
      "Fir": 6585,
      "marks": 6586,
      "chang": 6587,
      "earli": 6588,
      "threw": 6589,
      "bottom": 6590,
      "servant": 6591,
      "sharp": 6592,
      "mighty": 6593,
      "IA": 6594,
      "taste": 6595,
      "sav": 6596,
      "Madame": 6597,
      "attend": 6598,
      "rice": 6599,
      "measure": 6600,
      "cheer": 6601,
      "omin": 6602,
      "instant": 6603,
      "season": 6604,
      "accompl": 6605,
      "Ir": 6606,
      "els": 6607,
      "movement": 6608,
      "ox": 6609,
      "compar": 6610,
      "UR": 6611,
      "fruit": 6612,
      "wing": 6613,
      "lest": 6614,
      "capital": 6615,
      "nine": 6616,
      "famous": 6617,
      "conditions": 6618,
      "breast": 6619,
      "Im": 6620,
      "tu": 6621,
      "enjoy": 6622,
      "catch": 6623,
      "omen": 6624,
      "Egy": 6625,
      "companion": 6626,
      "wonderful": 6627,
      "information": 6628,
      "Jesus": 6629,
      "gif": 6630,
      "forts": 6631,
      "earnest": 6632,
      "rence": 6633,
      "unk": 6634,
      "lose": 6635,
      "lls": 6636,
      "Sha": 6637,
      "difference": 6638,
      "stir": 6639,
      "worse": 6640,
      "stairs": 6641,
      "empt": 6642,
      "presented": 6643,
      "uced": 6644,
      "perior": 6645,
      "marry": 6646,
      "inhabit": 6647,
      "coat": 6648,
      "Wor": 6649,
      "inn": 6650,
      "lod": 6651,
      "Vir": 6652,
      "Egypt": 6653,
      "March": 6654,
      "sword": 6655,
      "labor": 6656,
      "Tur": 6657,
      "affairs": 6658,
      "pictures": 6659,
      "carefully": 6660,
      "counter": 6661,
      "pher": 6662,
      "wis": 6663,
      "regarded": 6664,
      "US": 6665,
      "settled": 6666,
      "anti": 6667,
      "remains": 6668,
      "Wal": 6669,
      "event": 6670,
      "besides": 6671,
      "judge": 6672,
      "_M": 6673,
      "_s": 6674,
      "vation": 6675,
      "stage": 6676,
      "ify": 6677,
      "ternal": 6678,
      "wealth": 6679,
      "Cong": 6680,
      "49": 6681,
      "blind": 6682,
      "eper": 6683,
      "Dick": 6684,
      "weather": 6685,
      "citiz": 6686,
      "facts": 6687,
      "pack": 6688,
      "ias": 6689,
      "spec": 6690,
      "talking": 6691,
      "bits": 6692,
      "Ale": 6693,
      "ctr": 6694,
      "terms": 6695,
      "excellent": 6696,
      "obliged": 6697,
      "guess": 6698,
      "ino": 6699,
      "weeks": 6700,
      "minister": 6701,
      "uttered": 6702,
      "serve": 6703,
      "Fort": 6704,
      "Pal": 6705,
      "ause": 6706,
      "clothes": 6707,
      "brave": 6708,
      "anxious": 6709,
      "ission": 6710,
      "page": 6711,
      "wash": 6712,
      "delic": 6713,
      "Ru": 6714,
      "numerous": 6715,
      "Count": 6716,
      "remarkable": 6717,
      "associ": 6718,
      "LI": 6719,
      "June": 6720,
      "triumph": 6721,
      "feelings": 6722,
      "advent": 6723,
      "inches": 6724,
      "tall": 6725,
      "iter": 6726,
      "Stre": 6727,
      "correspond": 6728,
      "burg": 6729,
      "Court": 6730,
      "national": 6731,
      "Siden": 6732,
      "prim": 6733,
      "exped": 6734,
      "hosp": 6735,
      "Sidenote": 6736,
      "altogether": 6737,
      "succeeded": 6738,
      "established": 6739,
      "Cath": 6740,
      "univers": 6741,
      "sch": 6742,
      "tw": 6743,
      "consist": 6744,
      "style": 6745,
      "exactly": 6746,
      "inno": 6747,
      "education": 6748,
      "questions": 6749,
      "darkness": 6750,
      "bare": 6751,
      "60": 6752,
      "Arch": 6753,
      "valu": 6754,
      "powers": 6755,
      "effort": 6756,
      "skin": 6757,
      "grown": 6758,
      "exper": 6759,
      "mitted": 6760,
      "leading": 6761,
      "respon": 6762,
      "distant": 6763,
      "events": 6764,
      "attered": 6765,
      "gentlemen": 6766,
      "rising": 6767,
      "rob": 6768,
      "aware": 6769,
      "yn": 6770,
      "explain": 6771,
      "dare": 6772,
      "Robert": 6773,
      "oned": 6774,
      "hills": 6775,
      "Law": 6776,
      "sympath": 6777,
      "dwell": 6778,
      "settle": 6779,
      "yr": 6780,
      "Vol": 6781,
      "31": 6782,
      "advance": 6783,
      "Bel": 6784,
      "assem": 6785,
      "urally": 6786,
      "freed": 6787,
      "sigh": 6788,
      "ideas": 6789,
      "Richard": 6790,
      "abe": 6791,
      "crim": 6792,
      "El": 6793,
      "olic": 6794,
      "vert": 6795,
      "thank": 6796,
      "ancing": 6797,
      "extent": 6798,
      "luck": 6799,
      "hid": 6800,
      "recent": 6801,
      "birth": 6802,
      "served": 6803,
      "MA": 6804,
      "wounded": 6805,
      "gest": 6806,
      "loud": 6807,
      "yield": 6808,
      "stick": 6809,
      "liberty": 6810,
      "promised": 6811,
      "resem": 6812,
      "woods": 6813,
      "ashed": 6814,
      "Are": 6815,
      "UN": 6816,
      "glance": 6817,
      "otherwise": 6818,
      "suspic": 6819,
      "sour": 6820,
      "vention": 6821,
      "eness": 6822,
      "mons": 6823,
      "logical": 6824,
      "San": 6825,
      "excl": 6826,
      "sought": 6827,
      "excite": 6828,
      "Wo": 6829,
      "cook": 6830,
      "phen": 6831,
      "confidence": 6832,
      "dish": 6833,
      "First": 6834,
      "keeping": 6835,
      "streets": 6836,
      "Him": 6837,
      "aud": 6838,
      "superior": 6839,
      "principal": 6840,
      "ero": 6841,
      "faces": 6842,
      "estern": 6843,
      "particularly": 6844,
      "Wil": 6845,
      "agg": 6846,
      "popul": 6847,
      "pic": 6848,
      "worn": 6849,
      "ification": 6850,
      "fined": 6851,
      "kno": 6852,
      "accus": 6853,
      "collect": 6854,
      "opening": 6855,
      "resul": 6856,
      "forgotten": 6857,
      "entr": 6858,
      "practice": 6859,
      "fate": 6860,
      "72": 6861,
      "shel": 6862,
      "price": 6863,
      "!--": 6864,
      "roof": 6865,
      "Cal": 6866,
      "highest": 6867,
      "itut": 6868,
      "umb": 6869,
      "Spanish": 6870,
      "sorry": 6871,
      "July": 6872,
      "removed": 6873,
      "cool": 6874,
      "distur": 6875,
      "vig": 6876,
      "satisfied": 6877,
      "rooms": 6878,
      "principle": 6879,
      "belief": 6880,
      "faction": 6881,
      "addition": 6882,
      "tempor": 6883,
      "Su": 6884,
      "dign": 6885,
      "pointed": 6886,
      "invest": 6887,
      "Port": 6888,
      "glory": 6889,
      "endeav": 6890,
      "chant": 6891,
      "acle": 6892,
      "More": 6893,
      "err": 6894,
      "_D": 6895,
      "Have": 6896,
      "doctr": 6897,
      "produce": 6898,
      "PS": 6899,
      "egg": 6900,
      "discover": 6901,
      "wouldn": 6902,
      "kin": 6903,
      "pes": 6904,
      "evidently": 6905,
      "solemn": 6906,
      "possessed": 6907,
      "Many": 6908,
      "dig": 6909,
      "Street": 6910,
      "pride": 6911,
      "capable": 6912,
      "enced": 6913,
      "date": 6914,
      "Sch": 6915,
      "independ": 6916,
      "recei": 6917,
      "hom": 6918,
      "High": 6919,
      "aked": 6920,
      "sons": 6921,
      "request": 6922,
      "centre": 6923,
      "soldier": 6924,
      "Bet": 6925,
      "pelled": 6926,
      "President": 6927,
      "ators": 6928,
      "judgment": 6929,
      "Mc": 6930,
      "Pat": 6931,
      "mes": 6932,
      "patient": 6933,
      "liament": 6934,
      "fortunate": 6935,
      "wid": 6936,
      "cloth": 6937,
      "civil": 6938,
      "share": 6939,
      "blow": 6940,
      "Prof": 6941,
      "itated": 6942,
      "ival": 6943,
      "fled": 6944,
      "sorrow": 6945,
      "eds": 6946,
      "waters": 6947,
      "valley": 6948,
      "dust": 6949,
      "relation": 6950,
      "powerful": 6951,
      "Had": 6952,
      "ude": 6953,
      "noticed": 6954,
      "Val": 6955,
      "shape": 6956,
      "becomes": 6957,
      "escap": 6958,
      "stones": 6959,
      "refused": 6960,
      "moving": 6961,
      "fly": 6962,
      "Es": 6963,
      "gaz": 6964,
      "tea": 6965,
      "fifteen": 6966,
      "uce": 6967,
      "carriage": 6968,
      "stat": 6969,
      "wore": 6970,
      "conven": 6971,
      "severe": 6972,
      "holy": 6973,
      "prince": 6974,
      "yard": 6975,
      ",[": 6976,
      "44": 6977,
      "watched": 6978,
      "────": 6979,
      "contrary": 6980,
      "ially": 6981,
      "pounds": 6982,
      "cele": 6983,
      "tellect": 6984,
      "exceed": 6985,
      "guest": 6986,
      "shook": 6987,
      "distri": 6988,
      "kingdom": 6989,
      "daily": 6990,
      "states": 6991,
      "stranger": 6992,
      "reve": 6993,
      "render": 6994,
      "sex": 6995,
      "hearts": 6996,
      "servants": 6997,
      "smiled": 6998,
      "science": 6999,
      "ai": 7000,
      "ceased": 7001,
      "_T": 7002,
      "bury": 7003,
      "double": 7004,
      "exhi": 7005,
      "Comp": 7006,
      "equally": 7007,
      "cured": 7008,
      "neighbour": 7009,
      "knowing": 7010,
      "fond": 7011,
      "uncle": 7012,
      "Jose": 7013,
      "preced": 7014,
      "growing": 7015,
      "eder": 7016,
      "celebr": 7017,
      "color": 7018,
      "Wash": 7019,
      "nice": 7020,
      "ieur": 7021,
      "faint": 7022,
      "apparently": 7023,
      "aside": 7024,
      "seek": 7025,
      "castle": 7026,
      "rom": 7027,
      "**": 7028,
      "devil": 7029,
      "vest": 7030,
      "storm": 7031,
      "consequence": 7032,
      "mut": 7033,
      "acious": 7034,
      "isn": 7035,
      "nur": 7036,
      "provided": 7037,
      "brill": 7038,
      "distinguished": 7039,
      "necessity": 7040,
      "larger": 7041,
      "omy": 7042,
      "nel": 7043,
      "rush": 7044,
      "Ham": 7045,
      "Spain": 7046,
      "Rep": 7047,
      "spirits": 7048,
      "pocket": 7049,
      "mat": 7050,
      "papers": 7051,
      "remembered": 7052,
      "imper": 7053,
      "connected": 7054,
      "naturally": 7055,
      "Mac": 7056,
      "visible": 7057,
      "throughout": 7058,
      "accompan": 7059,
      "cture": 7060,
      "increased": 7061,
      "shadow": 7062,
      "treas": 7063,
      "expressed": 7064,
      "Before": 7065,
      "advanced": 7066,
      "nations": 7067,
      "grim": 7068,
      "Book": 7069,
      "Mont": 7070,
      "cis": 7071,
      "====": 7072,
      "mortal": 7073,
      "intellect": 7074,
      "handsome": 7075,
      "32": 7076,
      "poses": 7077,
      "brief": 7078,
      "yards": 7079,
      "ien": 7080,
      "dollars": 7081,
      "local": 7082,
      "explained": 7083,
      "desired": 7084,
      "Edward": 7085,
      "Str": 7086,
      "principles": 7087,
      "sacred": 7088,
      "mult": 7089,
      "follows": 7090,
      "ctive": 7091,
      "inch": 7092,
      "bearing": 7093,
      "labour": 7094,
      "caut": 7095,
      "ky": 7096,
      "assa": 7097,
      "emies": 7098,
      "divine": 7099,
      "intim": 7100,
      "nes": 7101,
      "title": 7102,
      "Mart": 7103,
      "NE": 7104,
      ");": 7105,
      "secure": 7106,
      "cere": 7107,
      "remarked": 7108,
      "flower": 7109,
      "quarters": 7110,
      "Bro": 7111,
      "umber": 7112,
      "lat": 7113,
      "dropped": 7114,
      "vey": 7115,
      "aret": 7116,
      "monstr": 7117,
      "glor": 7118,
      "quietly": 7119,
      "occurred": 7120,
      "ams": 7121,
      "ational": 7122,
      "inent": 7123,
      "worked": 7124,
      "suggested": 7125,
      "umn": 7126,
      "manif": 7127,
      "alous": 7128,
      "cies": 7129,
      "Alex": 7130,
      ".’": 7131,
      "taught": 7132,
      "Sal": 7133,
      "ential": 7134,
      "pril": 7135,
      "acity": 7136,
      "rendered": 7137,
      "osity": 7138,
      "aband": 7139,
      "indust": 7140,
      "subjects": 7141,
      "Catholic": 7142,
      "ented": 7143,
      "sche": 7144,
      "shop": 7145,
      "shoulder": 7146,
      "cript": 7147,
      "jected": 7148,
      "-+": 7149,
      "Cam": 7150,
      "vous": 7151,
      "bodies": 7152,
      "enjo": 7153,
      "major": 7154,
      "East": 7155,
      "enemies": 7156,
      "During": 7157,
      "pair": 7158,
      "beast": 7159,
      "lly": 7160,
      "lia": 7161,
      "crossed": 7162,
      "Bes": 7163,
      "David": 7164,
      "Master": 7165,
      "Mil": 7166,
      "proportion": 7167,
      "fingers": 7168,
      "acquaint": 7169,
      "paren": 7170,
      "inhabitants": 7171,
      "Was": 7172,
      "Smith": 7173,
      "pill": 7174,
      "group": 7175,
      "Look": 7176,
      "tries": 7177,
      "theless": 7178,
      "breakfast": 7179,
      "purch": 7180,
      "voy": 7181,
      "couldn": 7182,
      "Only": 7183,
      "windows": 7184,
      "legs": 7185,
      "tray": 7186,
      "failed": 7187,
      "llen": 7188,
      "ousin": 7189,
      "rapidly": 7190,
      "stands": 7191,
      "creature": 7192,
      "plate": 7193,
      "worship": 7194,
      "dressed": 7195,
      "rant": 7196,
      "carrying": 7197,
      "ba": 7198,
      "ggle": 7199,
      "tongue": 7200,
      "actually": 7201,
      "shoulders": 7202,
      "cow": 7203,
      "ria": 7204,
      "Sen": 7205,
      "Hall": 7206,
      "shows": 7207,
      "Red": 7208,
      "useful": 7209,
      "base": 7210,
      "berg": 7211,
      "hunt": 7212,
      "lets": 7213,
      "fields": 7214,
      "Jim": 7215,
      "relief": 7216,
      "ulous": 7217,
      "Prin": 7218,
      "golden": 7219,
      "surprised": 7220,
      "Its": 7221,
      "suffered": 7222,
      "oh": 7223,
      "knight": 7224,
      "arts": 7225,
      "Philip": 7226,
      "White": 7227,
      "guns": 7228,
      "Heaven": 7229,
      "memor": 7230,
      "accompanied": 7231,
      "chamber": 7232,
      "rights": 7233,
      "pity": 7234,
      "Def": 7235,
      "arest": 7236,
      "OW": 7237,
      "bore": 7238,
      "reser": 7239,
      "proceeded": 7240,
      "unknown": 7241,
      "description": 7242,
      "April": 7243,
      "Virgin": 7244,
      "series": 7245,
      "directly": 7246,
      "180": 7247,
      "bent": 7248,
      "writer": 7249,
      "driven": 7250,
      "Mag": 7251,
      "shame": 7252,
      "seized": 7253,
      "elect": 7254,
      "ds": 7255,
      "ulated": 7256,
      "ributed": 7257,
      "astic": 7258,
      "Fre": 7259,
      "saf": 7260,
      "gathered": 7261,
      "River": 7262,
      "Dor": 7263,
      "Lat": 7264,
      "rocks": 7265,
      "tes": 7266,
      "arrival": 7267,
      "correct": 7268,
      "Des": 7269,
      "agreed": 7270,
      "atory": 7271,
      "volume": 7272,
      "gas": 7273,
      "rested": 7274,
      "pick": 7275,
      "Life": 7276,
      "flesh": 7277,
      "tired": 7278,
      "Med": 7279,
      "finding": 7280,
      "uries": 7281,
      "tenance": 7282,
      "dangerous": 7283,
      "completely": 7284,
      "anc": 7285,
      "rever": 7286,
      "mile": 7287,
      "Thou": 7288,
      "figures": 7289,
      "Nothing": 7290,
      "mony": 7291,
      "treated": 7292,
      "Emperor": 7293,
      "numbers": 7294,
      "Black": 7295,
      "ette": 7296,
      "audi": 7297,
      "gle": 7298,
      "uding": 7299,
      "acknow": 7300,
      "erable": 7301,
      "mental": 7302,
      "pens": 7303,
      "invol": 7304,
      "sult": 7305,
      "applied": 7306,
      "Irish": 7307,
      "Washington": 7308,
      "nother": 7309,
      "frag": 7310,
      "inquir": 7311,
      "supply": 7312,
      "gather": 7313,
      "Gen": 7314,
      "ik": 7315,
      "India": 7316,
      "rease": 7317,
      "march": 7318,
      "midst": 7319,
      "telling": 7320,
      "Joseph": 7321,
      "surely": 7322,
      "Still": 7323,
      "ico": 7324,
      "plent": 7325,
      "freedom": 7326,
      "successful": 7327,
      "satisfaction": 7328,
      "palace": 7329,
      "Som": 7330,
      "Sep": 7331,
      "coll": 7332,
      "employ": 7333,
      "admitted": 7334,
      "65": 7335,
      "myst": 7336,
      "histori": 7337,
      "unch": 7338,
      "lake": 7339,
      "conqu": 7340,
      "Phil": 7341,
      "sco": 7342,
      "lection": 7343,
      "interested": 7344,
      "Pers": 7345,
      "poem": 7346,
      "reader": 7347,
      "aker": 7348,
      "clearly": 7349,
      "bishop": 7350,
      "twice": 7351,
      "sper": 7352,
      "teeth": 7353,
      "type": 7354,
      "hurried": 7355,
      "concerning": 7356,
      "Vic": 7357,
      "represented": 7358,
      "rode": 7359,
      "doors": 7360,
      "saved": 7361,
      "angry": 7362,
      "RA": 7363,
      "composed": 7364,
      "wret": 7365,
      "us_": 7366,
      "founded": 7367,
      "cret": 7368,
      "ender": 7369,
      "Cast": 7370,
      "Sunday": 7371,
      "Another": 7372,
      "splendid": 7373,
      "ids": 7374,
      "Those": 7375,
      "sevent": 7376,
      "join": 7377,
      "farther": 7378,
      "enthus": 7379,
      "aunt": 7380,
      "=,": 7381,
      "Indeed": 7382,
      "80": 7383,
      "faithful": 7384,
      "_B": 7385,
      "flag": 7386,
      "ais": 7387,
      "lst": 7388,
      "dozen": 7389,
      "cultiv": 7390,
      "179": 7391,
      "affect": 7392,
      "calling": 7393,
      "objects": 7394,
      "75": 7395,
      "regret": 7396,
      "aps": 7397,
      "touched": 7398,
      "salt": 7399,
      "cli": 7400,
      "theory": 7401,
      "cto": 7402,
      "mounted": 7403,
      "smoke": 7404,
      "Eliz": 7405,
      "Italy": 7406,
      "soil": 7407,
      "results": 7408,
      "waited": 7409,
      "transl": 7410,
      "consideration": 7411,
      "Und": 7412,
      "Sat": 7413,
      "drive": 7414,
      "utenant": 7415,
      "brary": 7416,
      "task": 7417,
      "ulation": 7418,
      "persu": 7419,
      "san": 7420,
      "obtain": 7421,
      "laughter": 7422,
      "astern": 7423,
      "apped": 7424,
      "nut": 7425,
      "harm": 7426,
      ".;": 7427,
      "alive": 7428,
      "police": 7429,
      "ardon": 7430,
      "lack": 7431,
      "sphere": 7432,
      "eign": 7433,
      "struggle": 7434,
      "Sou": 7435,
      "impression": 7436,
      "duties": 7437,
      "70": 7438,
      "engine": 7439,
      "forces": 7440,
      "printed": 7441,
      "hither": 7442,
      "suffering": 7443,
      "card": 7444,
      "ost": 7445,
      "liked": 7446,
      "_I": 7447,
      "However": 7448,
      "absence": 7449,
      "amongst": 7450,
      "myster": 7451,
      "gradually": 7452,
      "ping": 7453,
      "inside": 7454,
      "Germany": 7455,
      "needed": 7456,
      "Royal": 7457,
      "prophe": 7458,
      "urious": 7459,
      "proposed": 7460,
      "official": 7461,
      "milk": 7462,
      "talked": 7463,
      "introduced": 7464,
      "illy": 7465,
      "isher": 7466,
      "Though": 7467,
      "angers": 7468,
      "burning": 7469,
      "estim": 7470,
      "commer": 7471,
      "Lie": 7472,
      "informed": 7473,
      "Congress": 7474,
      "efforts": 7475,
      "extraordinary": 7476,
      "Ven": 7477,
      "gue": 7478,
      "minds": 7479,
      "----\"": 7480,
      "solid": 7481,
      "divided": 7482,
      "ainted": 7483,
      "tho": 7484,
      "VIII": 7485,
      "genius": 7486,
      "explan": 7487,
      "welcome": 7488,
      "eping": 7489,
      "excitement": 7490,
      "shire": 7491,
      "acted": 7492,
      "listen": 7493,
      "8vo": 7494,
      "whispered": 7495,
      "brain": 7496,
      "truly": 7497,
      "pow": 7498,
      "Majesty": 7499,
      "delay": 7500,
      "putting": 7501,
      "hurt": 7502,
      "hide": 7503,
      "boats": 7504,
      "retreat": 7505,
      "development": 7506,
      "manifest": 7507,
      "55": 7508,
      "VII": 7509,
      "valuable": 7510,
      "fil": 7511,
      "relations": 7512,
      "Among": 7513,
      "hole": 7514,
      "Er": 7515,
      "ec": 7516,
      ",’": 7517,
      "bay": 7518,
      "lovely": 7519,
      "demanded": 7520,
      "connection": 7521,
      "term": 7522,
      "active": 7523,
      "walking": 7524,
      "collection": 7525,
      "entrance": 7526,
      "posing": 7527,
      "Mal": 7528,
      "flat": 7529,
      "hearing": 7530,
      "awa": 7531,
      "features": 7532,
      "prayer": 7533,
      "text": 7534,
      "atives": 7535,
      "drag": 7536,
      "sympathy": 7537,
      "immen": 7538,
      "closely": 7539,
      "Holy": 7540,
      "iety": 7541,
      "Ly": 7542,
      "require": 7543,
      "nod": 7544,
      "PSIL": 7545,
      "\"--": 7546,
      "igned": 7547,
      "accepted": 7548,
      "CON": 7549,
      "disci": 7550,
      "Harry": 7551,
      "excited": 7552,
      "Francis": 7553,
      "whilst": 7554,
      "possibly": 7555,
      "level": 7556,
      "ounce": 7557,
      "isters": 7558,
      "previous": 7559,
      "itors": 7560,
      "spiritual": 7561,
      "views": 7562,
      "quantity": 7563,
      "cott": 7564,
      "100": 7565,
      "gained": 7566,
      "Ire": 7567,
      "buried": 7568,
      "aken": 7569,
      "lifted": 7570,
      "voc": 7571,
      "slave": 7572,
      "gs": 7573,
      "watching": 7574,
      "increase": 7575,
      "yours": 7576,
      "bag": 7577,
      "haust": 7578,
      "seated": 7579,
      "strain": 7580,
      "complain": 7581,
      "bac": 7582,
      "profession": 7583,
      "IX": 7584,
      "LA": 7585,
      "destru": 7586,
      "busy": 7587,
      "orous": 7588,
      "Men": 7589,
      "tum": 7590,
      "absolutely": 7591,
      "mode": 7592,
      "butter": 7593,
      "FOR": 7594,
      "instinct": 7595,
      "Afri": 7596,
      "is_": 7597,
      "arranged": 7598,
      "advice": 7599,
      "Ke": 7600,
      "falling": 7601,
      "circle": 7602,
      "playing": 7603,
      "notes": 7604,
      "Soci": 7605,
      "ada": 7606,
      "Very": 7607,
      "fighting": 7608,
      "nin": 7609,
      "nearer": 7610,
      "accident": 7611,
      "intention": 7612,
      "assured": 7613,
      "manu": 7614,
      "vessels": 7615,
      "Little": 7616,
      "ride": 7617,
      "preh": 7618,
      "current": 7619,
      "ivity": 7620,
      "practical": 7621,
      "terday": 7622,
      "amid": 7623,
      "parents": 7624,
      "aper": 7625,
      "evident": 7626,
      "reput": 7627,
      "fault": 7628,
      "noise": 7629,
      "prisoners": 7630,
      "udes": 7631,
      "tax": 7632,
      "exhaust": 7633,
      "virtue": 7634,
      "hun": 7635,
      "comfortable": 7636,
      "ades": 7637,
      "wand": 7638,
      "parties": 7639,
      "presently": 7640,
      "Major": 7641,
      "Hal": 7642,
      "rous": 7643,
      "mour": 7644,
      "flight": 7645,
      "suit": 7646,
      "hem": 7647,
      "agreeable": 7648,
      "Aust": 7649,
      "careful": 7650,
      "thoroughly": 7651,
      "highly": 7652,
      "deck": 7653,
      "commen": 7654,
      "angl": 7655,
      "happen": 7656,
      "prisoner": 7657,
      "preach": 7658,
      "tele": 7659,
      "explo": 7660,
      "infer": 7661,
      "surrounded": 7662,
      "abo": 7663,
      "forming": 7664,
      "gray": 7665,
      "charged": 7666,
      "wants": 7667,
      "interests": 7668,
      "Long": 7669,
      "essor": 7670,
      "Fer": 7671,
      "quality": 7672,
      "partly": 7673,
      "queen": 7674,
      "stars": 7675,
      "cabin": 7676,
      "avail": 7677,
      "],": 7678,
      "ads": 7679,
      "utch": 7680,
      "resto": 7681,
      "Italian": 7682,
      "gods": 7683,
      "ancy": 7684,
      "kindly": 7685,
      "rupted": 7686,
      "constitution": 7687,
      "showing": 7688,
      "constant": 7689,
      "chest": 7690,
      "exten": 7691,
      "Nature": 7692,
      "civi": 7693,
      "empty": 7694,
      "fellows": 7695,
      "ana": 7696,
      "pour": 7697,
      "Again": 7698,
      "pin": 7699,
      "supper": 7700,
      "store": 7701,
      "acts": 7702,
      "concerned": 7703,
      "physical": 7704,
      "resolved": 7705,
      ";\"": 7706,
      "immense": 7707,
      "tomed": 7708,
      "bush": 7709,
      "Rob": 7710,
      "keen": 7711,
      "CT": 7712,
      "ilities": 7713,
      "fierce": 7714,
      "Spe": 7715,
      "Ca": 7716,
      "listened": 7717,
      "control": 7718,
      "patri": 7719,
      "Grand": 7720,
      "literature": 7721,
      "liqu": 7722,
      "dying": 7723,
      "pron": 7724,
      "population": 7725,
      "plants": 7726,
      "roll": 7727,
      "abund": 7728,
      "despair": 7729,
      "thinks": 7730,
      "oe": 7731,
      "sover": 7732,
      "appreci": 7733,
      "worst": 7734,
      "lock": 7735,
      "attached": 7736,
      "prompt": 7737,
      "BY": 7738,
      "Defn": 7739,
      "hence": 7740,
      "Love": 7741,
      "rout": 7742,
      ".—": 7743,
      "swift": 7744,
      "dull": 7745,
      "begun": 7746,
      "stern": 7747,
      "cean": 7748,
      "avoid": 7749,
      "directed": 7750,
      "unable": 7751,
      "seless": 7752,
      "tells": 7753,
      "kn": 7754,
      "usal": 7755,
      "stated": 7756,
      "laughing": 7757,
      "nie": 7758,
      "CE": 7759,
      "rum": 7760,
      "wholly": 7761,
      "branches": 7762,
      "Cle": 7763,
      "hopes": 7764,
      "skill": 7765,
      "reven": 7766,
      "Au": 7767,
      "Hor": 7768,
      "grey": 7769,
      "secut": 7770,
      "sli": 7771,
      "Company": 7772,
      "rot": 7773,
      "moments": 7774,
      "Hon": 7775,
      "awn": 7776,
      "leep": 7777,
      "Besides": 7778,
      "striking": 7779,
      "becoming": 7780,
      "zy": 7781,
      "calcul": 7782,
      "shoot": 7783,
      "____": 7784,
      "deeply": 7785,
      "orm": 7786,
      "loose": 7787,
      "flour": 7788,
      "wicked": 7789,
      "disco": 7790,
      "grief": 7791,
      "mond": 7792,
      "ERS": 7793,
      "Gl": 7794,
      "imagination": 7795,
      "couple": 7796,
      "rage": 7797,
      "singular": 7798,
      "adopted": 7799,
      "fever": 7800,
      "devoted": 7801,
      "etch": 7802,
      "copy": 7803,
      "ading": 7804,
      "tis": 7805,
      "lla": 7806,
      "cities": 7807,
      "Bill": 7808,
      "delicate": 7809,
      "drop": 7810,
      "buy": 7811,
      "chosen": 7812,
      "izing": 7813,
      "mistress": 7814,
      "applic": 7815,
      "commit": 7816,
      "track": 7817,
      "actual": 7818,
      "continue": 7819,
      "wings": 7820,
      "tion": 7821,
      "imagine": 7822,
      "condem": 7823,
      "Dis": 7824,
      "Pope": 7825,
      "probable": 7826,
      "lover": 7827,
      "visited": 7828,
      "OD": 7829,
      "exercise": 7830,
      "ata": 7831,
      "match": 7832,
      "oil": 7833,
      "pled": 7834,
      "market": 7835,
      "indign": 7836,
      "meat": 7837,
      "42": 7838,
      "wisdom": 7839,
      "pup": 7840,
      "prevail": 7841,
      "destroyed": 7842,
      "safety": 7843,
      "History": 7844,
      "sive": 7845,
      "isl": 7846,
      "causes": 7847,
      "Flo": 7848,
      "este": 7849,
      "indif": 7850,
      "mistake": 7851,
      "contained": 7852,
      "fairly": 7853,
      "constantly": 7854,
      "crime": 7855,
      "admit": 7856,
      "Chin": 7857,
      "lessly": 7858,
      "gay": 7859,
      "Acc": 7860,
      "escaped": 7861,
      "desper": 7862,
      "folk": 7863,
      "Octo": 7864,
      "aling": 7865,
      "shine": 7866,
      "nose": 7867,
      "kinds": 7868,
      "magnific": 7869,
      "citizens": 7870,
      "ATION": 7871,
      "reasons": 7872,
      "tember": 7873,
      "Elizabe": 7874,
      "Parliament": 7875,
      "remo": 7876,
      "rian": 7877,
      "trial": 7878,
      "commission": 7879,
      "brilliant": 7880,
      "accur": 7881,
      "oub": 7882,
      "compreh": 7883,
      "SH": 7884,
      "terror": 7885,
      "bringing": 7886,
      "protection": 7887,
      "ensive": 7888,
      "relie": 7889,
      "smooth": 7890,
      "huge": 7891,
      "pel": 7892,
      "understanding": 7893,
      "friendly": 7894,
      "October": 7895,
      "Sim": 7896,
      "Professor": 7897,
      "stories": 7898,
      "smiling": 7899,
      "contract": 7900,
      "drove": 7901,
      "sacrifice": 7902,
      "accustomed": 7903,
      "countries": 7904,
      "fleet": 7905,
      "patience": 7906,
      "desir": 7907,
      "Like": 7908,
      "hate": 7909,
      "Hill": 7910,
      "ares": 7911,
      "remind": 7912,
      "separate": 7913,
      "Mex": 7914,
      "Mons": 7915,
      "improve": 7916,
      "oul": 7917,
      "curi": 7918,
      "borne": 7919,
      "colon": 7920,
      "ivers": 7921,
      "ldom": 7922,
      "umes": 7923,
      "Ireland": 7924,
      "Mark": 7925,
      "_L": 7926,
      "exception": 7927,
      "statement": 7928,
      "countenance": 7929,
      "fourth": 7930,
      "kins": 7931,
      "sovereign": 7932,
      "hoped": 7933,
      "sufficiently": 7934,
      "itute": 7935,
      "compelled": 7936,
      "cousin": 7937,
      "jection": 7938,
      "changes": 7939,
      "licy": 7940,
      "Wood": 7941,
      "addressed": 7942,
      "manufact": 7943,
      "earlier": 7944,
      "variety": 7945,
      "gently": 7946,
      "Take": 7947,
      "DW64": 7948,
      "mud": 7949,
      "immediate": 7950,
      "rie": 7951,
      "wheel": 7952,
      "horn": 7953,
      "ggl": 7954,
      "Ac": 7955,
      "shelter": 7956,
      "manage": 7957,
      "59": 7958,
      "strict": 7959,
      "rear": 7960,
      "Society": 7961,
      "bited": 7962,
      "banks": 7963,
      "41": 7964,
      "ado": 7965,
      "wet": 7966,
      "contempt": 7967,
      "Aunt": 7968,
      "Under": 7969,
      "fought": 7970,
      "UM": 7971,
      "privile": 7972,
      "leon": 7973,
      "doctrine": 7974,
      "protest": 7975,
      "evol": 7976,
      "ician": 7977,
      "clouds": 7978,
      "assistance": 7979,
      "female": 7980,
      "visions": 7981,
      "finger": 7982,
      "innocent": 7983,
      "September": 7984,
      "urs": 7985,
      "reward": 7986,
      "Doctor": 7987,
      "disease": 7988,
      "i_": 7989,
      "?--": 7990,
      "arose": 7991,
      "dogs": 7992,
      "Sar": 7993,
      "grate": 7994,
      "chiefly": 7995,
      "distress": 7996,
      "City": 7997,
      "classes": 7998,
      "final": 7999,
      "Cer": 8000,
      "appointment": 8001,
      "mercy": 8002,
      "fulness": 8003,
      "sheep": 8004,
      "ization": 8005,
      "credit": 8006,
      "xim": 8007,
      "Marg": 8008,
      "otion": 8009,
      "engage": 8010,
      "factory": 8011,
      "actions": 8012,
      "zed": 8013,
      "ARD": 8014,
      "effects": 8015,
      "178": 8016,
      "recomm": 8017,
      "painted": 8018,
      "Ter": 8019,
      "Bishop": 8020,
      "Nove": 8021,
      "conclusion": 8022,
      "Spir": 8023,
      "Res": 8024,
      "decor": 8025,
      "disappeared": 8026,
      "prospect": 8027,
      "sey": 8028,
      "Ye": 8029,
      "Che": 8030,
      "friendship": 8031,
      "victory": 8032,
      "yesterday": 8033,
      "chor": 8034,
      "caval": 8035,
      "article": 8036,
      "sport": 8037,
      "mi": 8038,
      "mu": 8039,
      "division": 8040,
      "older": 8041,
      "victim": 8042,
      "acquaintance": 8043,
      "_n": 8044,
      "policy": 8045,
      "calls": 8046,
      "dignity": 8047,
      "rag": 8048,
      "region": 8049,
      "tale": 8050,
      "........": 8051,
      "kindness": 8052,
      "thed": 8053,
      "llo": 8054,
      "operation": 8055,
      "Having": 8056,
      "accoun": 8057,
      "energy": 8058,
      "cure": 8059,
      "affected": 8060,
      "gram": 8061,
      "throne": 8062,
      "althy": 8063,
      "ruin": 8064,
      "everywhere": 8065,
      "AB": 8066,
      "critic": 8067,
      "sooner": 8068,
      "deem": 8069,
      "iny": 8070,
      "towns": 8071,
      "peas": 8072,
      "43": 8073,
      "interrupted": 8074,
      "attended": 8075,
      "acquainted": 8076,
      "growth": 8077,
      "aming": 8078,
      "58": 8079,
      "bath": 8080,
      "Reg": 8081,
      "reference": 8082,
      "indul": 8083,
      "Elizabeth": 8084,
      "Uncle": 8085,
      "56": 8086,
      "Isa": 8087,
      "sugar": 8088,
      "choice": 8089,
      "ini": 8090,
      "scient": 8091,
      "civiliz": 8092,
      "positions": 8093,
      "plenty": 8094,
      "thur": 8095,
      "goods": 8096,
      "57": 8097,
      "cattle": 8098,
      "haven": 8099,
      "acles": 8100,
      "proble": 8101,
      "Bay": 8102,
      "expedition": 8103,
      "itz": 8104,
      "Lin": 8105,
      "slightly": 8106,
      "knees": 8107,
      "details": 8108,
      "Three": 8109,
      "seldom": 8110,
      "bought": 8111,
      "defence": 8112,
      "guide": 8113,
      "praise": 8114,
      "prosper": 8115,
      "articles": 8116,
      "hurry": 8117,
      "lux": 8118,
      "Governor": 8119,
      "Te": 8120,
      "emer": 8121,
      "pas": 8122,
      "Earl": 8123,
      "interval": 8124,
      "natives": 8125,
      "powder": 8126,
      "embar": 8127,
      "Gal": 8128,
      "discovery": 8129,
      "atively": 8130,
      "iture": 8131,
      "inced": 8132,
      "companions": 8133,
      "commanded": 8134,
      "ras": 8135,
      "Pri": 8136,
      "inity": 8137,
      "Mid": 8138,
      "consciousness": 8139,
      "slaves": 8140,
      "weap": 8141,
      "purposes": 8142,
      "precious": 8143,
      "Napo": 8144,
      "hidden": 8145,
      "BO": 8146,
      "foolish": 8147,
      "extended": 8148,
      "conscience": 8149,
      "neighbor": 8150,
      "jealous": 8151,
      "mun": 8152,
      "treatment": 8153,
      "meal": 8154,
      "About": 8155,
      "thri": 8156,
      "intelligence": 8157,
      "eth": 8158,
      "sentiment": 8159,
      "\u0000\u0000\u0000\u0000\u0000\u0000\u0000\u0000": 8160,
      "tar": 8161,
      "vy": 8162,
      "weary": 8163,
      "ller": 8164,
      "regiment": 8165,
      "hers": 8166,
      "January": 8167,
      "eding": 8168,
      "brothers": 8169,
      "enes": 8170,
      "explanation": 8171,
      "LO": 8172,
      "approached": 8173,
      "newsp": 8174,
      "oked": 8175,
      "everybody": 8176,
      "signs": 8177,
      "].": 8178,
      "cting": 8179,
      "containing": 8180,
      "Bra": 8181,
      "cking": 8182,
      "nobody": 8183,
      "wasn": 8184,
      "permitted": 8185,
      "Bob": 8186,
      "elle": 8187,
      "message": 8188,
      "strike": 8189,
      "coach": 8190,
      "Mat": 8191
    },
    "merges": [
      [
        "t",
        "h"
      ],
      [
        "th",
        "e"
      ],
      [
        "i",
        "n"
      ],
      [
        "a",
        "n"
      ],
      [
        "e",
        "r"
      ],
      [
        "o",
        "n"
      ],
      [
        "r",
        "e"
      ],
      [
        "e",
        "n"
      ],
      [
        "a",
        "t"
      ],
      [
        "o",
        "u"
      ],
      [
        "e",
        "d"
      ],
      [
        "o",
        "f"
      ],
      [
        "i",
        "s"
      ],
      [
        "an",
        "d"
      ],
      [
        "t",
        "o"
      ],
      [
        "a",
        "s"
      ],
      [
        "o",
        "r"
      ],
      [
        "e",
        "s"
      ],
      [
        "a",
        "r"
      ],
      [
        "in",
        "g"
      ],
      [
        "a",
        "l"
      ],
      [
        "i",
        "t"
      ],
      [
        "h",
        "e"
      ],
      [
        "l",
        "e"
      ],
      [
        "s",
        "t"
      ],
      [
        "c",
        "h"
      ],
      [
        "s",
        "e"
      ],
      [
        "o",
        "m"
      ],
      [
        "b",
        "e"
      ],
      [
        "a",
        "d"
      ],
      [
        "w",
        "h"
      ],
      [
        "l",
        "y"
      ],
      [
        "n",
        "o"
      ],
      [
        "i",
        "on"
      ],
      [
        "l",
        "l"
      ],
      [
        "c",
        "e"
      ],
      [
        "en",
        "t"
      ],
      [
        "w",
        "i"
      ],
      [
        "v",
        "e"
      ],
      [
        "i",
        "m"
      ],
      [
        "th",
        "at"
      ],
      [
        "l",
        "d"
      ],
      [
        "i",
        "d"
      ],
      [
        "g",
        "h"
      ],
      [
        "f",
        "or"
      ],
      [
        "w",
        "as"
      ],
      [
        "r",
        "o"
      ],
      [
        "v",
        "er"
      ],
      [
        "u",
        "t"
      ],
      [
        "i",
        "r"
      ],
      [
        "l",
        "i"
      ],
      [
        "a",
        "m"
      ],
      [
        "h",
        "is"
      ],
      [
        "a",
        "y"
      ],
      [
        "r",
        "i"
      ],
      [
        "o",
        "w"
      ],
      [
        "wi",
        "th"
      ],
      [
        "t",
        "er"
      ],
      [
        "a",
        "c"
      ],
      [
        "u",
        "n"
      ],
      [
        "-",
        "-"
      ],
      [
        "al",
        "l"
      ],
      [
        "i",
        "c"
      ],
      [
        "y",
        "ou"
      ],
      [
        "h",
        "er"
      ],
      [
        "u",
        "r"
      ],
      [
        "h",
        "a"
      ],
      [
        "d",
        "e"
      ],
      [
        "s",
        "u"
      ],
      [
        "no",
        "t"
      ],
      [
        "gh",
        "t"
      ],
      [
        "e",
        "t"
      ],
      [
        "T",
        "he"
      ],
      [
        "a",
        "b"
      ],
      [
        "the",
        "r"
      ],
      [
        "h",
        "ad"
      ],
      [
        "a",
        "g"
      ],
      [
        "a",
        "in"
      ],
      [
        "l",
        "o"
      ],
      [
        "w",
        "e"
      ],
      [
        "u",
        "s"
      ],
      [
        "a",
        "re"
      ],
      [
        "c",
        "on"
      ],
      [
        "m",
        "o"
      ],
      [
        "wh",
        "i"
      ],
      [
        "s",
        "o"
      ],
      [
        "n",
        "e"
      ],
      [
        "er",
        "e"
      ],
      [
        "p",
        "o"
      ],
      [
        "b",
        "y"
      ],
      [
        "p",
        "e"
      ],
      [
        "c",
        "t"
      ],
      [
        "s",
        "h"
      ],
      [
        "ou",
        "ld"
      ],
      [
        "m",
        "e"
      ],
      [
        "on",
        "e"
      ],
      [
        "f",
        "e"
      ],
      [
        "k",
        "e"
      ],
      [
        "es",
        "s"
      ],
      [
        "i",
        "l"
      ],
      [
        "f",
        "r"
      ],
      [
        "ou",
        "r"
      ],
      [
        "n",
        "d"
      ],
      [
        "whi",
        "ch"
      ],
      [
        "c",
        "om"
      ],
      [
        "ou",
        "t"
      ],
      [
        "u",
        "l"
      ],
      [
        "at",
        "ion"
      ],
      [
        "es",
        "t"
      ],
      [
        "re",
        "s"
      ],
      [
        "o",
        "d"
      ],
      [
        "p",
        "er"
      ],
      [
        "h",
        "im"
      ],
      [
        "q",
        "u"
      ],
      [
        "m",
        "an"
      ],
      [
        "e",
        "x"
      ],
      [
        "ha",
        "ve"
      ],
      [
        "b",
        "ut"
      ],
      [
        "u",
        "p"
      ],
      [
        "fr",
        "om"
      ],
      [
        "a",
        "p"
      ],
      [
        "t",
        "r"
      ],
      [
        "i",
        "f"
      ],
      [
        "s",
        "a"
      ],
      [
        "t",
        "e"
      ],
      [
        "m",
        "y"
      ],
      [
        "ar",
        "d"
      ],
      [
        "th",
        "is"
      ],
      [
        "an",
        "t"
      ],
      [
        "g",
        "o"
      ],
      [
        "ou",
        "s"
      ],
      [
        "w",
        "ere"
      ],
      [
        "p",
        "l"
      ],
      [
        "s",
        "he"
      ],
      [
        "ar",
        "t"
      ],
      [
        "the",
        "y"
      ],
      [
        "f",
        "o"
      ],
      [
        "wh",
        "o"
      ],
      [
        "at",
        "e"
      ],
      [
        "en",
        "d"
      ],
      [
        "i",
        "ll"
      ],
      [
        "d",
        "o"
      ],
      [
        "c",
        "o"
      ],
      [
        "in",
        "d"
      ],
      [
        "no",
        "w"
      ],
      [
        "p",
        "ro"
      ],
      [
        "u",
        "st"
      ],
      [
        "om",
        "e"
      ],
      [
        ".",
        "\""
      ],
      [
        "is",
        "t"
      ],
      [
        "g",
        "e"
      ],
      [
        "the",
        "ir"
      ],
      [
        "on",
        "g"
      ],
      [
        "er",
        "s"
      ],
      [
        "as",
        "t"
      ],
      [
        "w",
        "or"
      ],
      [
        "am",
        "e"
      ],
      [
        "the",
        "m"
      ],
      [
        "is",
        "h"
      ],
      [
        "ver",
        "y"
      ],
      [
        "se",
        "l"
      ],
      [
        "r",
        "a"
      ],
      [
        "m",
        "ent"
      ],
      [
        "ou",
        "nd"
      ],
      [
        "i",
        "ght"
      ],
      [
        "o",
        "p"
      ],
      [
        "p",
        "r"
      ],
      [
        "i",
        "g"
      ],
      [
        "it",
        "y"
      ],
      [
        "o",
        "k"
      ],
      [
        "d",
        "er"
      ],
      [
        "H",
        "e"
      ],
      [
        "re",
        "d"
      ],
      [
        "be",
        "en"
      ],
      [
        ",",
        "\""
      ],
      [
        "b",
        "o"
      ],
      [
        "u",
        "m"
      ],
      [
        "a",
        "k"
      ],
      [
        "o",
        "ther"
      ],
      [
        "i",
        "ve"
      ],
      [
        "w",
        "ould"
      ],
      [
        "ou",
        "gh"
      ],
      [
        "the",
        "re"
      ],
      [
        "a",
        "u"
      ],
      [
        "v",
        "en"
      ],
      [
        "sa",
        "id"
      ],
      [
        "th",
        "ing"
      ],
      [
        "i",
        "e"
      ],
      [
        "w",
        "ay"
      ],
      [
        "o",
        "l"
      ],
      [
        "e",
        "m"
      ],
      [
        "f",
        "a"
      ],
      [
        "c",
        "i"
      ],
      [
        "wi",
        "ll"
      ],
      [
        "s",
        "ome"
      ],
      [
        "en",
        "ce"
      ],
      [
        "ow",
        "n"
      ],
      [
        "c",
        "k"
      ],
      [
        "re",
        "at"
      ],
      [
        "u",
        "re"
      ],
      [
        "as",
        "s"
      ],
      [
        "I",
        "t"
      ],
      [
        "an",
        "y"
      ],
      [
        "r",
        "y"
      ],
      [
        "in",
        "e"
      ],
      [
        "ou",
        "n"
      ],
      [
        "ab",
        "le"
      ],
      [
        "a",
        "f"
      ],
      [
        "it",
        "t"
      ],
      [
        "T",
        "h"
      ],
      [
        "t",
        "im"
      ],
      [
        "wh",
        "en"
      ],
      [
        "it",
        "s"
      ],
      [
        "an",
        "ce"
      ],
      [
        "or",
        "t"
      ],
      [
        "sel",
        "f"
      ],
      [
        "ac",
        "t"
      ],
      [
        "ac",
        "k"
      ],
      [
        "c",
        "l"
      ],
      [
        "mo",
        "re"
      ],
      [
        "e",
        "ar"
      ],
      [
        "c",
        "an"
      ],
      [
        "e",
        "l"
      ],
      [
        "h",
        "o"
      ],
      [
        "po",
        "s"
      ],
      [
        "fo",
        "re"
      ],
      [
        "w",
        "o"
      ],
      [
        "i",
        "es"
      ],
      [
        "an",
        "s"
      ],
      [
        "h",
        "as"
      ],
      [
        "v",
        "ed"
      ],
      [
        "a",
        "ch"
      ],
      [
        "ag",
        "e"
      ],
      [
        "a",
        "ke"
      ],
      [
        "p",
        "t"
      ],
      [
        "p",
        "res"
      ],
      [
        "p",
        "re"
      ],
      [
        "in",
        "to"
      ],
      [
        "d",
        "is"
      ],
      [
        "b",
        "l"
      ],
      [
        "her",
        "e"
      ],
      [
        "t",
        "ain"
      ],
      [
        "d",
        "ay"
      ],
      [
        "id",
        "e"
      ],
      [
        "g",
        "r"
      ],
      [
        "k",
        "now"
      ],
      [
        "al",
        "ly"
      ],
      [
        "wh",
        "at"
      ],
      [
        "ad",
        "e"
      ],
      [
        "th",
        "an"
      ],
      [
        "it",
        "e"
      ],
      [
        "W",
        "h"
      ],
      [
        "b",
        "er"
      ],
      [
        "o",
        "ver"
      ],
      [
        "e",
        "p"
      ],
      [
        "I",
        "n"
      ],
      [
        "f",
        "ul"
      ],
      [
        "v",
        "es"
      ],
      [
        "s",
        "p"
      ],
      [
        "c",
        "ould"
      ],
      [
        "A",
        "nd"
      ],
      [
        "p",
        "art"
      ],
      [
        "b",
        "r"
      ],
      [
        "g",
        "l"
      ],
      [
        "re",
        "e"
      ],
      [
        "ur",
        "n"
      ],
      [
        "ou",
        "ght"
      ],
      [
        "tim",
        "e"
      ],
      [
        "you",
        "r"
      ],
      [
        "ar",
        "y"
      ],
      [
        "ro",
        "w"
      ],
      [
        "ion",
        "s"
      ],
      [
        "B",
        "ut"
      ],
      [
        "b",
        "le"
      ],
      [
        "i",
        "re"
      ],
      [
        "o",
        "t"
      ],
      [
        "st",
        "r"
      ],
      [
        "g",
        "reat"
      ],
      [
        "at",
        "ed"
      ],
      [
        "up",
        "on"
      ],
      [
        "in",
        "t"
      ],
      [
        "i",
        "ce"
      ],
      [
        "m",
        "en"
      ],
      [
        "s",
        "i"
      ],
      [
        "t",
        "y"
      ],
      [
        "li",
        "ke"
      ],
      [
        "M",
        "r"
      ],
      [
        "the",
        "n"
      ],
      [
        "u",
        "e"
      ],
      [
        "mo",
        "st"
      ],
      [
        "p",
        "le"
      ],
      [
        "on",
        "ly"
      ],
      [
        "or",
        "d"
      ],
      [
        "f",
        "er"
      ],
      [
        "v",
        "ing"
      ],
      [
        "p",
        "p"
      ],
      [
        "an",
        "g"
      ],
      [
        "ab",
        "out"
      ],
      [
        "itt",
        "le"
      ],
      [
        "a",
        "ce"
      ],
      [
        "f",
        "l"
      ],
      [
        "af",
        "ter"
      ],
      [
        "sh",
        "ould"
      ],
      [
        "o",
        "b"
      ],
      [
        "se",
        "e"
      ],
      [
        "h",
        "and"
      ],
      [
        "f",
        "ir"
      ],
      [
        "u",
        "d"
      ],
      [
        "ag",
        "ain"
      ],
      [
        "for",
        "m"
      ],
      [
        "l",
        "ong"
      ],
      [
        "l",
        "ittle"
      ],
      [
        "o",
        "se"
      ],
      [
        "d",
        "id"
      ],
      [
        "e",
        "ver"
      ],
      [
        "C",
        "h"
      ],
      [
        "?",
        "\""
      ],
      [
        "s",
        "pe"
      ],
      [
        "t",
        "wo"
      ],
      [
        "u",
        "ch"
      ],
      [
        "m",
        "ay"
      ],
      [
        "m",
        "ade"
      ],
      [
        "s",
        "er"
      ],
      [
        "in",
        "k"
      ],
      [
        "s",
        "on"
      ],
      [
        "s",
        "ay"
      ],
      [
        "wh",
        "ere"
      ],
      [
        "d",
        "es"
      ],
      [
        "re",
        "ad"
      ],
      [
        "s",
        "to"
      ],
      [
        "m",
        "on"
      ],
      [
        "re",
        "t"
      ],
      [
        "we",
        "ll"
      ],
      [
        "c",
        "oun"
      ],
      [
        "w",
        "ard"
      ],
      [
        "h",
        "ow"
      ],
      [
        "lo",
        "ok"
      ],
      [
        "of",
        "f"
      ],
      [
        "s",
        "c"
      ],
      [
        "re",
        "n"
      ],
      [
        "com",
        "e"
      ],
      [
        "m",
        "ar"
      ],
      [
        "--",
        "--"
      ],
      [
        "un",
        "der"
      ],
      [
        "i",
        "ous"
      ],
      [
        "l",
        "a"
      ],
      [
        "l",
        "ess"
      ],
      [
        "be",
        "fore"
      ],
      [
        "the",
        "se"
      ],
      [
        "su",
        "ch"
      ],
      [
        "o",
        "ld"
      ],
      [
        "n",
        "ess"
      ],
      [
        "h",
        "i"
      ],
      [
        "le",
        "t"
      ],
      [
        "go",
        "od"
      ],
      [
        "c",
        "ame"
      ],
      [
        "m",
        "ust"
      ],
      [
        "is",
        "e"
      ],
      [
        "a",
        "th"
      ],
      [
        "W",
        "e"
      ],
      [
        "at",
        "t"
      ],
      [
        "ig",
        "n"
      ],
      [
        "fir",
        "st"
      ],
      [
        "m",
        "uch"
      ],
      [
        "1",
        "8"
      ],
      [
        "ne",
        "w"
      ],
      [
        "E",
        "R"
      ],
      [
        "ar",
        "m"
      ],
      [
        "d",
        "own"
      ],
      [
        "ll",
        "ow"
      ],
      [
        "in",
        "ter"
      ],
      [
        "t",
        "ed"
      ],
      [
        "li",
        "ght"
      ],
      [
        "e",
        "very"
      ],
      [
        "th",
        "r"
      ],
      [
        "a",
        "ve"
      ],
      [
        "be",
        "t"
      ],
      [
        "ct",
        "ion"
      ],
      [
        "c",
        "es"
      ],
      [
        "it",
        "ion"
      ],
      [
        "k",
        "ed"
      ],
      [
        "e",
        "ven"
      ],
      [
        "l",
        "and"
      ],
      [
        "or",
        "n"
      ],
      [
        "p",
        "s"
      ],
      [
        "S",
        "t"
      ],
      [
        "at",
        "er"
      ],
      [
        "ri",
        "ght"
      ],
      [
        "a",
        "v"
      ],
      [
        "c",
        "c"
      ],
      [
        "i",
        "ld"
      ],
      [
        "e",
        "f"
      ],
      [
        "p",
        "ass"
      ],
      [
        "y",
        "ear"
      ],
      [
        "to",
        "r"
      ],
      [
        "S",
        "he"
      ],
      [
        "e",
        "y"
      ],
      [
        "ing",
        "s"
      ],
      [
        "l",
        "ed"
      ],
      [
        "t",
        "en"
      ],
      [
        "ne",
        "ver"
      ],
      [
        "wor",
        "k"
      ],
      [
        "!",
        "\""
      ],
      [
        "i",
        "v"
      ],
      [
        "is",
        "s"
      ],
      [
        "i",
        "an"
      ],
      [
        ".",
        "."
      ],
      [
        "m",
        "er"
      ],
      [
        "en",
        "er"
      ],
      [
        "w",
        "ent"
      ],
      [
        "c",
        "ed"
      ],
      [
        "i",
        "ly"
      ],
      [
        "th",
        "ose"
      ],
      [
        "d",
        "u"
      ],
      [
        "ic",
        "k"
      ],
      [
        "c",
        "all"
      ],
      [
        "man",
        "y"
      ],
      [
        "be",
        "ing"
      ],
      [
        "j",
        "e"
      ],
      [
        "ri",
        "ed"
      ],
      [
        "c",
        "our"
      ],
      [
        "ation",
        "s"
      ],
      [
        "c",
        "er"
      ],
      [
        "t",
        "s"
      ],
      [
        "c",
        "lo"
      ],
      [
        "p",
        "ort"
      ],
      [
        "thr",
        "ough"
      ],
      [
        "ou",
        "se"
      ],
      [
        "m",
        "ight"
      ],
      [
        "g",
        "et"
      ],
      [
        "e",
        "v"
      ],
      [
        "th",
        "ink"
      ],
      [
        "b",
        "ack"
      ],
      [
        "as",
        "e"
      ],
      [
        "con",
        "s"
      ],
      [
        "f",
        "ound"
      ],
      [
        "li",
        "fe"
      ],
      [
        "p",
        "h"
      ],
      [
        "f",
        "t"
      ],
      [
        "s",
        "m"
      ],
      [
        "i",
        "ed"
      ],
      [
        "he",
        "ad"
      ],
      [
        "se",
        "em"
      ],
      [
        "him",
        "self"
      ],
      [
        "at",
        "ter"
      ],
      [
        "li",
        "c"
      ],
      [
        "g",
        "i"
      ],
      [
        "j",
        "ust"
      ],
      [
        "Y",
        "ou"
      ],
      [
        "m",
        "in"
      ],
      [
        "T",
        "his"
      ],
      [
        "con",
        "t"
      ],
      [
        "tr",
        "y"
      ],
      [
        "ct",
        "ed"
      ],
      [
        "s",
        "s"
      ],
      [
        "er",
        "ed"
      ],
      [
        "wor",
        "d"
      ],
      [
        "th",
        "ough"
      ],
      [
        "th",
        "ought"
      ],
      [
        "sh",
        "all"
      ],
      [
        "c",
        "au"
      ],
      [
        "c",
        "ar"
      ],
      [
        "c",
        "r"
      ],
      [
        "a",
        "ir"
      ],
      [
        "ic",
        "al"
      ],
      [
        "s",
        "ame"
      ],
      [
        "to",
        "o"
      ],
      [
        "m",
        "ake"
      ],
      [
        "The",
        "y"
      ],
      [
        "T",
        "here"
      ],
      [
        "w",
        "r"
      ],
      [
        "T",
        "H"
      ],
      [
        "en",
        "s"
      ],
      [
        "n",
        "at"
      ],
      [
        "pres",
        "ent"
      ],
      [
        "un",
        "d"
      ],
      [
        "with",
        "out"
      ],
      [
        "re",
        "g"
      ],
      [
        "f",
        "ri"
      ],
      [
        "n",
        "ight"
      ],
      [
        "on",
        "d"
      ],
      [
        "com",
        "p"
      ],
      [
        "su",
        "b"
      ],
      [
        "pl",
        "ace"
      ],
      [
        "res",
        "s"
      ],
      [
        "l",
        "es"
      ],
      [
        "l",
        "ast"
      ],
      [
        "ap",
        "pe"
      ],
      [
        "u",
        "b"
      ],
      [
        "g",
        "u"
      ],
      [
        "d",
        "ist"
      ],
      [
        "r",
        "an"
      ],
      [
        "i",
        "th"
      ],
      [
        "k",
        "ing"
      ],
      [
        "s",
        "ide"
      ],
      [
        "whi",
        "le"
      ],
      [
        "i",
        "a"
      ],
      [
        "N",
        "o"
      ],
      [
        "b",
        "ro"
      ],
      [
        "p",
        "ut"
      ],
      [
        "be",
        "g"
      ],
      [
        "i",
        "p"
      ],
      [
        "i",
        "z"
      ],
      [
        "com",
        "m"
      ],
      [
        "ish",
        "ed"
      ],
      [
        "n",
        "g"
      ],
      [
        "are",
        "d"
      ],
      [
        "op",
        "le"
      ],
      [
        "ar",
        "s"
      ],
      [
        "se",
        "t"
      ],
      [
        "un",
        "t"
      ],
      [
        "st",
        "and"
      ],
      [
        "ow",
        "er"
      ],
      [
        "h",
        "ouse"
      ],
      [
        "t",
        "ak"
      ],
      [
        "pres",
        "s"
      ],
      [
        "m",
        "ed"
      ],
      [
        "v",
        "o"
      ],
      [
        "te",
        "m"
      ],
      [
        "w",
        "om"
      ],
      [
        "d",
        "en"
      ],
      [
        "st",
        "ill"
      ],
      [
        "d",
        "if"
      ],
      [
        "c",
        "ess"
      ],
      [
        "k",
        "s"
      ],
      [
        "c",
        "ent"
      ],
      [
        "cau",
        "se"
      ],
      [
        "te",
        "ll"
      ],
      [
        "E",
        "n"
      ],
      [
        "s",
        "ur"
      ],
      [
        "a",
        "way"
      ],
      [
        "t",
        "ake"
      ],
      [
        "co",
        "l"
      ],
      [
        "0",
        "0"
      ],
      [
        "t",
        "urn"
      ],
      [
        "pe",
        "ople"
      ],
      [
        "i",
        "al"
      ],
      [
        "l",
        "t"
      ],
      [
        "c",
        "le"
      ],
      [
        "or",
        "s"
      ],
      [
        "li",
        "e"
      ],
      [
        "re",
        "m"
      ],
      [
        "fri",
        "end"
      ],
      [
        "n",
        "er"
      ],
      [
        "en",
        "ed"
      ],
      [
        "u",
        "ll"
      ],
      [
        "al",
        "so"
      ],
      [
        "p",
        "ri"
      ],
      [
        "ch",
        "ar"
      ],
      [
        "n",
        "or"
      ],
      [
        "je",
        "ct"
      ],
      [
        "fo",
        "llow"
      ],
      [
        "a",
        "w"
      ],
      [
        "l",
        "ar"
      ],
      [
        "po",
        "int"
      ],
      [
        "at",
        "es"
      ],
      [
        "fa",
        "ce"
      ],
      [
        "p",
        "ar"
      ],
      [
        "b",
        "re"
      ],
      [
        "us",
        "ed"
      ],
      [
        "i",
        "le"
      ],
      [
        "j",
        "o"
      ],
      [
        "you",
        "ng"
      ],
      [
        "R",
        "E"
      ],
      [
        "v",
        "al"
      ],
      [
        "u",
        "se"
      ],
      [
        "he",
        "art"
      ],
      [
        "ch",
        "ild"
      ],
      [
        "th",
        "ree"
      ],
      [
        "way",
        "s"
      ],
      [
        "it",
        "ed"
      ],
      [
        "fe",
        "ct"
      ],
      [
        "year",
        "s"
      ],
      [
        "in",
        "ce"
      ],
      [
        "A",
        "L"
      ],
      [
        "f",
        "ar"
      ],
      [
        "ey",
        "es"
      ],
      [
        "T",
        "ER"
      ],
      [
        "re",
        "as"
      ],
      [
        "I",
        "f"
      ],
      [
        ".",
        ","
      ],
      [
        "ch",
        "o"
      ],
      [
        "b",
        "u"
      ],
      [
        "ter",
        "s"
      ],
      [
        "c",
        "ap"
      ],
      [
        "ad",
        "d"
      ],
      [
        "g",
        "ener"
      ],
      [
        "G",
        "od"
      ],
      [
        "for",
        "t"
      ],
      [
        "f",
        "ic"
      ],
      [
        "A",
        "n"
      ],
      [
        "Wh",
        "at"
      ],
      [
        "ro",
        "om"
      ],
      [
        "y",
        "et"
      ],
      [
        "A",
        "s"
      ],
      [
        "En",
        "gl"
      ],
      [
        "f",
        "in"
      ],
      [
        "v",
        "is"
      ],
      [
        "H",
        "is"
      ],
      [
        "ne",
        "ar"
      ],
      [
        "o",
        "cc"
      ],
      [
        "b",
        "od"
      ],
      [
        "b",
        "ed"
      ],
      [
        "n",
        "ing"
      ],
      [
        "an",
        "other"
      ],
      [
        "h",
        "al"
      ],
      [
        "O",
        "N"
      ],
      [
        "ce",
        "pt"
      ],
      [
        "me",
        "m"
      ],
      [
        "con",
        "d"
      ],
      [
        "again",
        "st"
      ],
      [
        "le",
        "ft"
      ],
      [
        "on",
        "ce"
      ],
      [
        "l",
        "ow"
      ],
      [
        "st",
        "e"
      ],
      [
        "k",
        "ind"
      ],
      [
        "g",
        "ive"
      ],
      [
        "ent",
        "ly"
      ],
      [
        "en",
        "g"
      ],
      [
        "L",
        "E"
      ],
      [
        "ver",
        "s"
      ],
      [
        "I",
        "I"
      ],
      [
        "T",
        "o"
      ],
      [
        "ul",
        "ar"
      ],
      [
        "hi",
        "gh"
      ],
      [
        "t",
        "on"
      ],
      [
        "as",
        "h"
      ],
      [
        "A",
        "N"
      ],
      [
        "ment",
        "s"
      ],
      [
        "ar",
        "k"
      ],
      [
        "we",
        "en"
      ],
      [
        "cer",
        "tain"
      ],
      [
        "lo",
        "ve"
      ],
      [
        "go",
        "t"
      ],
      [
        "e",
        "ach"
      ],
      [
        "ul",
        "t"
      ],
      [
        "p",
        "a"
      ],
      [
        "c",
        "y"
      ],
      [
        "m",
        "ind"
      ],
      [
        "f",
        "ind"
      ],
      [
        "Wh",
        "en"
      ],
      [
        "I",
        "N"
      ],
      [
        "no",
        "thing"
      ],
      [
        "p",
        "ed"
      ],
      [
        "ent",
        "s"
      ],
      [
        "ha",
        "pp"
      ],
      [
        "t",
        "ing"
      ],
      [
        "fe",
        "w"
      ],
      [
        "str",
        "u"
      ],
      [
        "p",
        "ur"
      ],
      [
        "c",
        "he"
      ],
      [
        "A",
        "r"
      ],
      [
        "a",
        "ut"
      ],
      [
        "F",
        "or"
      ],
      [
        "re",
        "st"
      ],
      [
        "fa",
        "ther"
      ],
      [
        "A",
        "t"
      ],
      [
        "wor",
        "ld"
      ],
      [
        "w",
        "ant"
      ],
      [
        "t",
        "ri"
      ],
      [
        "to",
        "ok"
      ],
      [
        "a",
        "il"
      ],
      [
        "w",
        "ater"
      ],
      [
        "bet",
        "ween"
      ],
      [
        "Th",
        "at"
      ],
      [
        "au",
        "gh"
      ],
      [
        "l",
        "s"
      ],
      [
        "call",
        "ed"
      ],
      [
        "d",
        "on"
      ],
      [
        "in",
        "s"
      ],
      [
        "y",
        "s"
      ],
      [
        "g",
        "ed"
      ],
      [
        "re",
        "p"
      ],
      [
        "1",
        "7"
      ],
      [
        "Th",
        "en"
      ],
      [
        "so",
        "l"
      ],
      [
        "at",
        "ch"
      ],
      [
        "f",
        "act"
      ],
      [
        "an",
        "ge"
      ],
      [
        "per",
        "son"
      ],
      [
        "J",
        "o"
      ],
      [
        "O",
        "n"
      ],
      [
        "sa",
        "w"
      ],
      [
        "v",
        "ent"
      ],
      [
        "r",
        "u"
      ],
      [
        "n",
        "ame"
      ],
      [
        "u",
        "res"
      ],
      [
        "t",
        "al"
      ],
      [
        "S",
        "o"
      ],
      [
        "s",
        "ent"
      ],
      [
        "w",
        "n"
      ],
      [
        "TH",
        "E"
      ],
      [
        "or",
        "der"
      ],
      [
        "al",
        "ways"
      ],
      [
        "on",
        "s"
      ],
      [
        "ser",
        "v"
      ],
      [
        "w",
        "ar"
      ],
      [
        "qu",
        "i"
      ],
      [
        "en",
        "e"
      ],
      [
        "ret",
        "urn"
      ],
      [
        "al",
        "s"
      ],
      [
        "thing",
        "s"
      ],
      [
        "i",
        "ther"
      ],
      [
        "ac",
        "c"
      ],
      [
        "coun",
        "try"
      ],
      [
        "qu",
        "est"
      ],
      [
        "us",
        "h"
      ],
      [
        "m",
        "om"
      ],
      [
        "hal",
        "f"
      ],
      [
        "i",
        "er"
      ],
      [
        "c",
        "are"
      ],
      [
        "co",
        "ver"
      ],
      [
        "c",
        "u"
      ],
      [
        "e",
        "w"
      ],
      [
        "b",
        "it"
      ],
      [
        "read",
        "y"
      ],
      [
        ".",
        "”"
      ],
      [
        "f",
        "am"
      ],
      [
        "se",
        "en"
      ],
      [
        "who",
        "le"
      ],
      [
        "fe",
        "el"
      ],
      [
        "am",
        "ong"
      ],
      [
        "cour",
        "se"
      ],
      [
        "pos",
        "si"
      ],
      [
        "sm",
        "all"
      ],
      [
        "n",
        "um"
      ],
      [
        "m",
        "a"
      ],
      [
        "is",
        "ed"
      ],
      [
        "bod",
        "y"
      ],
      [
        "s",
        "y"
      ],
      [
        "M",
        "ar"
      ],
      [
        "B",
        "e"
      ],
      [
        "F",
        "r"
      ],
      [
        "at",
        "ing"
      ],
      [
        "ro",
        "ss"
      ],
      [
        "S",
        "e"
      ],
      [
        "s",
        "k"
      ],
      [
        "r",
        "ound"
      ],
      [
        "po",
        "se"
      ],
      [
        "Mr",
        "s"
      ],
      [
        "row",
        "n"
      ],
      [
        "ha",
        "ving"
      ],
      [
        "in",
        "ess"
      ],
      [
        "w",
        "on"
      ],
      [
        "l",
        "ad"
      ],
      [
        "end",
        "ed"
      ],
      [
        "w",
        "a"
      ],
      [
        "so",
        "on"
      ],
      [
        "sel",
        "ves"
      ],
      [
        "bo",
        "th"
      ],
      [
        "re",
        "w"
      ],
      [
        "s",
        "po"
      ],
      [
        "h",
        "ome"
      ],
      [
        "th",
        "y"
      ],
      [
        "ans",
        "w"
      ],
      [
        "ward",
        "s"
      ],
      [
        "1",
        "6"
      ],
      [
        "s",
        "at"
      ],
      [
        "ak",
        "ing"
      ],
      [
        "wh",
        "om"
      ],
      [
        "ur",
        "ing"
      ],
      [
        "as",
        "ter"
      ],
      [
        "ple",
        "as"
      ],
      [
        "be",
        "cause"
      ],
      [
        "mo",
        "ther"
      ],
      [
        "su",
        "re"
      ],
      [
        "c",
        "or"
      ],
      [
        "d",
        "one"
      ],
      [
        "s",
        "ou"
      ],
      [
        "v",
        "i"
      ],
      [
        "ex",
        "t"
      ],
      [
        "per",
        "i"
      ],
      [
        "sh",
        "ip"
      ],
      [
        "he",
        "l"
      ],
      [
        "al",
        "e"
      ],
      [
        "v",
        "ol"
      ],
      [
        "sh",
        "ow"
      ],
      [
        "cons",
        "id"
      ],
      [
        "pe",
        "ct"
      ],
      [
        "1",
        "5"
      ],
      [
        "day",
        "s"
      ],
      [
        "to",
        "ry"
      ],
      [
        "look",
        "ed"
      ],
      [
        "p",
        "ower"
      ],
      [
        "f",
        "our"
      ],
      [
        "c",
        "ut"
      ],
      [
        "h",
        "our"
      ],
      [
        ")",
        ","
      ],
      [
        "c",
        "al"
      ],
      [
        "c",
        "a"
      ],
      [
        "f",
        "re"
      ],
      [
        "it",
        "ies"
      ],
      [
        "Ch",
        "r"
      ],
      [
        "to",
        "ld"
      ],
      [
        "wom",
        "an"
      ],
      [
        "mom",
        "ent"
      ],
      [
        "he",
        "ard"
      ],
      [
        "B",
        "r"
      ],
      [
        "w",
        "ind"
      ],
      [
        "s",
        "il"
      ],
      [
        "ho",
        "ld"
      ],
      [
        "g",
        "g"
      ],
      [
        "ant",
        "s"
      ],
      [
        "d",
        "r"
      ],
      [
        "seem",
        "ed"
      ],
      [
        "go",
        "ing"
      ],
      [
        "g",
        "ir"
      ],
      [
        ",",
        "--"
      ],
      [
        "lar",
        "ge"
      ],
      [
        "ain",
        "ed"
      ],
      [
        "l",
        "ay"
      ],
      [
        "c",
        "ri"
      ],
      [
        "u",
        "al"
      ],
      [
        "P",
        "r"
      ],
      [
        "re",
        "l"
      ],
      [
        "h",
        "ard"
      ],
      [
        "su",
        "f"
      ],
      [
        "h",
        "or"
      ],
      [
        "how",
        "ever"
      ],
      [
        "d",
        "ou"
      ],
      [
        "ch",
        "es"
      ],
      [
        "1",
        "0"
      ],
      [
        "b",
        "ar"
      ],
      [
        "C",
        "H"
      ],
      [
        "la",
        "w"
      ],
      [
        "bet",
        "ter"
      ],
      [
        "m",
        "atter"
      ],
      [
        "o",
        "s"
      ],
      [
        "as",
        "ked"
      ],
      [
        "ce",
        "i"
      ],
      [
        ".",
        "'"
      ],
      [
        "su",
        "p"
      ],
      [
        "in",
        "de"
      ],
      [
        "A",
        "l"
      ],
      [
        "be",
        "lie"
      ],
      [
        "ag",
        "es"
      ],
      [
        "inter",
        "est"
      ],
      [
        "tak",
        "en"
      ],
      [
        "s",
        "im"
      ],
      [
        "ge",
        "ther"
      ],
      [
        "sp",
        "ir"
      ],
      [
        "ab",
        "ly"
      ],
      [
        "gi",
        "ven"
      ],
      [
        ".",
        "--"
      ],
      [
        "in",
        "c"
      ],
      [
        "ate",
        "ly"
      ],
      [
        "pl",
        "ay"
      ],
      [
        "to",
        "gether"
      ],
      [
        "know",
        "n"
      ],
      [
        "in",
        "st"
      ],
      [
        "ap",
        "p"
      ],
      [
        "1",
        "2"
      ],
      [
        "li",
        "ed"
      ],
      [
        "su",
        "m"
      ],
      [
        "ful",
        "ly"
      ],
      [
        "o",
        "ve"
      ],
      [
        "d",
        "ra"
      ],
      [
        "e",
        "le"
      ],
      [
        "s",
        "ing"
      ],
      [
        "word",
        "s"
      ],
      [
        "pl",
        "ac"
      ],
      [
        "ic",
        "t"
      ],
      [
        "ie",
        "ld"
      ],
      [
        "A",
        "R"
      ],
      [
        "hand",
        "s"
      ],
      [
        "n",
        "ed"
      ],
      [
        "L",
        "ord"
      ],
      [
        "Chr",
        "ist"
      ],
      [
        "fa",
        "ir"
      ],
      [
        "en",
        "ough"
      ],
      [
        "on",
        "t"
      ],
      [
        "al",
        "most"
      ],
      [
        "dif",
        "fer"
      ],
      [
        "k",
        "new"
      ],
      [
        "cont",
        "in"
      ],
      [
        "qu",
        "ite"
      ],
      [
        "do",
        "es"
      ],
      [
        "x",
        "t"
      ],
      [
        "ad",
        "v"
      ],
      [
        "et",
        "y"
      ],
      [
        "th",
        "or"
      ],
      [
        "pos",
        "ed"
      ],
      [
        "se",
        "ver"
      ],
      [
        "i",
        "i"
      ],
      [
        "op",
        "en"
      ],
      [
        "1",
        "9"
      ],
      [
        "con",
        "f"
      ],
      [
        "R",
        "e"
      ],
      [
        "be",
        "aut"
      ],
      [
        "a",
        "im"
      ],
      [
        "th",
        "us"
      ],
      [
        "or",
        "y"
      ],
      [
        "un",
        "g"
      ],
      [
        "----",
        "----"
      ],
      [
        "do",
        "or"
      ],
      [
        "y",
        "e"
      ],
      [
        "es",
        "e"
      ],
      [
        "h",
        "u"
      ],
      [
        "in",
        "ed"
      ],
      [
        "m",
        "il"
      ],
      [
        "b",
        "est"
      ],
      [
        "h",
        "n"
      ],
      [
        "s",
        "ha"
      ],
      [
        "p",
        "ain"
      ],
      [
        "ust",
        "r"
      ],
      [
        "l",
        "ing"
      ],
      [
        "H",
        "ow"
      ],
      [
        "R",
        "o"
      ],
      [
        "unt",
        "il"
      ],
      [
        "ce",
        "ed"
      ],
      [
        "f",
        "all"
      ],
      [
        "c",
        "ur"
      ],
      [
        "g",
        "ave"
      ],
      [
        "pos",
        "ition"
      ],
      [
        "z",
        "e"
      ],
      [
        "bo",
        "ok"
      ],
      [
        "ir",
        "d"
      ],
      [
        "some",
        "thing"
      ],
      [
        "d",
        "i"
      ],
      [
        "sh",
        "o"
      ],
      [
        "i",
        "gh"
      ],
      [
        "d",
        "ire"
      ],
      [
        "ur",
        "ch"
      ],
      [
        "g",
        "ent"
      ],
      [
        "D",
        "e"
      ],
      [
        ".",
        "]"
      ],
      [
        "an",
        "ces"
      ],
      [
        ",",
        "”"
      ],
      [
        "le",
        "y"
      ],
      [
        "a",
        "ther"
      ],
      [
        "b",
        "us"
      ],
      [
        "ke",
        "ep"
      ],
      [
        "is",
        "on"
      ],
      [
        "m",
        "orn"
      ],
      [
        "b",
        "ur"
      ],
      [
        "ut",
        "e"
      ],
      [
        "br",
        "ought"
      ],
      [
        "am",
        "p"
      ],
      [
        "who",
        "se"
      ],
      [
        "de",
        "ath"
      ],
      [
        "ha",
        "ps"
      ],
      [
        "b",
        "es"
      ],
      [
        "possi",
        "ble"
      ],
      [
        "s",
        "en"
      ],
      [
        "f",
        "ull"
      ],
      [
        "E",
        "N"
      ],
      [
        "g",
        "ra"
      ],
      [
        "ch",
        "ed"
      ],
      [
        "re",
        "ach"
      ],
      [
        "re",
        "am"
      ],
      [
        "M",
        "iss"
      ],
      [
        "U",
        "n"
      ],
      [
        "an",
        "k"
      ],
      [
        "Jo",
        "hn"
      ],
      [
        "other",
        "s"
      ],
      [
        "id",
        "ent"
      ],
      [
        "h",
        "on"
      ],
      [
        "qu",
        "e"
      ],
      [
        "tr",
        "u"
      ],
      [
        "wh",
        "ite"
      ],
      [
        "M",
        "y"
      ],
      [
        "pr",
        "om"
      ],
      [
        "them",
        "selves"
      ],
      [
        "ne",
        "cess"
      ],
      [
        "it",
        "u"
      ],
      [
        "v",
        "ar"
      ],
      [
        "1",
        "4"
      ],
      [
        "b",
        "lo"
      ],
      [
        "B",
        "o"
      ],
      [
        "ne",
        "ed"
      ],
      [
        "morn",
        "ing"
      ],
      [
        "c",
        "ase"
      ],
      [
        "re",
        "al"
      ],
      [
        "w",
        "he"
      ],
      [
        "m",
        "et"
      ],
      [
        "w",
        "al"
      ],
      [
        "l",
        "it"
      ],
      [
        "er",
        "y"
      ],
      [
        "me",
        "an"
      ],
      [
        "ie",
        "f"
      ],
      [
        "A",
        "ll"
      ],
      [
        "O",
        "R"
      ],
      [
        "ar",
        "ing"
      ],
      [
        "c",
        "ir"
      ],
      [
        "1",
        "3"
      ],
      [
        "k",
        "en"
      ],
      [
        "I",
        "nd"
      ],
      [
        "id",
        "ed"
      ],
      [
        "gr",
        "ound"
      ],
      [
        "of",
        "ten"
      ],
      [
        "if",
        "ic"
      ],
[...]
